{
  "version": "1.0",
  "truncation": null,
  "padding": null,
  "added_tokens": [],
  "normalizer": null,
  "pre_tokenizer": {
    "type": "BertPreTokenizer"
  },
  "post_processor": {
    "type": "BertProcessing",
    "sep": [
      "[SEP]",
      1
    ],
    "cls": [
      "[CLS]",
      2
    ]
  },
  "decoder": {
    "type": "WordPiece",
    "prefix": "##",
    "cleanup": true
  },
  "model": {
    "type": "WordPiece",
    "unk_token": "[UNK]",
    "continuing_subword_prefix": "##",
    "max_input_chars_per_word": 4,
    "vocab": {
      "0": 0,
      "1": 1,
      "2": 2,
      "3": 3,
      "4": 4,
      "5": 5,
      "6": 6,
      "7": 7,
      "8": 8,
      "9": 9,
      "a": 10,
      "b": 11,
      "c": 12,
      "d": 13,
      "e": 14,
      "f": 15,
      "##9": 16,
      "##6": 17,
      "##b": 18,
      "##f": 19,
      "##c": 20,
      "##a": 21,
      "##1": 22,
      "##0": 23,
      "##e": 24,
      "##d": 25,
      "##4": 26,
      "##2": 27,
      "##8": 28,
      "##7": 29,
      "##3": 30,
      "##5": 31,
      "##00": 32,
      "00": 33,
      "01": 34,
      "##80": 35,
      "##01": 36,
      "##08": 37,
      "000": 38,
      "##3b": 39,
      "##1b": 40,
      "3b": 41,
      "1b": 42,
      "##3f": 43,
      "##91": 44,
      "##500": 45,
      "91": 46,
      "##34": 47,
      "3f": 48,
      "##48": 49,
      "##15": 50,
      "##6a": 51,
      "0000": 52,
      "##40": 53,
      "34": 54,
      "##2d": 55,
      "##42": 56,
      "##45": 57,
      "##d9": 58,
      "08": 59,
      "##d5": 60,
      "6a": 61,
      "0a": 62,
      "48": 63,
      "0800": 64,
      "##e7": 65,
      "##a4": 66,
      "##06": 67,
      "2f": 68,
      "##3e": 69,
      "d5": 70,
      "7b": 71,
      "##000": 72,
      "##90": 73,
      "##38": 74,
      "0045": 75,
      "##42f": 76,
      "9e7": 77,
      "2d9": 78,
      "4000": 79,
      "341b": 80,
      "3b15": 81,
      "2fd5": 82,
      "a42f": 83,
      "481b": 84,
      "9e7b": 85,
      "1b2d": 86,
      "d56a": 87,
      "2d9e": 88,
      "1ba4": 89,
      "7b3f": 90,
      "080": 91,
      "06": 92,
      "080a": 93,
      "##ea": 94,
      "0101": 95,
      "0001": 96,
      "##28": 97,
      "801": 98,
      "0108": 99,
      "3e": 100,
      "38": 101,
      "ea": 102,
      "1500": 103,
      "##da": 104,
      "0c": 105,
      "4500": 106,
      "da": 107,
      "##4b": 108,
      "3b91": 109,
      "9191": 110,
      "0c38": 111,
      "011": 112,
      "28": 113,
      "0080": 114,
      "91ea": 115,
      "##03": 116,
      "003e": 117,
      "4b": 118,
      "3f08": 119,
      "6a34": 120,
      "3e06": 121,
      "0a01": 122,
      "##00c": 123,
      "ea3b": 124,
      "890": 125,
      "0119": 126,
      "03f": 127,
      "800c": 128,
      "38da": 129,
      "da28": 130,
      "890d": 131,
      "014b": 132,
      "0d": 133,
      "19": 134,
      "##39": 135,
      "##76": 136,
      "39": 137,
      "76": 138,
      "8018": 139,
      "180": 140,
      "##89": 141,
      "3980": 142,
      "7639": 143,
      "0d76": 144,
      "1801": 145,
      "f0": 146,
      "03f0": 147,
      "f048": 148,
      "8010": 149,
      "f1": 150,
      "100": 151,
      "03f1": 152,
      "f148": 153,
      "##200": 154,
      "##a00": 155,
      "15": 156,
      "##68": 157,
      "001": 158,
      "1001": 159,
      "##bc": 160,
      "##32": 161,
      "3c": 162,
      "##94": 163,
      "284": 164,
      "4b8": 165,
      "3f48": 166,
      "6a08": 167,
      "003f": 168,
      "3f06": 169,
      "##e4": 170,
      "##bb": 171,
      "8b": 172,
      "285": 173,
      "##25": 174,
      "45": 175,
      "##b5": 176,
      "283": 177,
      "##e3b": 178,
      "##b8": 179,
      "908": 180,
      "8a00": 181,
      "0015": 182,
      "1594": 183,
      "908a": 184,
      "##c8": 185,
      "191": 186,
      "4b90": 187,
      "0034": 188,
      "192": 189,
      "##b6": 190,
      "##02": 191,
      "##c4": 192,
      "##fa": 193,
      "3200": 194,
      "##1c": 195,
      "##03c": 196,
      "94": 197,
      "067": 198,
      "18": 199,
      "0010": 200,
      "##ec": 201,
      "195": 202,
      "103c": 203,
      "8b32": 204,
      "b8": 205,
      "##60": 206,
      "4b8b": 207,
      "##e1": 208,
      "##03b": 209,
      "##69": 210,
      "8d": 211,
      "2d": 212,
      "##62": 213,
      "##3c": 214,
      "5f": 215,
      "068": 216,
      "##af": 217,
      "4f": 218,
      "cb": 219,
      "b6": 220,
      "85": 221,
      "##3a": 222,
      "##44": 223,
      "02": 224,
      "0e3b": 225,
      "0016": 226,
      "##8d": 227,
      "9c": 228,
      "0bc": 229,
      "##289": 230,
      "##e2": 231,
      "##0c": 232,
      "568": 233,
      "69": 234,
      "bb5": 235,
      "##41": 236,
      "825": 237,
      "168": 238,
      "3e00": 239,
      "000e": 240,
      "3bb8": 241,
      "0bcb": 242,
      "b8ea": 243,
      "8256": 244,
      "568e": 245,
      "0ab6": 246,
      "4508": 247,
      "1682": 248,
      "ea3e": 249,
      "##0b": 250,
      "05": 251,
      "##7c": 252,
      "##22": 253,
      "##49": 254,
      "##d6": 255,
      "##4c": 256,
      "##35": 257,
      "1a": 258,
      "##0a": 259,
      "fa": 260,
      "0d9": 261,
      "##4f": 262,
      "3a": 263,
      "##4a": 264,
      "##489": 265,
      "##8c": 266,
      "##65": 267,
      "##74": 268,
      "##ca": 269,
      "##e5": 270,
      "##dc": 271,
      "ec": 272,
      "4c": 273,
      "##36": 274,
      "5c": 275,
      "4a": 276,
      "##f5": 277,
      "##37": 278,
      "##2c": 279,
      "57": 280,
      "##95": 281,
      "##e89": 282,
      "8e4": 283,
      "0118": 284,
      "##2a": 285,
      "##33b": 286,
      "##b4": 287,
      "880": 288,
      "803b": 289,
      "##3d": 290,
      "0a03": 291,
      "c6": 292,
      "##47": 293,
      "55": 294,
      "##340": 295,
      "4bb": 296,
      "##300": 297,
      "47": 298,
      "03e": 299,
      "##04": 300,
      "##c88": 301,
      "##ce": 302,
      "35": 303,
      "1834": 304,
      "102": 305,
      "##31": 306,
      "##1c6": 307,
      "4ba": 308,
      "##d1": 309,
      "##2f": 310,
      "##089": 311,
      "880c": 312,
      "38e1": 313,
      "bc88": 314,
      "eabc": 315,
      "49": 316,
      "e1c6": 317,
      "03ed": 318,
      "5e": 319,
      "46": 320,
      "##d8": 321,
      "##05": 322,
      "a8": 323,
      "##240": 324,
      "8c": 325,
      "##080": 326,
      "##43b": 327,
      "##64": 328,
      "##f2": 329,
      "##63": 330,
      "##09": 331,
      "##23b": 332,
      "##73b": 333,
      "##7a": 334,
      "##440": 335,
      "065": 336,
      "7c": 337,
      "1c": 338,
      "##d0": 339,
      "##6c": 340,
      "##040": 341,
      "##e40": 342,
      "##61": 343,
      "cc": 344,
      "##71": 345,
      "95": 346,
      "##303": 347,
      "##f3b": 348,
      "##740": 349,
      "6c": 350,
      "58": 351,
      "##e8": 352,
      "##ba": 353,
      "##13b": 354,
      "##403": 355,
      "##30": 356,
      "##ef": 357,
      "2c": 358,
      "##7f": 359,
      "f5": 360,
      "##140": 361,
      "bc": 362,
      "65": 363,
      "##db": 364,
      "##d4": 365,
      "##e0": 366,
      "5a": 367,
      "##11": 368,
      "06a": 369,
      "##93b": 370,
      "da00": 371,
      "000a": 372,
      "dc": 373,
      "##eb": 374,
      "aa": 375,
      "##e6": 376,
      "##689": 377,
      "##d3b": 378,
      "##78": 379,
      "##d2": 380,
      "4b85": 381,
      "##d40": 382,
      "##6b": 383,
      "ca": 384,
      "06f": 385,
      "##33": 386,
      "68": 387,
      "##f40": 388,
      "ac": 389,
      "25": 390,
      "##df": 391,
      "0ae4": 392,
      "0b": 393,
      "##203": 394,
      "##72": 395,
      "##940": 396,
      "85da": 397,
      "##75": 398,
      "##79": 399,
      "8a": 400,
      "##e9": 401,
      "0060": 402,
      "##0f": 403,
      "1020": 404,
      "100b": 405,
      "2a": 406,
      "##640": 407,
      "fa80": 408,
      "9cfa": 409,
      "b5": 410,
      "0d9c": 411,
      "##70": 412,
      "7a": 413,
      "fc": 414,
      "91da": 415,
      "##7b": 416,
      "bf": 417,
      "##63b": 418,
      "bb": 419,
      "005": 420,
      "##003": 421,
      "##9c": 422,
      "##66": 423,
      "##103": 424,
      "180b": 425,
      "90": 426,
      "196a": 427,
      "##98": 428,
      "284f": 429,
      "bb5e": 430,
      "##903": 431,
      "##703": 432,
      "88": 433,
      "##de": 434,
      "a5": 435,
      "00a": 436,
      "##6f": 437,
      "d8": 438,
      "9a": 439,
      "c8": 440,
      "##9e": 441,
      "##1a": 442,
      "##12": 443,
      "##d7": 444,
      "##e03": 445,
      "ba": 446,
      "c5": 447,
      "bb5f": 448,
      "##9a": 449,
      "##d03": 450,
      "e5": 451,
      "7f": 452,
      "2839": 453,
      "##1f": 454,
      "##24": 455,
      "98": 456,
      "78": 457,
      "##9b": 458,
      "5b": 459,
      "##18": 460,
      "75": 461,
      "##d89": 462,
      "040": 463,
      "283a": 464,
      "##803": 465,
      "##2b": 466,
      "##603": 467,
      "6b": 468,
      "##cb": 469,
      "150b": 470,
      "##7d": 471,
      "##14": 472,
      "##9f": 473,
      "##ed": 474,
      "2b": 475,
      "da3b": 476,
      "20": 477,
      "##20": 478,
      "##9d": 479,
      "4880": 480,
      "52": 481,
      "##ee": 482,
      "##480": 483,
      "f8": 484,
      "##cc": 485,
      "e8": 486,
      "ab": 487,
      "8e": 488,
      "##d3": 489,
      "##7e": 490,
      "##6e": 491,
      "9b": 492,
      "42": 493,
      "##93": 494,
      "##92": 495,
      "9048": 496,
      "0d90": 497,
      "1f": 498,
      "06c": 499,
      "b9": 500,
      "db": 501,
      "eb": 502,
      "51": 503,
      "284e": 504,
      "1922": 505,
      "c62": 506,
      "##2e": 507,
      "##dd": 508,
      "##67": 509,
      "##f8": 510,
      "2852": 511,
      "ba00": 512,
      "0005": 513,
      "1924": 514,
      "##fc": 515,
      "##f6": 516,
      "##27": 517,
      "06b": 518,
      "##5a": 519,
      "11": 520,
      "ed6": 521,
      "195e": 522,
      "c4": 523,
      "fb": 524,
      "6a00": 525,
      "##97": 526,
      "##10": 527,
      "22": 528,
      "2853": 529,
      "ed5": 530,
      "##3ba": 531,
      "14": 532,
      "##f03": 533,
      "348": 534,
      "1963": 535,
      "be": 536,
      "##46": 537,
      "37": 538,
      "##1e": 539,
      "283b": 540,
      "41": 541,
      "21": 542,
      "c628": 543,
      "##002": 544,
      "28ce": 545,
      "e4": 546,
      "4e": 547,
      "##73": 548,
      "0038": 549,
      "2840": 550,
      "36": 551,
      "3d": 552,
      "0a00": 553,
      "002d": 554,
      "4bb3": 555,
      "4d": 556,
      "##ff": 557,
      "cec": 558,
      "b3ba": 559,
      "38c4": 560,
      "##96": 561,
      "32": 562,
      "2af": 563,
      "##e3": 564,
      "b6a": 565,
      "##4bb": 566,
      "608": 567,
      "e2": 568,
      "##c0": 569,
      "4ba8": 570,
      "2832": 571,
      "6980": 572,
      "2d74": 573,
      "a86a": 574,
      "24": 575,
      "01bb": 576,
      "31": 577,
      "6969": 578,
      "0d69": 579,
      "##414": 580,
      "86": 581,
      "191a": 582,
      "c1": 583,
      "008": 584,
      "##16": 585,
      "1919": 586,
      "1800": 587,
      "##13": 588,
      "2846": 589,
      "81": 590,
      "2857": 591,
      "54": 592,
      "##fb": 593,
      "71": 594,
      "##4d": 595,
      "e200": 596,
      "##26": 597,
      "1d": 598,
      "##0e": 599,
      "283d": 600,
      "82": 601,
      "##17": 602,
      "##aa": 603,
      "##389": 604,
      "2858": 605,
      "284a": 606,
      "1969": 607,
      "ed": 608,
      "##b0": 609,
      "##43": 610,
      "8f": 611,
      "74": 612,
      "##99": 613,
      "##fe": 614,
      "0002": 615,
      "60": 616,
      "##f0": 617,
      "##4e": 618,
      "0044": 619,
      "af": 620,
      "44": 621,
      "##19": 622,
      "195f": 623,
      "2842": 624,
      "##6d": 625,
      "1915": 626,
      "4414": 627,
      "bf0a": 628,
      "0f": 629,
      "f8c": 630,
      "4bbf": 631,
      "5a00": 632,
      "0204": 633,
      "61": 634,
      "f2": 635,
      "c2": 636,
      "##c3": 637,
      "16": 638,
      "7d": 639,
      "5d": 640,
      "2836": 641,
      "04": 642,
      "##f1": 643,
      "##be": 644,
      "2af8": 645,
      "##c5": 646,
      "##fd": 647,
      "##29": 648,
      "##8a": 649,
      "c62a": 650,
      "##c2": 651,
      "282d": 652,
      "0d5": 653,
      "##b2": 654,
      "##77": 655,
      "cf": 656,
      "0405": 657,
      "17": 658,
      "40": 659,
      "001a": 660,
      "##404": 661,
      "1926": 662,
      "05b4": 663,
      "2837": 664,
      "##1d": 665,
      "##cd": 666,
      "b4": 667,
      "##57": 668,
      "8da": 669,
      "4b95": 670,
      "##c6": 671,
      "f6": 672,
      "df": 673,
      "1aec": 674,
      "cbb": 675,
      "95e2": 676,
      "b1": 677,
      "64": 678,
      "a9": 679,
      "##21": 680,
      "30": 681,
      "058c": 682,
      "26": 683,
      "87": 684,
      "##0d": 685,
      "##23": 686,
      "##52": 687,
      "##90c": 688,
      "2e": 689,
      "##f7": 690,
      "##ac": 691,
      "##50": 692,
      "##07": 693,
      "89": 694,
      "1e": 695,
      "##b3": 696,
      "a1": 697,
      "##b9": 698,
      "##c9": 699,
      "##f4": 700,
      "fd": 701,
      "d1": 702,
      "##c1": 703,
      "1000": 704,
      "##b1": 705,
      "c0": 706,
      "0040": 707,
      "3af": 708,
      "84": 709,
      "0402": 710,
      "##bd": 711,
      "##c7": 712,
      "12": 713,
      "97": 714,
      "1968": 715,
      "004f": 716,
      "e0": 717,
      "9f": 718,
      "003c": 719,
      "9e": 720,
      "##54": 721,
      "c7": 722,
      "##cf": 723,
      "##bf": 724,
      "7e": 725,
      "56": 726,
      "0bb": 727,
      "62": 728,
      "c9": 729,
      "##84": 730,
      "6200": 731,
      "ff": 732,
      "6f": 733,
      "4f64": 734,
      "1a00": 735,
      "0208": 736,
      "de": 737,
      "0200": 738,
      "50": 739,
      "bd": 740,
      "a4": 741,
      "b404": 742,
      "ca5a": 743,
      "4bca": 744,
      "79": 745,
      "e7": 746,
      "29": 747,
      "##b7": 748,
      "##af0": 749,
      "1021": 750,
      "02fa": 751,
      "d9": 752,
      "d6": 753,
      "a7": 754,
      "d7": 755,
      "##f3": 756,
      "33": 757,
      "92": 758,
      "195c": 759,
      "##f9": 760,
      "77": 761,
      "##53": 762,
      "27": 763,
      "2855": 764,
      "b200": 765,
      "##5c": 766,
      "aa00": 767,
      "01f5": 768,
      "ef": 769,
      "cec0": 770,
      "d2": 771,
      "##88": 772,
      "faf0": 773,
      "fe": 774,
      "##224": 775,
      "501": 776,
      "942": 777,
      "283f": 778,
      "1949": 779,
      "ae": 780,
      "e9": 781,
      "2847": 782,
      "00a0": 783,
      "##4b2": 784,
      "80": 785,
      "d4": 786,
      "ce": 787,
      "2854": 788,
      "2d80": 789,
      "5f2d": 790,
      "cd": 791,
      "63": 792,
      "##86": 793,
      "##a8": 794,
      "284c": 795,
      "b7": 796,
      "##8b": 797,
      "2835": 798,
      "0d5f": 799,
      "e1": 800,
      "284b": 801,
      "59": 802,
      "0022": 803,
      "##a0": 804,
      "##56": 805,
      "945": 806,
      "193c": 807,
      "1913": 808,
      "fa00": 809,
      "2850": 810,
      "0d40": 811,
      "2848": 812,
      "f480": 813,
      "1960": 814,
      "2843": 815,
      "72": 816,
      "##d1a": 817,
      "2844": 818,
      "283e": 819,
      "1914": 820,
      "a2": 821,
      "dd": 822,
      "##58": 823,
      "67": 824,
      "a002": 825,
      "b90c": 826,
      "cbbe": 827,
      "66": 828,
      "##092": 829,
      "2849": 830,
      "283c": 831,
      "0bb9": 832,
      "2845": 833,
      "9d": 834,
      "b2": 835,
      "##83": 836,
      "##55": 837,
      "1200": 838,
      "ad": 839,
      "1947": 840,
      "284d": 841,
      "191e": 842,
      "beec": 843,
      "2833": 844,
      "2851": 845,
      "f8c2": 846,
      "53": 847,
      "38cb": 848,
      "4b9d": 849,
      "ec9e": 850,
      "##a2": 851,
      "1961": 852,
      "2830": 853,
      "f7": 854,
      "2841": 855,
      "2831": 856,
      "1965": 857,
      "9d1a": 858,
      "00aa": 859,
      "0e": 860,
      "2224": 861,
      "401": 862,
      "09": 863,
      "##51": 864,
      "94b": 865,
      "0684": 866,
      "07": 867,
      "1937": 868,
      "##5b": 869,
      "e2c4": 870,
      "5200": 871,
      "6d": 872,
      "##5e": 873,
      "13": 874,
      "a6": 875,
      "##ae": 876,
      "##82": 877,
      "f9": 878,
      "0686": 879,
      "e6": 880,
      "948": 881,
      "##8e": 882,
      "0685": 883,
      "193b": 884,
      "0683": 885,
      "##ab": 886,
      "##81": 887,
      "3af4": 888,
      "99": 889,
      "0d3a": 890,
      "f200": 891,
      "f4": 892,
      "d0": 893,
      "##a5": 894,
      "2856": 895,
      "282f": 896,
      "0682": 897,
      "##a6": 898,
      "a200": 899,
      "0681": 900,
      "c200": 901,
      "##ad": 902,
      "0640": 903,
      "2834": 904,
      "145": 905,
      "067e": 906,
      "1923": 907,
      "70": 908,
      "##85": 909,
      "##5d": 910,
      "9a00": 911,
      "1945": 912,
      "4200": 913,
      "##8f": 914,
      "0680": 915,
      "067f": 916,
      "0055": 917,
      "4a00": 918,
      "4bb9": 919,
      "##a7": 920,
      "0677": 921,
      "4bd0": 922,
      "4bc4": 923,
      "3e6c": 924,
      "##e12": 925,
      "f280": 926,
      "b962": 927,
      "1501": 928,
      "5e7": 929,
      "0049": 930,
      "067d": 931,
      "cc80": 932,
      "2df2": 933,
      "2838": 934,
      "##59": 935,
      "0b8": 936,
      "##a3": 937,
      "0d2d": 938,
      "b0": 939,
      "##7cc": 940,
      "##a9": 941,
      "0689": 942,
      "##2c2": 943,
      "cec1": 944,
      "067c": 945,
      "##5f": 946,
      "191b": 947,
      "c4b2": 948,
      "##604": 949,
      "3a00": 950,
      "##87": 951,
      "0678": 952,
      "49bc": 953,
      "##05c": 954,
      "0676": 955,
      "067a": 956,
      "232": 957,
      "005a": 958,
      "1916": 959,
      "6e": 960,
      "ee": 961,
      "##4c3": 962,
      "4bd5": 963,
      "##b52": 964,
      "5c80": 965,
      "067b": 966,
      "7a00": 967,
      "0679": 968,
      "5ab4": 969,
      "a080": 970,
      "d5aa": 971,
      "##a1": 972,
      "03": 973,
      "9200": 974,
      "0027": 975,
      "4be0": 976,
      "1951": 977,
      "1d80": 978,
      "c3": 979,
      "282e": 980,
      "1927": 981,
      "401d": 982,
      "1954": 983,
      "96": 984,
      "0033": 985,
      "4b02": 986,
      "43": 987,
      "24a": 988,
      "05dc": 989,
      "4bae": 990,
      "192d": 991,
      "4ba2": 992,
      "83": 993,
      "195a": 994,
      "550c": 995,
      "d002": 996,
      "bb5d": 997,
      "4bdb": 998,
      "35cc": 999,
      "a0": 1000,
      "0d35": 1001,
      "191f": 1002,
      "63b": 1003,
      "331c": 1004,
      "193e": 1005,
      "ae12": 1006,
      "2d24": 1007,
      "##09a": 1008,
      "20a": 1009,
      "3440": 1010,
      "10": 1011,
      "0687": 1012,
      "1957": 1013,
      "a2c2": 1014,
      "c62d": 1015,
      "5e5": 1016,
      "6ba": 1017,
      "1938": 1018,
      "27cc": 1019,
      "145c": 1020,
      "0066": 1021,
      "245": 1022,
      "5e4": 1023,
      "0303": 1024,
      "2200": 1025,
      "7180": 1026,
      "010f": 1027,
      "8e49": 1028,
      "93": 1029,
      "343b": 1030,
      "24c3": 1031,
      "0d14": 1032,
      "##c4a": 1033,
      "0603": 1034,
      "af3b": 1035,
      "8e4a": 1036,
      "ca00": 1037,
      "0028": 1038,
      "e0fa": 1039,
      "1920": 1040,
      "6604": 1041,
      "007a": 1042,
      "23": 1043,
      "8e4d": 1044,
      "063e": 1045,
      "8e4c": 1046,
      "8e46": 1047,
      "8e44": 1048,
      "007f": 1049,
      "8e45": 1050,
      "##48d": 1051,
      "6080": 1052,
      "57c4": 1053,
      "##c8d": 1054,
      "8e4b": 1055,
      "1962": 1056,
      "940": 1057,
      "063b": 1058,
      "##28d": 1059,
      "22a": 1060,
      "b3": 1061,
      "ed5d": 1062,
      "2f57": 1063,
      "##001": 1064,
      "192f": 1065,
      "c62f": 1066,
      "000b": 1067,
      "196b": 1068,
      "8e47": 1069,
      "##6a2": 1070,
      "1ef": 1071,
      "7200": 1072,
      "063f": 1073,
      "d3": 1074,
      "1503": 1075,
      "4803": 1076,
      "006b": 1077,
      "7f06": 1078,
      "73": 1079,
      "011a": 1080,
      "4703": 1081,
      "4b86": 1082,
      "##38d": 1083,
      "0688": 1084,
      "ea00": 1085,
      "##801": 1086,
      "##113": 1087,
      "ed6c": 1088,
      "##154": 1089,
      "ed64": 1090,
      "cb5": 1091,
      "0671": 1092,
      "##08d": 1093,
      "ed63": 1094,
      "ed5e": 1095,
      "3489": 1096,
      "8e48": 1097,
      "0082": 1098,
      "cbc": 1099,
      "0670": 1100,
      "1918": 1101,
      "4603": 1102,
      "193d": 1103,
      "1925": 1104,
      "0674": 1105,
      "cf3b": 1106,
      "a3": 1107,
      "20b": 1108,
      "192c": 1109,
      "8a80": 1110,
      "c42": 1111,
      "f3": 1112,
      "4b3b": 1113,
      "4be6": 1114,
      "4ba0": 1115,
      "cb8": 1116,
      "244": 1117,
      "db52": 1118,
      "605c": 1119,
      "465": 1120,
      "0025": 1121,
      "0672": 1122,
      "0673": 1123,
      "1936": 1124,
      "601": 1125,
      "7b8a": 1126,
      "0d7b": 1127,
      "867a": 1128,
      "192b": 1129,
      "0b84": 1130,
      "6289": 1131,
      "f53b": 1132,
      "4289": 1133,
      "fe3b": 1134,
      "1289": 1135,
      "0675": 1136,
      "d83b": 1137,
      "ed68": 1138,
      "01f6": 1139,
      "91d8": 1140,
      "0a89": 1141,
      "9a89": 1142,
      "005b": 1143,
      "da89": 1144,
      "8a89": 1145,
      "d289": 1146,
      "6a89": 1147,
      "0570": 1148,
      "0805": 1149,
      "7289": 1150,
      "3a89": 1151,
      "0103": 1152,
      "4c03": 1153,
      "aa89": 1154,
      "2289": 1155,
      "265": 1156,
      "371": 1157,
      "3289": 1158,
      "0289": 1159,
      "5289": 1160,
      "bc3b": 1161,
      "5a89": 1162,
      "4903": 1163,
      "0020": 1164,
      "4503": 1165,
      "4b9b": 1166,
      "0d8d": 1167,
      "2a89": 1168,
      "1703": 1169,
      "##79a": 1170,
      "0050": 1171,
      "4b03": 1172,
      "8289": 1173,
      "91af": 1174,
      "##40c": 1175,
      "7a89": 1176,
      "6089": 1177,
      "9289": 1178,
      "c41": 1179,
      "c08": 1180,
      "ea89": 1181,
      "fa89": 1182,
      "06fd": 1183,
      "20c": 1184,
      "192e": 1185,
      "ed5c": 1186,
      "b289": 1187,
      "f289": 1188,
      "194d": 1189,
      "c289": 1190,
      "1942": 1191,
      "ca89": 1192,
      "8011": 1193,
      "ba89": 1194,
      "4a89": 1195,
      "8da0": 1196,
      "576": 1197,
      "##68d": 1198,
      "##348": 1199,
      "165": 1200,
      "4403": 1201,
      "5010": 1202,
      "a089": 1203,
      "4d03": 1204,
      "259c": 1205,
      "4ef": 1206,
      "8e43": 1207,
      "495": 1208,
      "a289": 1209,
      "a092": 1210,
      "8e4f": 1211,
      "9489": 1212,
      "463b": 1213,
      "e489": 1214,
      "2044": 1215,
      "9b3a": 1216,
      "##e71": 1217,
      "193a": 1218,
      "2300": 1219,
      "ed65": 1220,
      "c93b": 1221,
      "ba3b": 1222,
      "1955": 1223,
      "4a03": 1224,
      "cb6": 1225,
      "192a": 1226,
      "eb00": 1227,
      "3c89": 1228,
      "1a89": 1229,
      "0650": 1230,
      "f93b": 1231,
      "1003": 1232,
      "405": 1233,
      "1940": 1234,
      "e6a2": 1235,
      "14f": 1236,
      "c43b": 1237,
      "e289": 1238,
      "4b8c": 1239,
      "7489": 1240,
      "8e3b": 1241,
      "22f": 1242,
      "c0a": 1243,
      "007c": 1244,
      "4bec": 1245,
      "0011": 1246,
      "0a3b": 1247,
      "1933": 1248,
      "6bac": 1249,
      "103b": 1250,
      "5689": 1251,
      "733b": 1252,
      "##40e": 1253,
      "f8c3": 1254,
      "e300": 1255,
      "1e89": 1256,
      "023b": 1257,
      "##123": 1258,
      "5489": 1259,
      "d489": 1260,
      "9c89": 1261,
      "9f3b": 1262,
      "e42": 1263,
      "3c00": 1264,
      "5e40": 1265,
      "4b40": 1266,
      "442": 1267,
      "4b91": 1268,
      "cb3b": 1269,
      "d13b": 1270,
      "e45": 1271,
      "7c3b": 1272,
      "7c89": 1273,
      "583b": 1274,
      "0c89": 1275,
      "4bf7": 1276,
      "5c89": 1277,
      "4e89": 1278,
      "713b": 1279,
      "d53b": 1280,
      "4e7": 1281,
      "a489": 1282,
      "b300": 1283,
      "b93b": 1284,
      "c03b": 1285,
      "06e4": 1286,
      "b689": 1287,
      "##41a": 1288,
      "8e4e": 1289,
      "6c89": 1290,
      "136": 1291,
      "002a": 1292,
      "0601": 1293,
      "4689": 1294,
      "##7f4": 1295,
      "269": 1296,
      "4e03": 1297,
      "8689": 1298,
      "4003": 1299,
      "0071": 1300,
      "6489": 1301,
      "e73b": 1302,
      "3b00": 1303,
      "##344": 1304,
      "0600": 1305,
      "062f": 1306,
      "4303": 1307,
      "008d": 1308,
      "4489": 1309,
      "2e89": 1310,
      "391": 1311,
      "5e3b": 1312,
      "3c3b": 1313,
      "##60c": 1314,
      "00f6": 1315,
      "2c89": 1316,
      "5018": 1317,
      "0035": 1318,
      "91ca": 1319,
      "dc89": 1320,
      "5c8": 1321,
      "9300": 1322,
      "9689": 1323,
      "2d3b": 1324,
      "1103": 1325,
      "428": 1326,
      "539": 1327,
      "5f40": 1328,
      "c689": 1329,
      "243b": 1330,
      "7089": 1331,
      "e689": 1332,
      "3b98": 1333,
      "ec89": 1334,
      "0657": 1335,
      "1689": 1336,
      "##80c": 1337,
      "1502": 1338,
      "633b": 1339,
      "7154": 1340,
      "d300": 1341,
      "ec4a": 1342,
      "194e": 1343,
      "a53b": 1344,
      "0489": 1345,
      "139": 1346,
      "8300": 1347,
      "0076": 1348,
      "1939": 1349,
      "533b": 1350,
      "a840": 1351,
      "f889": 1352,
      "5240": 1353,
      "5640": 1354,
      "c489": 1355,
      "e3": 1356,
      "4bf1": 1357,
      "4f03": 1358,
      "5503": 1359,
      "1c89": 1360,
      "cc89": 1361,
      "f83b": 1362,
      "16d4": 1363,
      "3300": 1364,
      "3689": 1365,
      "4889": 1366,
      "0629": 1367,
      "011e": 1368,
      "1921": 1369,
      "5303": 1370,
      "8d9": 1371,
      "3f3b": 1372,
      "4c89": 1373,
      "2689": 1374,
      "003b": 1375,
      "573b": 1376,
      "aa3b": 1377,
      "8a3b": 1378,
      "0300": 1379,
      "8e89": 1380,
      "833b": 1381,
      "f689": 1382,
      "69da": 1383,
      "783b": 1384,
      "443b": 1385,
      "4103": 1386,
      "8489": 1387,
      "061b": 1388,
      "4ba5": 1389,
      "2440": 1390,
      "408": 1391,
      "##008": 1392,
      "0632": 1393,
      "4540": 1394,
      "6689": 1395,
      "ae3b": 1396,
      "ae89": 1397,
      "ce89": 1398,
      "943b": 1399,
      "b53b": 1400,
      "0e89": 1401,
      "363b": 1402,
      "4203": 1403,
      "5403": 1404,
      "06e5": 1405,
      "06e3": 1406,
      "001c": 1407,
      "425": 1408,
      "691": 1409,
      "de89": 1410,
      "e48": 1411,
      "0030": 1412,
      "9440": 1413,
      "3a3b": 1414,
      "302": 1415,
      "313b": 1416,
      "7040": 1417,
      "fe89": 1418,
      "4b97": 1419,
      "453b": 1420,
      "4f40": 1421,
      "bc89": 1422,
      "4089": 1423,
      "535": 1424,
      "5440": 1425,
      "153b": 1426,
      "8c22": 1427,
      "6340": 1428,
      "c440": 1429,
      "ee89": 1430,
      "9140": 1431,
      "0269": 1432,
      "6889": 1433,
      "ac89": 1434,
      "2640": 1435,
      "603b": 1436,
      "6440": 1437,
      "703b": 1438,
      "7ca4": 1439,
      "1403": 1440,
      "208": 1441,
      "5e89": 1442,
      "5340": 1443,
      "9f40": 1444,
      "f489": 1445,
      "1540": 1446,
      "2d40": 1447,
      "653b": 1448,
      "e889": 1449,
      "1489": 1450,
      "5003": 1451,
      "7f40": 1452,
      "d73b": 1453,
      "0089": 1454,
      "3e3b": 1455,
      "4940": 1456,
      "a889": 1457,
      "1100": 1458,
      "ad03": 1459,
      "d089": 1460,
      "913b": 1461,
      "062a": 1462,
      "fa3b": 1463,
      "ec3b": 1464,
      "4c3b": 1465,
      "1303": 1466,
      "273b": 1467,
      "c45": 1468,
      "ff3b": 1469,
      "3889": 1470,
      "2889": 1471,
      "195b": 1472,
      "aa40": 1473,
      "406": 1474,
      "a13b": 1475,
      "d689": 1476,
      "b63b": 1477,
      "1f5": 1478,
      "1203": 1479,
      "9e89": 1480,
      "b140": 1481,
      "c140": 1482,
      "e089": 1483,
      "f63b": 1484,
      "0625": 1485,
      "##1c0": 1486,
      "9c40": 1487,
      "112c": 1488,
      "2340": 1489,
      "3d03": 1490,
      "5e1": 1491,
      "011b": 1492,
      "053b": 1493,
      "fc89": 1494,
      "2b6": 1495,
      "3140": 1496,
      "6140": 1497,
      "7e89": 1498,
      "3f40": 1499,
      "1966": 1500,
      "f1f2": 1501,
      "3a40": 1502,
      "353b": 1503,
      "c840": 1504,
      "3d5": 1505,
      "8f40": 1506,
      "bd3b": 1507,
      "f79a": 1508,
      "7b00": 1509,
      "1932": 1510,
      "393b": 1511,
      "a83b": 1512,
      "8c89": 1513,
      "06f1": 1514,
      "6840": 1515,
      "303b": 1516,
      "563b": 1517,
      "8040": 1518,
      "8740": 1519,
      "b33b": 1520,
      "c300": 1521,
      "3f03": 1522,
      "0840": 1523,
      "06f2": 1524,
      "062e": 1525,
      "1948": 1526,
      "068c": 1527,
      "3540": 1528,
      "7540": 1529,
      "2089": 1530,
      "433b": 1531,
      "4240": 1532,
      "7240": 1533,
      "8640": 1534,
      "e403": 1535,
      "f740": 1536,
      "4840": 1537,
      "0540": 1538,
      "4640": 1539,
      "3089": 1540,
      "4e3b": 1541,
      "a940": 1542,
      "c089": 1543,
      "d03b": 1544,
      "0048": 1545,
      "062b": 1546,
      "194f": 1547,
      "76fc": 1548,
      "5889": 1549,
      "c83b": 1550,
      "6b40": 1551,
      "ed5f": 1552,
      "143b": 1553,
      "1040": 1554,
      "973b": 1555,
      "a340": 1556,
      "bf40": 1557,
      "f440": 1558,
      "0641": 1559,
      "293b": 1560,
      "066f": 1561,
      "8b00": 1562,
      "5840": 1563,
      "043b": 1564,
      "173b": 1565,
      "3640": 1566,
      "503b": 1567,
      "543b": 1568,
      "793b": 1569,
      "873b": 1570,
      "3c40": 1571,
      "068b": 1572,
      "693b": 1573,
      "0440": 1574,
      "403b": 1575,
      "843b": 1576,
      "9740": 1577,
      "be89": 1578,
      "##012": 1579,
      "8b40": 1580,
      "##e50": 1581,
      "2a3b": 1582,
      "7a40": 1583,
      "1240": 1584,
      "328": 1585,
      "432": 1586,
      "6e40": 1587,
      "6703": 1588,
      "b489": 1589,
      "7640": 1590,
      "4740": 1591,
      "06f0": 1592,
      "0b40": 1593,
      "e83b": 1594,
      "db3b": 1595,
      "6d3b": 1596,
      "9d40": 1597,
      "a689": 1598,
      "483b": 1599,
      "191d": 1600,
      "1840": 1601,
      "6940": 1602,
      "ec40": 1603,
      "6c3b": 1604,
      "bb3b": 1605,
      "0e40": 1606,
      "2489": 1607,
      "623b": 1608,
      "8e40": 1609,
      "8940": 1610,
      "a33b": 1611,
      "bbb": 1612,
      "ee3b": 1613,
      "e640": 1614,
      "f089": 1615,
      "3240": 1616,
      "4140": 1617,
      "813b": 1618,
      "9940": 1619,
      "c13b": 1620,
      "0634": 1621,
      "06dd": 1622,
      "3e03": 1623,
      "4bfd": 1624,
      "0d3b": 1625,
      "f140": 1626,
      "8c3b": 1627,
      "f503": 1628,
      "223b": 1629,
      "333b": 1630,
      "4080": 1631,
      "5fa": 1632,
      "a03b": 1633,
      "d140": 1634,
      "df40": 1635,
      "f640": 1636,
      "0638": 1637,
      "0628": 1638,
      "c63b": 1639,
      "bb40": 1640,
      "c53b": 1641,
      "fb3b": 1642,
      "033b": 1643,
      "1e3b": 1644,
      "1e40": 1645,
      "1603": 1646,
      "32a": 1647,
      "3340": 1648,
      "a040": 1649,
      "bf3b": 1650,
      "e43b": 1651,
      "083b": 1652,
      "4f3b": 1653,
      "cb40": 1654,
      "1c7c": 1655,
      "2603": 1656,
      "373b": 1657,
      "538": 1658,
      "b940": 1659,
      "f340": 1660,
      "f403": 1661,
      "3840": 1662,
      "##b8d": 1663,
      "b889": 1664,
      "473b": 1665,
      "4bab": 1666,
      "953b": 1667,
      "b401": 1668,
      "476": 1669,
      "b73b": 1670,
      "d940": 1671,
      "7b40": 1672,
      "f13b": 1673,
      "##c49": 1674,
      "1c3b": 1675,
      "2a40": 1676,
      "7889": 1677,
      "fb40": 1678,
      "36f": 1679,
      "423b": 1680,
      "5203": 1681,
      "7d40": 1682,
      "863b": 1683,
      "ef3b": 1684,
      "0003": 1685,
      "3400": 1686,
      "3448": 1687,
      "0630": 1688,
      "0c3b": 1689,
      "0c03": 1690,
      "5f03": 1691,
      "fa40": 1692,
      "5a3b": 1693,
      "##0fc": 1694,
      "883b": 1695,
      "a540": 1696,
      "2940": 1697,
      "2003": 1698,
      "6e89": 1699,
      "af40": 1700,
      "a640": 1701,
      "c240": 1702,
      "c73b": 1703,
      "dd3b": 1704,
      "e040": 1705,
      "e63b": 1706,
      "f23b": 1707,
      "fe40": 1708,
      "013b": 1709,
      "1b40": 1710,
      "062c": 1711,
      "f040": 1712,
      "4bb0": 1713,
      "ab40": 1714,
      "0940": 1715,
      "4440": 1716,
      "5089": 1717,
      "723b": 1718,
      "8340": 1719,
      "8089": 1720,
      "8603": 1721,
      "c203": 1722,
      "0889": 1723,
      "06de": 1724,
      "0117": 1725,
      "f103": 1726,
      "3c03": 1727,
      "493b": 1728,
      "5a40": 1729,
      "fc40": 1730,
      "1640": 1731,
      "63a": 1732,
      "8240": 1733,
      "8f3b": 1734,
      "893b": 1735,
      "9e40": 1736,
      "c303": 1737,
      "e03b": 1738,
      "3b3b": 1739,
      "183b": 1740,
      "5540": 1741,
      "bc40": 1742,
      "dc40": 1743,
      "8889": 1744,
      "f606": 1745,
      "0f40": 1746,
      "532": 1747,
      "537": 1748,
      "5140": 1749,
      "6240": 1750,
      "c44": 1751,
      "e940": 1752,
      "f240": 1753,
      "f43b": 1754,
      "4bb5": 1755,
      "193f": 1756,
      "1a3b": 1757,
      "cc3b": 1758,
      "06ff": 1759,
      "b540": 1760,
      "ba40": 1761,
      "0f3b": 1762,
      "0e03": 1763,
      "263b": 1764,
      "5d40": 1765,
      "708": 1766,
      "9340": 1767,
      "9040": 1768,
      "b040": 1769,
      "e13b": 1770,
      "062d": 1771,
      "0d03": 1772,
      "1964": 1773,
      "8d40": 1774,
      "0240": 1775,
      "2c03": 1776,
      "fc3b": 1777,
      "9b40": 1778,
      "db40": 1779,
      "1089": 1780,
      "1440": 1781,
      "4340": 1782,
      "4040": 1783,
      "4d3b": 1784,
      "5040": 1785,
      "643b": 1786,
      "a740": 1787,
      "b340": 1788,
      "ee40": 1789,
      "2f40": 1790,
      "0631": 1791,
      "194b": 1792,
      "f03b": 1793,
      "b840": 1794,
      "1a40": 1795,
      "4a3b": 1796,
      "cc40": 1797,
      "ac40": 1798,
      "9772": 1799,
      "209a": 1800,
      "311": 1801,
      "635": 1802,
      "673b": 1803,
      "743b": 1804,
      "823b": 1805,
      "a140": 1806,
      "a93b": 1807,
      "be40": 1808,
      "e440": 1809,
      "3b40": 1810,
      "06e6": 1811,
      "3e89": 1812,
      "763b": 1813,
      "1889": 1814,
      "b640": 1815,
      "1a03": 1816,
      "6c40": 1817,
      "d840": 1818,
      "2b3b": 1819,
      "490": 1820,
      "413b": 1821,
      "663b": 1822,
      "a23b": 1823,
      "b003": 1824,
      "d43b": 1825,
      "d740": 1826,
      "0661": 1827,
      "ea40": 1828,
      "0c40": 1829,
      "5c40": 1830,
      "2323": 1831,
      "093b": 1832,
      "2140": 1833,
      "4e40": 1834,
      "7300": 1835,
      "af03": 1836,
      "f940": 1837,
      "3442": 1838,
      "4b00": 1839,
      "7689": 1840,
      "cb00": 1841,
      "0659": 1842,
      "7c40": 1843,
      "ac03": 1844,
      "6b3b": 1845,
      "eb40": 1846,
      "073b": 1847,
      "2040": 1848,
      "3740": 1849,
      "4a4": 1850,
      "6e3b": 1851,
      "ae40": 1852,
      "b080": 1853,
      "f73b": 1854,
      "ff40": 1855,
      "343d": 1856,
      "3443": 1857,
      "d540": 1858,
      "06e9": 1859,
      "011d": 1860,
      "##e2b": 1861,
      "4c40": 1862,
      "4a40": 1863,
      "8840": 1864,
      "113b": 1865,
      "6f3b": 1866,
      "ad3b": 1867,
      "e23b": 1868,
      "063a": 1869,
      "383b": 1870,
      "0280": 1871,
      "2c3b": 1872,
      "983b": 1873,
      "163b": 1874,
      "3d6": 1875,
      "63c": 1876,
      "7340": 1877,
      "7080": 1878,
      "9640": 1879,
      "a440": 1880,
      "b440": 1881,
      "ce3b": 1882,
      "df3b": 1883,
      "0093": 1884,
      "063d": 1885,
      "9089": 1886,
      "ca40": 1887,
      "e503": 1888,
      "9840": 1889,
      "9889": 1890,
      "4fa": 1891,
      "6040": 1892,
      "6f40": 1893,
      "6640": 1894,
      "6e03": 1895,
      "8440": 1896,
      "a43b": 1897,
      "b740": 1898,
      "0636": 1899,
      "06e8": 1900,
      "da40": 1901,
      "c640": 1902,
      "9540": 1903,
      "7a3b": 1904,
      "d889": 1905,
      "c889": 1906,
      "2b40": 1907,
      "0340": 1908,
      "1340": 1909,
      "2e3b": 1910,
      "2e40": 1911,
      "323b": 1912,
      "7e3b": 1913,
      "9240": 1914,
      "b089": 1915,
      "b43b": 1916,
      "c403": 1917,
      "f33b": 1918,
      "6a40": 1919,
      "194a": 1920,
      "068a": 1921,
      "dc3b": 1922,
      "203b": 1923,
      "233b": 1924,
      "8140": 1925,
      "b13b": 1926,
      "cd40": 1927,
      "cf40": 1928,
      "d23b": 1929,
      "e93b": 1930,
      "3445": 1931,
      "0a42": 1932,
      "06d8": 1933,
      "0d6e": 1934,
      "2c40": 1935,
      "2a03": 1936,
      "5b3b": 1937,
      "1740": 1938,
      "6603": 1939,
      "7e40": 1940,
      "963b": 1941,
      "d203": 1942,
      "0602": 1943,
      "0626": 1944,
      "c540": 1945,
      "249": 1946,
      "2203": 1947,
      "513b": 1948,
      "7940": 1949,
      "9e3b": 1950,
      "cd3b": 1951,
      "c940": 1952,
      "e340": 1953,
      "0627": 1954,
      "##7c3": 1955,
      "1c40": 1956,
      "e540": 1957,
      "2b00": 1958,
      "133b": 1959,
      "361": 1960,
      "5d3b": 1961,
      "b03b": 1962,
      "e740": 1963,
      "003a": 1964,
      "0642": 1965,
      "0633": 1966,
      "065a": 1967,
      "6540": 1968,
      "0bf5": 1969,
      "7840": 1970,
      "4d40": 1971,
      "ad40": 1972,
      "c080": 1973,
      "e240": 1974,
      "f003": 1975,
      "3446": 1976,
      "8540": 1977,
      "5c3b": 1978,
      "f540": 1979,
      "2540": 1980,
      "0b03": 1981,
      "1140": 1982,
      "3d3b": 1983,
      "613b": 1984,
      "6e71": 1985,
      "993b": 1986,
      "c340": 1987,
      "c740": 1988,
      "de3b": 1989,
      "d640": 1990,
      "d63b": 1991,
      "ef40": 1992,
      "fd3b": 1993,
      "##004": 1994,
      "2f3b": 1995,
      "06ef": 1996,
      "1967": 1997,
      "8d3b": 1998,
      "06f3": 1999,
      "253b": 2000,
      "0b3b": 2001,
      "e53b": 2002,
      "753b": 2003,
      "6b03": 2004,
      "0740": 2005,
      "1d40": 2006,
      "1f40": 2007,
      "5df": 2008,
      "bd40": 2009,
      "d340": 2010,
      "d93b": 2011,
      "e33b": 2012,
      "e47": 2013,
      "13e": 2014,
      "1d3b": 2015,
      "42c": 2016,
      "593b": 2017,
      "7440": 2018,
      "933b": 2019,
      "a300": 2020,
      "a73b": 2021,
      "bbc": 2022,
      "b240": 2023,
      "0140": 2024,
      "343e": 2025,
      "06ea": 2026,
      "06fa": 2027,
      "06e0": 2028,
      "5b40": 2029,
      "06be": 2030,
      "0087": 2031,
      "2740": 2032,
      "4e5": 2033,
      "d440": 2034,
      "06e2": 2035,
      "8b3b": 2036,
      "f840": 2037,
      "e840": 2038,
      "1f3b": 2039,
      "923b": 2040,
      "d040": 2041,
      "06df": 2042,
      "5771": 2043,
      "0656": 2044,
      "5080": 2045,
      "b23b": 2046,
      "d240": 2047,
      "de40": 2048,
      "ed3b": 2049,
      "343c": 2050,
      "3441": 2051,
      "06da": 2052,
      "0637": 2053,
      "1931": 2054,
      "2af4": 2055,
      "1702": 2056,
      "213b": 2057,
      "7140": 2058,
      "ae03": 2059,
      "d33b": 2060,
      "3444": 2061,
      "06ed": 2062,
      "3880": 2063,
      "011c": 2064,
      "##3cf": 2065,
      "5740": 2066,
      "##11a": 2067,
      "5603": 2068,
      "6d40": 2069,
      "7d3b": 2070,
      "9903": 2071,
      "ed40": 2072,
      "343a": 2073,
      "06e7": 2074,
      "063c": 2075,
      "4bbb": 2076,
      "ab3b": 2077,
      "678": 2078,
      "e140": 2079,
      "6a3b": 2080,
      "7b3b": 2081,
      "0624": 2082,
      "5e03": 2083,
      "0652": 2084,
      "2503": 2085,
      "eb3b": 2086,
      "2703": 2087,
      "4ec": 2088,
      "523b": 2089,
      "dd40": 2090,
      "3449": 2091,
      "3447": 2092,
      "0a40": 2093,
      "553b": 2094,
      "06fb": 2095,
      "ac3b": 2096,
      "2240": 2097,
      "494": 2098,
      "5940": 2099,
      "68d": 2100,
      "be3b": 2101,
      "e4f": 2102,
      "e4a": 2103,
      "0098": 2104,
      "343f": 2105,
      "##06c": 2106,
      "890c": 2107,
      "f080": 2108,
      "b83b": 2109,
      "0bfe": 2110,
      "a5ea": 2111,
      "3040": 2112,
      "ef03": 2113,
      "fd40": 2114,
      "0635": 2115,
      "06f5": 2116,
      "0666": 2117,
      "9c3b": 2118,
      "db00": 2119,
      "545": 2120,
      "7f3b": 2121,
      "c33b": 2122,
      "4b08": 2123,
      "0d17": 2124,
      "8a40": 2125,
      "5280": 2126,
      "4e4": 2127,
      "773b": 2128,
      "7740": 2129,
      "ce40": 2130,
      "0662": 2131,
      "06db": 2132,
      "3e40": 2133,
      "##c8c": 2134,
      "5f3b": 2135,
      "0651": 2136,
      "00ae": 2137,
      "462": 2138,
      "c040": 2139,
      "d503": 2140,
      "4bc0": 2141,
      "06fe": 2142,
      "7003": 2143,
      "a240": 2144,
      "c23b": 2145,
      "f603": 2146,
      "0639": 2147,
      "06d6": 2148,
      "0663": 2149,
      "066c": 2150,
      "191c": 2151,
      "0658": 2152,
      "2903": 2153,
      "5d5": 2154,
      "903b": 2155,
      "3480": 2156,
      "0660": 2157,
      "8c40": 2158,
      "06f8": 2159,
      "06c2": 2160,
      "06bd": 2161,
      "1380": 2162,
      "1080": 2163,
      "123b": 2164,
      "43a": 2165,
      "63f": 2166,
      "9080": 2167,
      "4b0e": 2168,
      "3d40": 2169,
      "6003": 2170,
      "d080": 2171,
      "06ee": 2172,
      "683b": 2173,
      "9a40": 2174,
      "fd42": 2175,
      "2092": 2176,
      "5ec": 2177,
      "5103": 2178,
      "648": 2179,
      "a63b": 2180,
      "f203": 2181,
      "2803": 2182,
      "1b3b": 2183,
      "06c4": 2184,
      "d880": 2185,
      "ab03": 2186,
      "06c1": 2187,
      "824c": 2188,
      "1b03": 2189,
      "06eb": 2190,
      "3940": 2191,
      "06f4": 2192,
      "6740": 2193,
      "0197": 2194,
      "3a03": 2195,
      "1f03": 2196,
      "304c": 2197,
      "2103": 2198,
      "3080": 2199,
      "7403": 2200,
      "7103": 2201,
      "06ec": 2202,
      "4b13": 2203,
      "9503": 2204,
      "06a5": 2205,
      "ca3b": 2206,
      "0f03": 2207,
      "f303": 2208,
      "06d9": 2209,
      "1952": 2210,
      "853b": 2211,
      "06c3": 2212,
      "142": 2213,
      "22b": 2214,
      "44b": 2215,
      "6300": 2216,
      "d200": 2217,
      "060b": 2218,
      "0649": 2219,
      "06a0": 2220,
      "8880": 2221,
      "9b3b": 2222,
      "2303": 2223,
      "8200": 2224,
      "1b00": 2225,
      "347e": 2226,
      "195d": 2227,
      "0655": 2228,
      "06b0": 2229,
      "334": 2230,
      "e4c": 2231,
      "0665": 2232,
      "06d7": 2233,
      "6103": 2234,
      "009e": 2235,
      "0667": 2236,
      "135": 2237,
      "9d3b": 2238,
      "007b": 2239,
      "6a03": 2240,
      "06dc": 2241,
      "1911": 2242,
      "06f6": 2243,
      "4d6": 2244,
      "e080": 2245,
      "06a8": 2246,
      "06f9": 2247,
      "9a3b": 2248,
      "ab42": 2249,
      "d103": 2250,
      "e41": 2251,
      "060c": 2252,
      "066e": 2253,
      "2d03": 2254,
      "##36c": 2255,
      "6880": 2256,
      "b97d": 2257,
      "6d03": 2258,
      "745": 2259,
      "b103": 2260,
      "060a": 2261,
      "0605": 2262,
      "0611": 2263,
      "06a6": 2264,
      "06af": 2265,
      "b534": 2266,
      "3afc": 2267,
      "6f03": 2268,
      "8080": 2269,
      "c103": 2270,
      "3b03": 2271,
      "0d71": 2272,
      "06ac": 2273,
      "0703": 2274,
      "491": 2275,
      "5ea": 2276,
      "68c": 2277,
      "7113": 2278,
      "9b5": 2279,
      "0608": 2280,
      "0606": 2281,
      "06d4": 2282,
      "011f": 2283,
      "##093": 2284,
      "625": 2285,
      "06c8": 2286,
      "066d": 2287,
      "3a4": 2288,
      "368": 2289,
      "87f4": 2290,
      "e4b": 2291,
      "ee03": 2292,
      "06d5": 2293,
      "0647": 2294,
      "6503": 2295,
      "8a03": 2296,
      "525": 2297,
      "e49": 2298,
      "1958": 2299,
      "02eb": 2300,
      "065d": 2301,
      "2b03": 2302,
      "2122": 2303,
      "6403": 2304,
      "e703": 2305,
      "##402": 2306,
      "347d": 2307,
      "061f": 2308,
      "35a4": 2309,
      "##793": 2310,
      "79b": 2311,
      "0037": 2312,
      "d589": 2313,
      "0664": 2314,
      "0692": 2315,
      "275": 2316,
      "32c": 2317,
      "8703": 2318,
      "a103": 2319,
      "0653": 2320,
      "06a9": 2321,
      "9a52": 2322,
      "0d57": 2323,
      "5e2": 2324,
      "00cb": 2325,
      "0694": 2326,
      "06d2": 2327,
      "068d": 2328,
      "06a3": 2329,
      "f703": 2330,
      "0616": 2331,
      "0d9a": 2332,
      "5703": 2333,
      "065c": 2334,
      "aa03": 2335,
      "0903": 2336,
      "528": 2337,
      "e603": 2338,
      "06b4": 2339,
      "b5f2": 2340,
      "2d5": 2341,
      "331": 2342,
      "##064": 2343,
      "06bb": 2344,
      "0610": 2345,
      "1950": 2346,
      "06c5": 2347,
      "1e03": 2348,
      "c47": 2349,
      "0668": 2350,
      "06ba": 2351,
      "0607": 2352,
      "1c80": 2353,
      "1101": 2354,
      "dd89": 2355,
      "##456": 2356,
      "0880": 2357,
      "0604": 2358,
      "06a1": 2359,
      "7503": 2360,
      "2080": 2361,
      "d003": 2362,
      "002f": 2363,
      "068f": 2364,
      "534": 2365,
      "06e1": 2366,
      "069f": 2367,
      "0017": 2368,
      "065f": 2369,
      "06ae": 2370,
      "24b": 2371,
      "6803": 2372,
      "064a": 2373,
      "069e": 2374,
      "060d": 2375,
      "0d89": 2376,
      "1946": 2377,
      "0803": 2378,
      "4bc5": 2379,
      "0589": 2380,
      "5a03": 2381,
      "##ebf": 2382,
      "06bf": 2383,
      "637": 2384,
      "a012": 2385,
      "06a2": 2386,
      "2a00": 2387,
      "84a": 2388,
      "d0a": 2389,
      "06ca": 2390,
      "9480": 2391,
      "6c03": 2392,
      "e880": 2393,
      "2403": 2394,
      "5803": 2395,
      "9803": 2396,
      "a203": 2397,
      "b09a": 2398,
      "0648": 2399,
      "064f": 2400,
      "069d": 2401,
      "064d": 2402,
      "3d89": 2403,
      "b203": 2404,
      "06d3": 2405,
      "3589": 2406,
      "dc80": 2407,
      "06f7": 2408,
      "06b9": 2409,
      "615": 2410,
      "6903": 2411,
      "74a": 2412,
      "cf03": 2413,
      "060f": 2414,
      "bb4a": 2415,
      "9a03": 2416,
      "52a": 2417,
      "0070": 2418,
      "2880": 2419,
      "194c": 2420,
      "2d89": 2421,
      "8589": 2422,
      "1300": 2423,
      "842": 2424,
      "06aa": 2425,
      "06a4": 2426,
      "06a7": 2427,
      "7589": 2428,
      "210b": 2429,
      "6303": 2430,
      "066b": 2431,
      "1917": 2432,
      "7880": 2433,
      "522": 2434,
      "d303": 2435,
      "e44": 2436,
      "066a": 2437,
      "06b5": 2438,
      "0669": 2439,
      "0697": 2440,
      "0643": 2441,
      "1912": 2442,
      "8d89": 2443,
      "065b": 2444,
      "06ab": 2445,
      "06fc": 2446,
      "2589": 2447,
      "a589": 2448,
      "06cd": 2449,
      "390": 2450,
      "378": 2451,
      "4d89": 2452,
      "548": 2453,
      "cd89": 2454,
      "0004": 2455,
      "06ad": 2456,
      "0053": 2457,
      "544": 2458,
      "6d89": 2459,
      "749": 2460,
      "c4f": 2461,
      "04b": 2462,
      "c40": 2463,
      "d603": 2464,
      "0609": 2465,
      "##0b2": 2466,
      "31a": 2467,
      "9d89": 2468,
      "f803": 2469,
      "b880": 2470,
      "9c03": 2471,
      "5589": 2472,
      "9603": 2473,
      "347f": 2474,
      "0691": 2475,
      "0690": 2476,
      "760c": 2477,
      "a880": 2478,
      "06c9": 2479,
      "fb03": 2480,
      "9403": 2481,
      "9b03": 2482,
      "06c6": 2483,
      "9344": 2484,
      "d403": 2485,
      "e903": 2486,
      "0620": 2487,
      "0116": 2488,
      "##60a": 2489,
      "9880": 2490,
      "20d7": 2491,
      "37c": 2492,
      "06d1": 2493,
      "069c": 2494,
      "4589": 2495,
      "45ac": 2496,
      "ec03": 2497,
      "8c03": 2498,
      "6589": 2499,
      "06cf": 2500,
      "06b1": 2501,
      "20aa": 2502,
      "20a1": 2503,
      "c0a2": 2504,
      "7203": 2505,
      "9703": 2506,
      "e303": 2507,
      "00b5": 2508,
      "347c": 2509,
      "0615": 2510,
      "06bc": 2511,
      "0621": 2512,
      "8903": 2513,
      "1934": 2514,
      "1880": 2515,
      "065e": 2516,
      "0654": 2517,
      "b589": 2518,
      "06b3": 2519,
      "4054": 2520,
      "14b": 2521,
      "42a": 2522,
      "4df": 2523,
      "694": 2524,
      "064c": 2525,
      "5c03": 2526,
      "8d9c": 2527,
      "3da": 2528,
      "6203": 2529,
      "0036": 2530,
      "06b6": 2531,
      "06d0": 2532,
      "1928": 2533,
      "068e": 2534,
      "e589": 2535,
      "33b": 2536,
      "338": 2537,
      "41f": 2538,
      "8ca": 2539,
      "fd89": 2540,
      "0893": 2541,
      "0693": 2542,
      "##3a0": 2543,
      "9589": 2544,
      "a503": 2545,
      "1d03": 2546,
      "445": 2547,
      "8303": 2548,
      "ad89": 2549,
      "bb8": 2550,
      "1589": 2551,
      "1c03": 2552,
      "98ec": 2553,
      "06b7": 2554,
      "1ea": 2555,
      "56a": 2556,
      "549": 2557,
      "a403": 2558,
      "a003": 2559,
      "0613": 2560,
      "064e": 2561,
      "c880": 2562,
      "542": 2563,
      "54f": 2564,
      "06cb": 2565,
      "0b76": 2566,
      "c503": 2567,
      "f880": 2568,
      "44c": 2569,
      "d480": 2570,
      "ed89": 2571,
      "f903": 2572,
      "20ed": 2573,
      "0f8": 2574,
      "344a": 2575,
      "6b00": 2576,
      "20c8": 2577,
      "20de": 2578,
      "eb03": 2579,
      "435": 2580,
      "645": 2581,
      "66f": 2582,
      "7303": 2583,
      "fa03": 2584,
      "20e6": 2585,
      "13e3": 2586,
      "5d03": 2587,
      "690": 2588,
      "6ca": 2589,
      "e803": 2590,
      "00fe": 2591,
      "0801": 2592,
      "061c": 2593,
      "3890": 2594,
      "315": 2595,
      "0612": 2596,
      "0619": 2597,
      "1c00": 2598,
      "dc03": 2599,
      "3d9": 2600,
      "3e7": 2601,
      "7e7": 2602,
      "a703": 2603,
      "c05": 2604,
      "e103": 2605,
      "1956": 2606,
      "0201": 2607,
      "5880": 2608,
      "##2b9": 2609,
      "06c7": 2610,
      "1d89": 2611,
      "279": 2612,
      "380": 2613,
      "500": 2614,
      "647": 2615,
      "74f": 2616,
      "7d89": 2617,
      "c4c": 2618,
      "06b2": 2619,
      "4e2": 2620,
      "64c": 2621,
      "64f": 2622,
      "8203": 2623,
      "a603": 2624,
      "c4b": 2625,
      "0622": 2626,
      "ea03": 2627,
      "2ec": 2628,
      "5d89": 2629,
      "3b31": 2630,
      "0623": 2631,
      "38e5": 2632,
      "0113": 2633,
      "982c": 2634,
      "0400": 2635,
      "20cf": 2636,
      "26a": 2637,
      "54b": 2638,
      "742": 2639,
      "7d5": 2640,
      "004b": 2641,
      "061d": 2642,
      "##c46": 2643,
      "##c4c": 2644,
      "##612": 2645,
      "0b00": 2646,
      "2104": 2647,
      "8103": 2648,
      "a903": 2649,
      "0617": 2650,
      "8b03": 2651,
      "1fa": 2652,
      "365": 2653,
      "9f03": 2654,
      "eb6": 2655,
      "00a4": 2656,
      "1953": 2657,
      "##221": 2658,
      "20b1": 2659,
      "3df": 2660,
      "480": 2661,
      "bd89": 2662,
      "00d5": 2663,
      "00c6": 2664,
      "3114": 2665,
      "141a": 2666,
      "376": 2667,
      "c3b": 2668,
      "c4a": 2669,
      "0645": 2670,
      "4bd6": 2671,
      "4b04": 2672,
      "4b30": 2673,
      "3c80": 2674,
      "8d03": 2675,
      "##747": 2676,
      "3d8": 2677,
      "845": 2678,
      "069b": 2679,
      "0110": 2680,
      "7603": 2681,
      "06c0": 2682,
      "0308": 2683,
      "4d5": 2684,
      "84f": 2685,
      "9e03": 2686,
      "ed03": 2687,
      "ff03": 2688,
      "06cc": 2689,
      "0646": 2690,
      "4b41": 2691,
      "4c80": 2692,
      "5b03": 2693,
      "dd03": 2694,
      "069a": 2695,
      "0699": 2696,
      "4b89": 2697,
      "04f": 2698,
      "20fc": 2699,
      "44f": 2700,
      "4300": 2701,
      "64b": 2702,
      "64a": 2703,
      "78c": 2704,
      "8002": 2705,
      "840e": 2706,
      "f589": 2707,
      "fc03": 2708,
      "4123": 2709,
      "642": 2710,
      "9d03": 2711,
      "a803": 2712,
      "b08": 2713,
      "c003": 2714,
      "4b19": 2715,
      "##746": 2716,
      "14a": 2717,
      "9e5": 2718,
      "0abe": 2719,
      "1903": 2720,
      "441": 2721,
      "50a": 2722,
      "815": 2723,
      "f300": 2724,
      "0134": 2725,
      "0a28": 2726,
      "06ce": 2727,
      "060e": 2728,
      "4b1f": 2729,
      "40c": 2730,
      "53f": 2731,
      "bca": 2732,
      "0698": 2733,
      "ab34": 2734,
      "049": 2735,
      "5903": 2736,
      "835": 2737,
      "db5": 2738,
      "061a": 2739,
      "4bcb": 2740,
      "1929": 2741,
      "493d": 2742,
      "20b9": 2743,
      "79b3": 2744,
      "2113": 2745,
      "94bb": 2746,
      "061e": 2747,
      "1803": 2748,
      "0503": 2749,
      "2cba": 2750,
      "c589": 2751,
      "fb00": 2752,
      "1238": 2753,
      "2008": 2754,
      "502": 2755,
      "7ca": 2756,
      "00c0": 2757,
      "cb03": 2758,
      "02f9": 2759,
      "cc03": 2760,
      "20f5": 2761,
      "c085": 2762,
      "03cf": 2763,
      "2da": 2764,
      "3903": 2765,
      "74c": 2766,
      "c2d": 2767,
      "4b79": 2768,
      "bb00": 2769,
      "febc": 2770,
      "415": 2771,
      "eda": 2772,
      "0618": 2773,
      "##c47": 2774,
      "c62c": 2775,
      "348d": 2776,
      "f8c1": 2777,
      "a43c": 2778,
      "149": 2779,
      "375": 2780,
      "61c0": 2781,
      "747": 2782,
      "8403": 2783,
      "aca": 2784,
      "bba": 2785,
      "0614": 2786,
      "4b35": 2787,
      "##12e": 2788,
      "2b61": 2789,
      "0e2b": 2790,
      "128": 2791,
      "24f": 2792,
      "31b": 2793,
      "611": 2794,
      "0115": 2795,
      "##40b": 2796,
      "##6b9": 2797,
      "20c0": 2798,
      "0403": 2799,
      "211a": 2800,
      "b303": 2801,
      "0ab5": 2802,
      "064b": 2803,
      "db03": 2804,
      "6353": 2805,
      "5a4": 2806,
      "74b": 2807,
      "81b": 2808,
      "cb52": 2809,
      "3cbb": 2810,
      "1a84": 2811,
      "434": 2812,
      "44a": 2813,
      "5ca": 2814,
      "0644": 2815,
      "0112": 2816,
      "9e94": 2817,
      "9380": 2818,
      "1dc": 2819,
      "447": 2820,
      "503": 2821,
      "3493": 2822,
      "##e21": 2823,
      "5b00": 2824,
      "449": 2825,
      "5300": 2826,
      "c48": 2827,
      "c37": 2828,
      "00d9": 2829,
      "4b8a": 2830,
      "8503": 2831,
      "0203": 2832,
      "##2f0": 2833,
      "0f90": 2834,
      "7dbc": 2835,
      "9b57": 2836,
      "276": 2837,
      "834": 2838,
      "9303": 2839,
      "9e9": 2840,
      "b01": 2841,
      "c3f": 2842,
      "1f33": 2843,
      "206": 2844,
      "602": 2845,
      "7f5": 2846,
      "4beb": 2847,
      "8c80": 2848,
      "13d": 2849,
      "53e": 2850,
      "7da": 2851,
      "848": 2852,
      "84b": 2853,
      "c49": 2854,
      "00ba": 2855,
      "00b0": 2856,
      "06b8": 2857,
      "9b00": 2858,
      "c780": 2859,
      "0793": 2860,
      "8f03": 2861,
      "a08": 2862,
      "c25": 2863,
      "00bb": 2864,
      "0d07": 2865,
      "14c": 2866,
      "2e03": 2867,
      "54c": 2868,
      "547": 2869,
      "505": 2870,
      "84c": 2871,
      "a303": 2872,
      "c01": 2873,
      "c39": 2874,
      "fff": 2875,
      "##c43": 2876,
      "55b4": 2877,
      "##724": 2878,
      "008e": 2879,
      "045": 2880,
      "0ba": 2881,
      "806": 2882,
      "8c8": 2883,
      "849": 2884,
      "b403": 2885,
      "fd8": 2886,
      "0bc9": 2887,
      "c5fa": 2888,
      "8e50": 2889,
      "fd03": 2890,
      "0043": 2891,
      "##40a": 2892,
      "8dbe": 2893,
      "32d": 2894,
      "689": 2895,
      "649": 2896,
      "4a60": 2897,
      "8803": 2898,
      "badc": 2899,
      "04a": 2900,
      "1480": 2901,
      "33c": 2902,
      "4d9": 2903,
      "402": 2904,
      "##40d": 2905,
      "35d3": 2906,
      "362": 2907,
      "32f": 2908,
      "43f": 2909,
      "43c": 2910,
      "43d": 2911,
      "58d": 2912,
      "744": 2913,
      "198b": 2914,
      "7400": 2915,
      "c234": 2916,
      "215": 2917,
      "506": 2918,
      "589": 2919,
      "c703": 2920,
      "bf03": 2921,
      "3486": 2922,
      "3601": 2923,
      "de34": 2924,
      "308": 2925,
      "4ca": 2926,
      "741": 2927,
      "82d": 2928,
      "eca": 2929,
      "0104": 2930,
      "##382": 2931,
      "0695": 2932,
      "1935": 2933,
      "b6d7": 2934,
      "##743": 2935,
      "##729": 2936,
      "be34": 2937,
      "608d": 2938,
      "c134": 2939,
      "54a": 2940,
      "58c": 2941,
      "de03": 2942,
      "b6b7": 2943,
      "##184": 2944,
      "162": 2945,
      "33f": 2946,
      "40a": 2947,
      "53a": 2948,
      "52f": 2949,
      "7d03": 2950,
      "83b": 2951,
      "c803": 2952,
      "e203": 2953,
      "539b": 2954,
      "10c": 2955,
      "3003": 2956,
      "515": 2957,
      "ce03": 2958,
      "##38b": 2959,
      "8dde": 2960,
      "##e20": 2961,
      "5b5": 2962,
      "562": 2963,
      "##ea2": 2964,
      "da03": 2965,
      "##c44": 2966,
      "##314": 2967,
      "##64e": 2968,
      "ed5b": 2969,
      "##46d": 2970,
      "17c": 2971,
      "332": 2972,
      "444": 2973,
      "847": 2974,
      "a42": 2975,
      "000f": 2976,
      "0114": 2977,
      "##e88": 2978,
      "43e": 2979,
      "a48": 2980,
      "bb6": 2981,
      "0100": 2982,
      "##09c": 2983,
      "dd34": 2984,
      "46a": 2985,
      "8f5": 2986,
      "b903": 2987,
      "e003": 2988,
      "3439": 2989,
      "4b2a": 2990,
      "4b6b": 2991,
      "7703": 2992,
      "cebf": 2993,
      "8ddd": 2994,
      "8dc2": 2995,
      "##22a": 2996,
      "##74d": 2997,
      "##0f3": 2998,
      "5b0c": 2999,
      "0088": 3000,
      "505c": 3001,
      "66a": 3002,
      "748": 3003,
      "7e03": 3004,
      "a4f": 3005,
      "dca": 3006,
      "d703": 3007,
      "d534": 3008,
      "4bf0": 3009,
      "##c4e": 3010,
      "8dc1": 3011,
      "2e9": 3012,
      "32b": 3013,
      "536": 3014,
      "6093": 3015,
      "3491": 3016,
      "4800": 3017,
      "8dbd": 3018,
      "b6ba": 3019,
      "3487": 3020,
      "bd34": 3021,
      "2e7": 3022,
      "23a": 3023,
      "5480": 3024,
      "644": 3025,
      "8ce": 3026,
      "f4bb": 3027,
      "00af": 3028,
      "0008": 3029,
      "##407": 3030,
      "##c4d": 3031,
      "##120": 3032,
      "3484": 3033,
      "33a": 3034,
      "335": 3035,
      "51b": 3036,
      "844": 3037,
      "b45": 3038,
      "be9": 3039,
      "c1b": 3040,
      "8dd5": 3041,
      "ca34": 3042,
      "2a83": 3043,
      "c0bb": 3044,
      "0e5": 3045,
      "2e5": 3046,
      "448": 3047,
      "42d": 3048,
      "4af": 3049,
      "0120": 3050,
      "4b24": 3051,
      "##c8e": 3052,
      "8db0": 3053,
      "##74e": 3054,
      "7c80": 3055,
      "3482": 3056,
      "6090": 3057,
      "d602": 3058,
      "042": 3059,
      "325": 3060,
      "36c": 3061,
      "b6c0": 3062,
      "aa34": 3063,
      "##750": 3064,
      "7f03": 3065,
      "d934": 3066,
      "3803": 3067,
      "43b": 3068,
      "468": 3069,
      "56c": 3070,
      "7d9": 3071,
      "841": 3072,
      "cd03": 3073,
      "00f0": 3074,
      "00c3": 3075,
      "0105": 3076,
      "2f01": 3077,
      "0d4a": 3078,
      "f0ac": 3079,
      "6d5": 3080,
      "641": 3081,
      "4b46": 3082,
      "3900": 3083,
      "##e18": 3084,
      "8dc7": 3085,
      "b6bb": 3086,
      "b6c8": 3087,
      "##220": 3088,
      "b934": 3089,
      "3485": 3090,
      "b6ac": 3091,
      "6091": 3092,
      "af8c": 3093,
      "0494": 3094,
      "8dac": 3095,
      "0da": 3096,
      "147": 3097,
      "52d": 3098,
      "5d9": 3099,
      "83f": 3100,
      "82a": 3101,
      "cca": 3102,
      "fe03": 3103,
      "##00d": 3104,
      "1008": 3105,
      "8dcf": 3106,
      "cb80": 3107,
      "ec80": 3108,
      "d834": 3109,
      "##1a0": 3110,
      "b334": 3111,
      "0500": 3112,
      "53b": 3113,
      "b49": 3114,
      "0075": 3115,
      "##914": 3116,
      "##c81": 3117,
      "8dd8": 3118,
      "8db3": 3119,
      "b6d2": 3120,
      "##222": 3121,
      "5cbb": 3122,
      "b503": 3123,
      "##70e": 3124,
      "00a9": 3125,
      "c434": 3126,
      "41b": 3127,
      "431": 3128,
      "508": 3129,
      "706c": 3130,
      "b4b": 3131,
      "b4f": 3132,
      "c3a": 3133,
      "3492": 3134,
      "0a88": 3135,
      "8dca": 3136,
      "b6ce": 3137,
      "b6b2": 3138,
      "##098": 3139,
      "68bb": 3140,
      "348e": 3141,
      "608a": 3142,
      "c734": 3143,
      "d334": 3144,
      "24c": 3145,
      "3ea": 3146,
      "339": 3147,
      "3db": 3148,
      "8bb": 3149,
      "865": 3150,
      "3494": 3151,
      "b834": 3152,
      "8db9": 3153,
      "##333": 3154,
      "##1ac": 3155,
      "e560": 3156,
      "b6a4": 3157,
      "b034": 3158,
      "239": 3159,
      "3dc": 3160,
      "77a": 3161,
      "7df": 3162,
      "862": 3163,
      "c15": 3164,
      "0696": 3165,
      "0d1c": 3166,
      "cb34": 3167,
      "b603": 3168,
      "b6cc": 3169,
      "b6c3": 3170,
      "##3de": 3171,
      "##307": 3172,
      "0be7": 3173,
      "00a1": 3174,
      "##12b": 3175,
      "301": 3176,
      "7fa": 3177,
      "d89": 3178,
      "##40f": 3179,
      "ac34": 3180,
      "b6a9": 3181,
      "b6ae": 3182,
      "cf34": 3183,
      "8daf": 3184,
      "242": 3185,
      "418": 3186,
      "83e": 3187,
      "8e03": 3188,
      "9203": 3189,
      "be03": 3190,
      "c35": 3191,
      "d48": 3192,
      "8dd9": 3193,
      "8dd3": 3194,
      "b6d5": 3195,
      "cc34": 3196,
      "ccbb": 3197,
      "b6a8": 3198,
      "b6a3": 3199,
      "608e": 3200,
      "6084": 3201,
      "6082": 3202,
      "4dc": 3203,
      "6004": 3204,
      "868": 3205,
      "a4b": 3206,
      "b3b": 3207,
      "c2f": 3208,
      "##406": 3209,
      "##032": 3210,
      "8db8": 3211,
      "8dc6": 3212,
      "b6c4": 3213,
      "b6b1": 3214,
      "##eb0": 3215,
      "348b": 3216,
      "608f": 3217,
      "af34": 3218,
      "970c": 3219,
      "d034": 3220,
      "208b": 3221,
      "d0aa": 3222,
      "0fa": 3223,
      "141": 3224,
      "802": 3225,
      "9e4": 3226,
      "3490": 3227,
      "0ac8": 3228,
      "da80": 3229,
      "1944": 3230,
      "1930": 3231,
      "##c4f": 3232,
      "##e14": 3233,
      "##04d": 3234,
      "348f": 3235,
      "348c": 3236,
      "8daa": 3237,
      "fe0c": 3238,
      "eb62": 3239,
      "36a": 3240,
      "7af": 3241,
      "7e5": 3242,
      "795": 3243,
      "b42": 3244,
      "e2d": 3245,
      "e480": 3246,
      "4bf6": 3247,
      "8dd0": 3248,
      "b6b5": 3249,
      "b6be": 3250,
      "b6c9": 3251,
      "##22c": 3252,
      "ca03": 3253,
      "##24e": 3254,
      "3488": 3255,
      "a100": 3256,
      "c034": 3257,
      "22c": 3258,
      "360": 3259,
      "305": 3260,
      "59f": 3261,
      "4bfb": 3262,
      "##ec2": 3263,
      "8dcc": 3264,
      "b6b6": 3265,
      "b6d1": 3266,
      "##64d": 3267,
      "bc80": 3268,
      "##e66": 3269,
      "24db": 3270,
      "a9e4": 3271,
      "2b8": 3272,
      "236": 3273,
      "40b": 3274,
      "c0c": 3275,
      "eb5": 3276,
      "fca": 3277,
      "##006": 3278,
      "##384": 3279,
      "8db5": 3280,
      "8dc0": 3281,
      "b6b8": 3282,
      "b6b9": 3283,
      "##313": 3284,
      "##72b": 3285,
      "##720": 3286,
      "b434": 3287,
      "6ba3": 3288,
      "1e4": 3289,
      "12f": 3290,
      "541": 3291,
      "7e9": 3292,
      "828": 3293,
      "80a": 3294,
      "c32": 3295,
      "d2a": 3296,
      "##405": 3297,
      "2f48": 3298,
      "##030": 3299,
      "##c41": 3300,
      "##e10": 3301,
      "8dcb": 3302,
      "##e2a": 3303,
      "c634": 3304,
      "##09d": 3305,
      "2c80": 3306,
      "6086": 3307,
      "608c": 3308,
      "008b": 3309,
      "1600": 3310,
      "42c7": 3311,
      "4ea": 3312,
      "4e8": 3313,
      "5d8": 3314,
      "81f": 3315,
      "b2d": 3316,
      "c903": 3317,
      "f01": 3318,
      "f06": 3319,
      "3b7b": 3320,
      "##409": 3321,
      "38bb": 3322,
      "##7a0": 3323,
      "6c80": 3324,
      "0b80": 3325,
      "bb03": 3326,
      "0058": 3327,
      "207c": 3328,
      "6088": 3329,
      "d634": 3330,
      "80bb": 3331,
      "04bb": 3332,
      "2ef": 3333,
      "30c": 3334,
      "632": 3335,
      "a4c": 3336,
      "d06": 3337,
      "##c8a": 3338,
      "##096": 3339,
      "##d24": 3340,
      "bf34": 3341,
      "##dee": 3342,
      "0084": 3343,
      "202": 3344,
      "262": 3345,
      "24bb": 3346,
      "3d1": 3347,
      "3103": 3348,
      "634": 3349,
      "7ea": 3350,
      "a91": 3351,
      "a45": 3352,
      "b4a": 3353,
      "ed8": 3354,
      "##36f": 3355,
      "##364": 3356,
      "##eee": 3357,
      "50bb": 3358,
      "1e5": 3359,
      "3d7": 3360,
      "71b": 3361,
      "7480": 3362,
      "86a": 3363,
      "ed9": 3364,
      "b6d6": 3365,
      "00a8": 3366,
      "ab00": 3367,
      "2600": 3368,
      "30a": 3369,
      "4da": 3370,
      "6064": 3371,
      "776": 3372,
      "839": 3373,
      "876": 3374,
      "935": 3375,
      "afa": 3376,
      "00c5": 3377,
      "bc03": 3378,
      "##11f": 3379,
      "dc34": 3380,
      "##0f4": 3381,
      "3481": 3382,
      "8100": 3383,
      "a934": 3384,
      "ce34": 3385,
      "302b": 3386,
      "144": 3387,
      "29a": 3388,
      "580": 3389,
      "53c": 3390,
      "5389": 3391,
      "cd5": 3392,
      "c02": 3393,
      "df03": 3394,
      "f42": 3395,
      "f65": 3396,
      "0c80": 3397,
      "##033": 3398,
      "4b83": 3399,
      "##c8f": 3400,
      "8dcd": 3401,
      "8c00": 3402,
      "##633": 3403,
      "f50c": 3404,
      "348a": 3405,
      "ed69": 3406,
      "8780": 3407,
      "b234": 3408,
      "db5a": 3409,
      "3203": 3410,
      "7a4": 3411,
      "74bb": 3412,
      "86f": 3413,
      "90a": 3414,
      "92a": 3415,
      "9003": 3416,
      "b91": 3417,
      "8dc4": 3418,
      "##dbe": 3419,
      "ac80": 3420,
      "fc80": 3421,
      "db34": 3422,
      "c400": 3423,
      "70bb": 3424,
      "437": 3425,
      "44bb": 3426,
      "5da": 3427,
      "561": 3428,
      "62f": 3429,
      "832": 3430,
      "b4c": 3431,
      "c06": 3432,
      "c3e": 3433,
      "0196": 3434,
      "##c85": 3435,
      "8dbf": 3436,
      "##643": 3437,
      "##7f8": 3438,
      "##ed3": 3439,
      "3700": 3440,
      "608b": 3441,
      "607c": 3442,
      "d734": 3443,
      "a0bb": 3444,
      "c084": 3445,
      "025": 3446,
      "225": 3447,
      "5d6": 3448,
      "51f": 3449,
      "83a": 3450,
      "818": 3451,
      "965": 3452,
      "a75": 3453,
      "0065": 3454,
      "##035": 3455,
      "4b16": 3456,
      "##c84": 3457,
      "##e11": 3458,
      "##e0e": 3459,
      "##0fb": 3460,
      "bb34": 3461,
      "90bb": 3462,
      "##246": 3463,
      "75c4": 3464,
      "20bb": 3465,
      "cd34": 3466,
      "3500": 3467,
      "5bb": 3468,
      "50c": 3469,
      "7ce": 3470,
      "92d": 3471,
      "b703": 3472,
      "c1f": 3473,
      "2f03": 3474,
      "7b03": 3475,
      "##036": 3476,
      "19a8": 3477,
      "8dbb": 3478,
      "8dce": 3479,
      "9c80": 3480,
      "1400": 3481,
      "b6a2": 3482,
      "607f": 3483,
      "607e": 3484,
      "c334": 3485,
      "14bb": 3486,
      "3403": 3487,
      "3703": 3488,
      "6fa": 3489,
      "725": 3490,
      "b25": 3491,
      "c34": 3492,
      "f1b": 3493,
      "f000": 3494,
      "0074": 3495,
      "9103": 3496,
      "da34": 3497,
      "4b06": 3498,
      "1941": 3499,
      "##c82": 3500,
      "8db1": 3501,
      "ecbb": 3502,
      "c603": 3503,
      "7c00": 3504,
      "7c03": 3505,
      "fc00": 3506,
      "##de3": 3507,
      "7f00": 3508,
      "40bb": 3509,
      "30bb": 3510,
      "9426": 3511,
      "044": 3512,
      "31f": 3513,
      "5bc": 3514,
      "565": 3515,
      "789": 3516,
      "7ec": 3517,
      "7dc": 3518,
      "775": 3519,
      "8d5": 3520,
      "aaf": 3521,
      "a480": 3522,
      "d42": 3523,
      "d803": 3524,
      "e08": 3525,
      "f41": 3526,
      "00b8": 3527,
      "##031": 3528,
      "4bc2": 3529,
      "##c87": 3530,
      "8dbc": 3531,
      "b6d0": 3532,
      "b6d4": 3533,
      "b6c1": 3534,
      "##b46": 3535,
      "##318": 3536,
      "58bb": 3537,
      "1f00": 3538,
      "e400": 3539,
      "3600": 3540,
      "5400": 3541,
      "d0bb": 3542,
      "2083": 3543,
      "2ea": 3544,
      "4d1": 3545,
      "7803": 3546,
      "83c": 3547,
      "871": 3548,
      "9e8": 3549,
      "b3c": 3550,
      "cda": 3551,
      "c2a": 3552,
      "dea": 3553,
      "0130": 3554,
      "8dba": 3555,
      "8dd7": 3556,
      "##0b4": 3557,
      "6087": 3558,
      "b134": 3559,
      "8700": 3560,
      "e700": 3561,
      "9427": 3562,
      "10bb": 3563,
      "148": 3564,
      "201": 3565,
      "205": 3566,
      "469": 3567,
      "56f": 3568,
      "791": 3569,
      "7d8": 3570,
      "928": 3571,
      "96b9": 3572,
      "c3d": 3573,
      "d3e": 3574,
      "##03a": 3575,
      "0d42": 3576,
      "1900": 3577,
      "f0ba": 3578,
      "3cce": 3579,
      "8dc8": 3580,
      "8dc5": 3581,
      "4f00": 3582,
      "b6bf": 3583,
      "##046": 3584,
      "##310": 3585,
      "##d0e": 3586,
      "bc34": 3587,
      "##0fe": 3588,
      "7a03": 3589,
      "ba34": 3590,
      "6b14": 3591,
      "b6a5": 3592,
      "6400": 3593,
      "e0bb": 3594,
      "5011": 3595,
      "e900": 3596,
      "b0bb": 3597,
      "21b": 3598,
      "379": 3599,
      "5dc": 3600,
      "869": 3601,
      "80c": 3602,
      "ae7": 3603,
      "b803": 3604,
      "00b2": 3605,
      "9400": 3606,
      "94cd": 3607,
      "8dd2": 3608,
      "8db2": 3609,
      "b6b4": 3610,
      "6900": 3611,
      "##22e": 3612,
      "##04e": 3613,
      "8cbb": 3614,
      "##30e": 3615,
      "00a5": 3616,
      "c834": 3617,
      "##1ae": 3618,
      "3483": 3619,
      "b6ab": 3620,
      "fdbc": 3621,
      "ad34": 3622,
      "2ca": 3623,
      "6092": 3624,
      "808": 3625,
      "82f": 3626,
      "805": 3627,
      "b35": 3628,
      "d49": 3629,
      "f4f": 3630,
      "##00f": 3631,
      "0073": 3632,
      "##388": 3633,
      "4b93": 3634,
      "8dda": 3635,
      "b6b0": 3636,
      "b6c5": 3637,
      "b6bd": 3638,
      "4c00": 3639,
      "##ebd": 3640,
      "ba03": 3641,
      "5b89": 3642,
      "8dad": 3643,
      "ae34": 3644,
      "d434": 3645,
      "b734": 3646,
      "0b83": 3647,
      "ee00": 3648,
      "ffff": 3649,
      "1d5": 3650,
      "295": 3651,
      "33e": 3652,
      "7d1": 3653,
      "705": 3654,
      "bd03": 3655,
      "ce7": 3656,
      "c3c": 3657,
      "d45": 3658,
      "f49": 3659,
      "##00e": 3660,
      "00c4": 3661,
      "0a1e": 3662,
      "0c00": 3663,
      "8dd4": 3664,
      "8dc3": 3665,
      "##7c2": 3666,
      "4cbb": 3667,
      "8dab": 3668,
      "2e00": 3669,
      "fd00": 3670,
      "337": 3671,
      "4d2": 3672,
      "6ea": 3673,
      "60c": 3674,
      "6389": 3675,
      "abc": 3676,
      "bea": 3677,
      "c000": 3678,
      "d91": 3679,
      "d4bb": 3680,
      "f08": 3681,
      "fd5": 3682,
      "ff5": 3683,
      "4b33": 3684,
      "f0bb": 3685,
      "8db6": 3686,
      "8dd6": 3687,
      "8db4": 3688,
      "8ddb": 3689,
      "8dc9": 3690,
      "b634": 3691,
      "b6d3": 3692,
      "b6b3": 3693,
      "9cbb": 3694,
      "7cbb": 3695,
      "##0f0": 3696,
      "##7be": 3697,
      "bb93": 3698,
      "c534": 3699,
      "b6aa": 3700,
      "b6ad": 3701,
      "b6a7": 3702,
      "60bb": 3703,
      "607d": 3704,
      "d134": 3705,
      "c934": 3706,
      "d234": 3707,
      "037": 3708,
      "2000": 3709,
      "228": 3710,
      "6500": 3711,
      "72d": 3712,
      "7ef": 3713,
      "7903": 3714,
      "861": 3715,
      "ae8": 3716,
      "bda": 3717,
      "b44": 3718,
      "b05": 3719,
      "d47": 3720,
      "d903": 3721,
      "1808": 3722,
      "3c4b": 3723,
      "18bb": 3724,
      "##e1a": 3725,
      "8ddc": 3726,
      "8dd1": 3727,
      "b6c2": 3728,
      "b6cd": 3729,
      "b6c7": 3730,
      "cc00": 3731,
      "bcbb": 3732,
      "88bb": 3733,
      "b6a6": 3734,
      "6081": 3735,
      "8dae": 3736,
      "11b": 3737,
      "22d": 3738,
      "4389": 3739,
      "701": 3740,
      "889": 3741,
      "8fa": 3742,
      "837": 3743,
      "a25": 3744,
      "a4a": 3745,
      "b78": 3746,
      "b9f": 3747,
      "e68": 3748,
      "f68": 3749,
      "0009": 3750,
      "##386": 3751,
      "##38a": 3752,
      "94ce": 3753,
      "##e17": 3754,
      "8db7": 3755,
      "b6ca": 3756,
      "b6c6": 3757,
      "b6cf": 3758,
      "##2c0": 3759,
      "##7fc": 3760,
      "##243": 3761,
      "37a": 3762,
      "6e5": 3763,
      "6480": 3764,
      "64bb": 3765,
      "739": 3766,
      "78d": 3767,
      "8bc": 3768,
      "81c": 3769,
      "8003": 3770,
      "8480": 3771,
      "925": 3772,
      "d4f": 3773,
      "df5": 3774,
      "e4bb": 3775,
      "0090": 3776,
      "08bb": 3777,
      "28bb": 3778,
      "0019": 3779,
      "3c48": 3780,
      "3cc0": 3781,
      "3cbf": 3782,
      "b800": 3783,
      "5f00": 3784,
      "b6bc": 3785,
      "b6cb": 3786,
      "##6b0": 3787,
      "##ded": 3788,
      "d8bb": 3789,
      "f8bb": 3790,
      "be00": 3791,
      "8da9": 3792,
      "048": 3793,
      "04c": 3794,
      "369": 3795,
      "54bb": 3796,
      "61b": 3797,
      "63e": 3798,
      "891": 3799,
      "84bb": 3800,
      "9000": 3801,
      "af8": 3802,
      "b1b": 3803,
      "c28": 3804,
      "c8d": 3805,
      "4b1b": 3806,
      "cb89": 3807,
      "cbd4": 3808,
      "a8bb": 3809,
      "##2e3": 3810,
      "4100": 3811,
      "b6af": 3812,
      "6083": 3813,
      "0085": 3814,
      "1d6": 3815,
      "248": 3816,
      "439": 3817,
      "51c": 3818,
      "53d": 3819,
      "6ce": 3820,
      "93f": 3821,
      "b9a": 3822,
      "d4a": 3823,
      "d8c": 3824,
      "f4b": 3825,
      "fb5": 3826,
      "9100": 3827,
      "4b0b": 3828,
      "3c4f": 3829,
      "##31a": 3830,
      "##e67": 3831,
      "78bb": 3832,
      "dd00": 3833,
      "1389": 3834,
      "3000": 3835,
      "31c": 3836,
      "901": 3837,
      "939": 3838,
      "a35": 3839,
      "b48": 3840,
      "d000": 3841,
      "ef5": 3842,
      "0078": 3843,
      "48bb": 3844,
      "3ccc": 3845,
      "94cc": 3846,
      "b8bb": 3847,
      "65bc": 3848,
      "dcbb": 3849,
      "##eb1": 3850,
      "##eb2": 3851,
      "##124": 3852,
      "e8bb": 3853,
      "##10e": 3854,
      "8600": 3855,
      "b400": 3856,
      "1e00": 3857,
      "411": 3858,
      "59b": 3859,
      "6da": 3860,
      "675": 3861,
      "73e": 3862,
      "894": 3863,
      "906": 3864,
      "a28": 3865,
      "bd5": 3866,
      "b41": 3867,
      "c4bb": 3868,
      "d389": 3869,
      "384c": 3870,
      "4b10": 3871,
      "3ccd": 3872,
      "4b88": 3873,
      "##60d": 3874,
      "9c00": 3875,
      "##36d": 3876,
      "00a3": 3877,
      "##1ad": 3878,
      "##20d": 3879,
      "6094": 3880,
      "03b": 3881,
      "041": 3882,
      "1ca": 3883,
      "16c": 3884,
      "3603": 3885,
      "780": 3886,
      "7e4": 3887,
      "895": 3888,
      "a2d": 3889,
      "a62": 3890,
      "af5": 3891,
      "b4bb": 3892,
      "d65": 3893,
      "d98": 3894,
      "f47": 3895,
      "34bb": 3896,
      "2800": 3897,
      "947d": 3898,
      "ec00": 3899,
      "##097": 3900,
      "1cbb": 3901,
      "##1aa": 3902,
      "5100": 3903,
      "8074": 3904,
      "ce00": 3905,
      "e600": 3906,
      "101": 3907,
      "106": 3908,
      "100c": 3909,
      "2ce": 3910,
      "42f": 3911,
      "88c": 3912,
      "8c8c": 3913,
      "905": 3914,
      "aa4": 3915,
      "be7": 3916,
      "bdf": 3917,
      "d500": 3918,
      "d28": 3919,
      "dce": 3920,
      "e0b2": 3921,
      "f48": 3922,
      "f4a": 3923,
      "004c": 3924,
      "0067": 3925,
      "##e22": 3926,
      "c600": 3927,
      "3503": 3928,
      "5e00": 3929,
      "6c00": 3930,
      "acbb": 3931,
      "##0f6": 3932,
      "c8bb": 3933,
      "##129": 3934,
      "##2b1": 3935,
      "8e00": 3936,
      "##273": 3937,
      "2400": 3938,
      "7100": 3939,
      "d700": 3940,
      "fe00": 3941,
      "047": 3942,
      "280": 3943,
      "241": 3944,
      "41c": 3945,
      "47c": 3946,
      "4480": 3947,
      "6d8": 3948,
      "735": 3949,
      "90c": 3950,
      "d44": 3951,
      "009b": 3952,
      "b600": 3953,
      "##0ba": 3954,
      "##229": 3955,
      "6cbb": 3956,
      "##7f0": 3957,
      "98bb": 3958,
      "6085": 3959,
      "7e00": 3960,
      "78cb": 3961,
      "1e7": 3962,
      "137": 3963,
      "2bb": 3964,
      "57c": 3965,
      "628": 3966,
      "671": 3967,
      "8000": 3968,
      "89a": 3969,
      "9d5": 3970,
      "9389": 3971,
      "a4bb": 3972,
      "f500": 3973,
      "f4c": 3974,
      "##00a": 3975,
      "##383": 3976,
      "0cbb": 3977,
      "4b4c": 3978,
      "4b8e": 3979,
      "##7aa": 3980,
      "##30d": 3981,
      "##784": 3982,
      "0bd1": 3983,
      "##24d": 3984,
      "6b89": 3985,
      "3701": 3986,
      "4400": 3987,
      "f900": 3988,
      "02d": 3989,
      "0b5": 3990,
      "1af": 3991,
      "23f": 3992,
      "5500": 3993,
      "7d6": 3994,
      "70a": 3995,
      "a15": 3996,
      "ada": 3997,
      "a49": 3998,
      "a9a": 3999,
      "a389": 4000,
      "c480": 4001,
      "d76": 4002,
      "e0a": 4003,
      "fea": 4004,
      "f28": 4005,
      "1b89": 4006,
      "0ae7": 4007,
      "4bc3": 4008,
      "3c01": 4009,
      "3cbc": 4010,
      "##c8b": 4011,
      "0bc0": 4012,
      "##36e": 4013,
      "##2cc": 4014,
      "##099": 4015,
      "##09f": 4016,
      "ed6b": 4017,
      "2132": 4018,
      "3180": 4019,
      "a900": 4020,
      "d900": 4021,
      "a600": 4022,
      "0f8b": 4023,
      "035": 4024,
      "134": 4025,
      "132": 4026,
      "73a": 4027,
      "72a": 4028,
      "88d": 4029,
      "99f": 4030,
      "bce": 4031,
      "c91": 4032,
      "c95": 4033,
      "f45": 4034,
      "0047": 4035,
      "2f00": 4036,
      "##38c": 4037,
      "38e7": 4038,
      "0d78": 4039,
      "3cc2": 4040,
      "##e1e": 4041,
      "8d00": 4042,
      "##0b3": 4043,
      "##2c3": 4044,
      "##e6d": 4045,
      "##726": 4046,
      "##20e": 4047,
      "b900": 4048,
      "c700": 4049,
      "de80": 4050,
      "9900": 4051,
      "3313": 4052,
      "0480": 4053,
      "13a": 4054,
      "3389": 4055,
      "4e9": 4056,
      "6dc": 4057,
      "702": 4058,
      "93c": 4059,
      "96f": 4060,
      "a3b": 4061,
      "ad5": 4062,
      "a000": 4063,
      "aea": 4064,
      "a39": 4065,
      "a65": 4066,
      "bef": 4067,
      "c11": 4068,
      "e6a": 4069,
      "e2f": 4070,
      "019f": 4071,
      "0a41": 4072,
      "7b1c": 4073,
      "##381": 4074,
      "##38e": 4075,
      "4b20": 4076,
      "0d00": 4077,
      "3c2e": 4078,
      "##e24": 4079,
      "##22b": 4080,
      "##22f": 4081,
      "4c73": 4082,
      "##727": 4083,
      "##126": 4084,
      "##2be": 4085,
      "fb6a": 4086,
      "3d00": 4087,
      "##ff7": 4088,
      "c100": 4089,
      "9e00": 4090,
      "0700": 4091,
      "028": 4092,
      "2bc": 4093,
      "511": 4094,
      "7221": 4095,
      "8e7": 4096,
      "a1b": 4097,
      "ae5": 4098,
      "b18": 4099,
      "dd9": 4100,
      "d39": 4101,
      "dbb": 4102,
      "d05": 4103,
      "e60a": 4104,
      "fe7": 4105,
      "fda": 4106,
      "00dc": 4107,
      "00d1": 4108,
      "0a94": 4109,
      "7b89": 4110,
      "3c4c": 4111,
      "##c83": 4112,
      "##60e": 4113,
      "##31e": 4114,
      "##ebe": 4115,
      "fcbb": 4116,
      "9b89": 4117,
      "4e00": 4118,
      "d17c": 4119,
      "e100": 4120,
      "13b": 4121,
      "189": 4122,
      "79c": 4123,
      "875": 4124,
      "93e": 4125,
      "a44": 4126,
      "a8c": 4127,
      "b2a": 4128,
      "b480": 4129,
      "de5": 4130,
      "d95": 4131,
      "e65": 4132,
      "f612": 4133,
      "3f00": 4134,
      "4b3e": 4135,
      "4bb8": 4136,
      "0d28": 4137,
      "94c3": 4138,
      "##223": 4139,
      "##3d0": 4140,
      "##312": 4141,
      "4600": 4142,
      "##646": 4143,
      "5800": 4144,
      "2cbb": 4145,
      "##eb9": 4146,
      "##7b0": 4147,
      "##26d": 4148,
      "ed00": 4149,
      "8400": 4150,
      "bd00": 4151,
      "ae00": 4152,
      "0389": 4153,
      "271": 4154,
      "7389": 4155,
      "8e5": 4156,
      "9bb": 4157,
      "bdc": 4158,
      "d75": 4159,
      "e3f": 4160,
      "ee7": 4161,
      "00eb": 4162,
      "28da": 4163,
      "3cc1": 4164,
      "4b8d": 4165,
      "1c34": 4166,
      "##d4e": 4167,
      "##72e": 4168,
      "8ae2": 4169,
      "##0ff": 4170,
      "##0f8": 4171,
      "##667": 4172,
      "##1a1": 4173,
      "9800": 4174,
      "2b89": 4175,
      "cf00": 4176,
      "df34": 4177,
      "7900": 4178,
      "b700": 4179,
      "0f5": 4180,
      "13f": 4181,
      "2b5": 4182,
      "569": 4183,
      "5d1": 4184,
      "5ba": 4185,
      "7500": 4186,
      "734": 4187,
      "79a": 4188,
      "8ef": 4189,
      "cf5": 4190,
      "dfa": 4191,
      "e34": 4192,
      "ebb": 4193,
      "e69": 4194,
      "3886": 4195,
      "0cfd": 4196,
      "4bd8": 4197,
      "3cbe": 4198,
      "##946": 4199,
      "##e16": 4200,
      "858a": 4201,
      "568b": 4202,
      "##3dd": 4203,
      "4700": 4204,
      "##30f": 4205,
      "bc36": 4206,
      "##792": 4207,
      "##7b2": 4208,
      "##1a8": 4209,
      "f800": 4210,
      "ab89": 4211,
      "eb89": 4212,
      "0fec": 4213,
      "ef00": 4214,
      "d400": 4215,
      "0e00": 4216,
      "fd87": 4217,
      "1ec": 4218,
      "247": 4219,
      "4d8": 4220,
      "605": 4221,
      "7000": 4222,
      "79f": 4223,
      "8389": 4224,
      "a05": 4225,
      "b389": 4226,
      "c6a": 4227,
      "cd9": 4228,
      "c89": 4229,
      "c1c": 4230,
      "cdc": 4231,
      "d3f": 4232,
      "e389": 4233,
      "0aed": 4234,
      "3800": 4235,
      "3c4d": 4236,
      "02f8": 4237,
      "ac00": 4238,
      "##723": 4239,
      "d800": 4240,
      "b100": 4241,
      "d100": 4242,
      "de00": 4243,
      "945b": 4244,
      "ad00": 4245,
      "0900": 4246,
      "2e4": 4247,
      "5000": 4248,
      "639": 4249,
      "91b": 4250,
      "b76": 4251,
      "c389": 4252,
      "e62": 4253,
      "f6a": 4254,
      "f6f": 4255,
      "##009": 4256,
      "0068": 4257,
      "3b89": 4258,
      "##385": 4259,
      "3c0c": 4260,
      "3c26": 4261,
      "3c4e": 4262,
      "4b8f": 4263,
      "8b24": 4264,
      "##0b0": 4265,
      "5700": 4266,
      "##d07": 4267,
      "##7f6": 4268,
      "##db0": 4269,
      "dc00": 4270,
      "0b89": 4271,
      "##1a2": 4272,
      "##2b0": 4273,
      "##2b2": 4274,
      "##2b3": 4275,
      "##14e": 4276,
      "##ddd": 4277,
      "2100": 4278,
      "8180": 4279,
      "8f00": 4280,
      "5600": 4281,
      "cd00": 4282,
      "9452": 4283,
      "9d00": 4284,
      "9d80": 4285,
      "f400": 4286,
      "111": 4287,
      "235": 4288,
      "2123": 4289,
      "6e21": 4290,
      "73f": 4291,
      "8500": 4292,
      "86c": 4293,
      "811": 4294,
      "902": 4295,
      "a3e": 4296,
      "adc": 4297,
      "a95": 4298,
      "c18": 4299,
      "d3b": 4300,
      "d71": 4301,
      "f25": 4302,
      "f2f": 4303,
      "008c": 4304,
      "007e": 4305,
      "006d": 4306,
      "4bce": 4307,
      "944b": 4308,
      "bf00": 4309,
      "bb89": 4310,
      "e800": 4311,
      "##921": 4312,
      "db89": 4313,
      "9f00": 4314,
      "a700": 4315,
      "7700": 4316,
      "a084": 4317,
      "12a": 4318,
      "11f": 4319,
      "3303": 4320,
      "3d2": 4321,
      "318": 4322,
      "59a": 4323,
      "518": 4324,
      "715": 4325,
      "706": 4326,
      "77c": 4327,
      "7f2": 4328,
      "a34": 4329,
      "b15": 4330,
      "ce5": 4331,
      "d6a": 4332,
      "d4b": 4333,
      "f39": 4334,
      "f389": 4335,
      "##00b": 4336,
      "0cf3": 4337,
      "0014": 4338,
      "3cbd": 4339,
      "##3d2": 4340,
      "##317": 4341,
      "##798": 4342,
      "fcd0": 4343,
      "005d": 4344,
      "7800": 4345,
      "##7dd": 4346,
      "##7d3": 4347,
      "2172": 4348,
      "6100": 4349,
      "7d00": 4350,
      "f600": 4351,
      "161": 4352,
      "16f": 4353,
      "2480": 4354,
      "2389": 4355,
      "3348": 4356,
      "6df": 4357,
      "9da": 4358,
      "937": 4359,
      "b000": 4360,
      "bf5": 4361,
      "c9f": 4362,
      "d1b": 4363,
      "e01": 4364,
      "eea": 4365,
      "e8c": 4366,
      "0031": 4367,
      "08ec": 4368,
      "7600": 4369,
      "0013": 4370,
      "3c87": 4371,
      "2d00": 4372,
      "##0bd": 4373,
      "##226": 4374,
      "##36b": 4375,
      "4bbe": 4376,
      "##31d": 4377,
      "##09e": 4378,
      "##79c": 4379,
      "##0fd": 4380,
      "##70d": 4381,
      "##7bf": 4382,
      "##d7d": 4383,
      "##146": 4384,
      "429c": 4385,
      "0083": 4386,
      "9700": 4387,
      "a400": 4388,
      "e708": 4389,
      "9453": 4390,
      "6700": 4391,
      "9600": 4392,
      "26c": 4393,
      "680": 4394,
      "62a": 4395,
      "76a": 4396,
      "732": 4397,
      "71f": 4398,
      "8ea": 4399,
      "94b2": 4400,
      "a3f": 4401,
      "a41": 4402,
      "b1c": 4403,
      "b0c": 4404,
      "cce": 4405,
      "1b7b": 4406,
      "3495": 4407,
      "38d1": 4408,
      "3c79": 4409,
      "3c7d": 4410,
      "9490": 4411,
      "cb01": 4412,
      "02ff": 4413,
      "##0b9": 4414,
      "##366": 4415,
      "##363": 4416,
      "##043": 4417,
      "##d4d": 4418,
      "0f00": 4419,
      "0408": 4420,
      "5900": 4421,
      "945a": 4422,
      "0ef": 4423,
      "595": 4424,
      "676": 4425,
      "790": 4426,
      "771": 4427,
      "9fa": 4428,
      "a80": 4429,
      "abb": 4430,
      "aef": 4431,
      "bec": 4432,
      "b0a": 4433,
      "b37": 4434,
      "cd8": 4435,
      "d3a": 4436,
      "d8d": 4437,
      "d4c": 4438,
      "d35": 4439,
      "e3e": 4440,
      "f3e": 4441,
      "f2a": 4442,
      "##005": 4443,
      "4bb6": 4444,
      "4b2b": 4445,
      "f100": 4446,
      "3c45": 4447,
      "3c2b": 4448,
      "3c58": 4449,
      "3cae": 4450,
      "cb44": 4451,
      "3502": 4452,
      "##319": 4453,
      "##316": 4454,
      "951e": 4455,
      "##e8a": 4456,
      "8800": 4457,
      "##673": 4458,
      "fb89": 4459,
      "94be": 4460,
      "1d9": 4461,
      "125": 4462,
      "23b": 4463,
      "306": 4464,
      "6bc": 4465,
      "89c": 4466,
      "932": 4467,
      "a1c": 4468,
      "baf": 4469,
      "b95": 4470,
      "b47": 4471,
      "b456": 4472,
      "f2d": 4473,
      "f69": 4474,
      "3b7d": 4475,
      "1959": 4476,
      "8ddf": 4477,
      "ecf3": 4478,
      "4900": 4479,
      "##e86": 4480,
      "2c00": 4481,
      "##eb3": 4482,
      "##121": 4483,
      "0bbd": 4484,
      "ff00": 4485,
      "ae01": 4486,
      "0b6": 4487,
      "075": 4488,
      "2500": 4489,
      "21f": 4490,
      "669": 4491,
      "6f8": 4492,
      "73b": 4493,
      "991": 4494,
      "9a4": 4495,
      "9af": 4496,
      "93a": 4497,
      "995": 4498,
      "a78": 4499,
      "bfa": 4500,
      "bd1": 4501,
      "bd8": 4502,
      "cea": 4503,
      "e3b": 4504,
      "e02": 4505,
      "e6f": 4506,
      "0095": 4507,
      "086e": 4508,
      "3c8d": 4509,
      "3c4a": 4510,
      "3caa": 4511,
      "3ccf": 4512,
      "##e13": 4513,
      "46cb": 4514,
      "##db3": 4515,
      "##e6e": 4516,
      "##982": 4517,
      "c841": 4518,
      "##d7e": 4519,
      "1d00": 4520,
      "1e0c": 4521,
      "c900": 4522,
      "2900": 4523,
      "9486": 4524,
      "9484": 4525,
      "f31c": 4526,
      "6d9": 4527,
      "6bb": 4528,
      "665": 4529,
      "70c": 4530,
      "8f8": 4531,
      "93b": 4532,
      "976": 4533,
      "b3e": 4534,
      "be5": 4535,
      "e500": 4536,
      "e000": 4537,
      "eb8": 4538,
      "0007": 4539,
      "4bbc": 4540,
      "4bc8": 4541,
      "3c7a": 4542,
      "94c8": 4543,
      "94af": 4544,
      "94aa": 4545,
      "94c2": 4546,
      "85cc": 4547,
      "##2c7": 4548,
      "##7ff": 4549,
      "bc00": 4550,
      "##db2": 4551,
      "##e6b": 4552,
      "##0f7": 4553,
      "##666": 4554,
      "##6e3": 4555,
      "c436": 4556,
      "8900": 4557,
      "d600": 4558,
      "9454": 4559,
      "071": 4560,
      "115": 4561,
      "1ce": 4562,
      "268": 4563,
      "29f": 4564,
      "878": 4565,
      "9f5": 4566,
      "961": 4567,
      "a02": 4568,
      "ad6": 4569,
      "b06": 4570,
      "b2f": 4571,
      "c71": 4572,
      "de7": 4573,
      "d32": 4574,
      "e89": 4575,
      "e3a": 4576,
      "fbc": 4577,
      "fbb": 4578,
      "f62": 4579,
      "004d": 4580,
      "4bf2": 4581,
      "4be8": 4582,
      "3c49": 4583,
      "3cc9": 4584,
      "3c56": 4585,
      "##c86": 4586,
      "##607": 4587,
      "##d46": 4588,
      "##984": 4589,
      "##fb0": 4590,
      "6095": 4591,
      "6600": 4592,
      "6d00": 4593,
      "9481": 4594,
      "5d50": 4595,
      "108": 4596,
      "9ea": 4597,
      "a0c": 4598,
      "a47": 4599,
      "a9c": 4600,
      "a6f": 4601,
      "b3f": 4602,
      "b02": 4603,
      "d01": 4604,
      "d2d": 4605,
      "dda": 4606,
      "d41": 4607,
      "e1b": 4608,
      "e95": 4609,
      "f37": 4610,
      "0039": 4611,
      "4854": 4612,
      "##904": 4613,
      "38f1": 4614,
      "4bc7": 4615,
      "3c44": 4616,
      "3c27": 4617,
      "3c10": 4618,
      "4b87": 4619,
      "8b89": 4620,
      "4502": 4621,
      "##e1d": 4622,
      "5781": 4623,
      "6800": 4624,
      "0401": 4625,
      "0bb5": 4626,
      "d990": 4627,
      "9428": 4628,
      "948d": 4629,
      "9483": 4630,
      "2458": 4631,
      "076": 4632,
      "03c": 4633,
      "105": 4634,
      "62d": 4635,
      "6000": 4636,
      "778": 4637,
      "8af": 4638,
      "9e2": 4639,
      "a89": 4640,
      "e25": 4641,
      "edf": 4642,
      "dae2": 4643,
      "4b94": 4644,
      "4b36": 4645,
      "3c86": 4646,
      "4b82": 4647,
      "9478": 4648,
      "94cb": 4649,
      "##0b7": 4650,
      "8801": 4651,
      "##7a8": 4652,
      "6520": 4653,
      "##9ee": 4654,
      "##ee3": 4655,
      "##1e3": 4656,
      "df00": 4657,
      "c094": 4658,
      "9425": 4659,
      "21c": 4660,
      "6f5": 4661,
      "89f": 4662,
      "c500": 4663,
      "caf": 4664,
      "d25": 4665,
      "d62": 4666,
      "ffa": 4667,
      "##38f": 4668,
      "0cfa": 4669,
      "##039": 4670,
      "4b98": 4671,
      "4bde": 4672,
      "0d38": 4673,
      "3cc5": 4674,
      "3cac": 4675,
      "3c53": 4676,
      "3cab": 4677,
      "##e19": 4678,
      "##e1f": 4679,
      "##227": 4680,
      "##2c6": 4681,
      "##2cb": 4682,
      "4648": 4683,
      "a800": 4684,
      "##eb7": 4685,
      "##6b1": 4686,
      "##796": 4687,
      "##79e": 4688,
      "##0f9": 4689,
      "##0f1": 4690,
      "##7e3": 4691,
      "##277": 4692,
      "3100": 4693,
      "9429": 4694,
      "d401": 4695,
      "94b0": 4696,
      "6e00": 4697,
      "5b6": 4698,
      "6b5": 4699,
      "737": 4700,
      "8e9": 4701,
      "9bc": 4702,
      "9f8": 4703,
      "a6a": 4704,
      "ad9": 4705,
      "cf8": 4706,
      "d15": 4707,
      "dec": 4708,
      "e32": 4709,
      "e71": 4710,
      "f95": 4711,
      "##007": 4712,
      "00e0": 4713,
      "0072": 4714,
      "000d": 4715,
      "38e2": 4716,
      "##037": 4717,
      "4bd2": 4718,
      "4b9a": 4719,
      "3c2c": 4720,
      "3c0e": 4721,
      "3c84": 4722,
      "3c81": 4723,
      "94c7": 4724,
      "##605": 4725,
      "##0b1": 4726,
      "##31f": 4727,
      "5e38": 4728,
      "##d43": 4729,
      "dccc": 4730,
      "##d20": 4731,
      "##1a5": 4732,
      "##127": 4733,
      "##14d": 4734,
      "##92e": 4735,
      "4d00": 4736,
      "af00": 4737,
      "5d00": 4738,
      "6f00": 4739,
      "80c4": 4740,
      "095": 4741,
      "0b46": 4742,
      "1e9": 4743,
      "5af": 4744,
      "57c3": 4745,
      "61f": 4746,
      "8a4": 4747,
      "b71": 4748,
      "cfa": 4749,
      "c65": 4750,
      "e75": 4751,
      "f15": 4752,
      "f44": 4753,
      "f35": 4754,
      "fce": 4755,
      "f61": 4756,
      "f75": 4757,
      "0041": 4758,
      "##03d": 4759,
      "4b57": 4760,
      "4b52": 4761,
      "3cc8": 4762,
      "3c55": 4763,
      "3ca9": 4764,
      "4b84": 4765,
      "9401": 4766,
      "942d": 4767,
      "94ae": 4768,
      "fadc": 4769,
      "##361": 4770,
      "##b4e": 4771,
      "##3d4": 4772,
      "##3d8": 4773,
      "4ba3": 4774,
      "95d4": 4775,
      "##e8f": 4776,
      "##e0d": 4777,
      "##6b2": 4778,
      "##7b3": 4779,
      "##143": 4780,
      "##926": 4781,
      "e204": 4782,
      "1700": 4783,
      "94b3": 4784,
      "0ba5": 4785,
      "034": 4786,
      "039": 4787,
      "032": 4788,
      "0ec": 4789,
      "0fb": 4790,
      "23e": 4791,
      "98d": 4792,
      "9d6": 4793,
      "aec": 4794,
      "a69": 4795,
      "b39": 4796,
      "bf2": 4797,
      "b9c": 4798,
      "c68": 4799,
      "c36c": 4800,
      "ef8": 4801,
      "f3f": 4802,
      "f76": 4803,
      "f89": 4804,
      "faf": 4805,
      "f8d": 4806,
      "f71": 4807,
      "3b8b": 4808,
      "3c5a": 4809,
      "9476": 4810,
      "94c4": 4811,
      "94d1": 4812,
      "94ab": 4813,
      "94a9": 4814,
      "2d48": 4815,
      "##0be": 4816,
      "4bb2": 4817,
      "##311": 4818,
      "a5dc": 4819,
      "##2bf": 4820,
      "942a": 4821,
      "942e": 4822,
      "9424": 4823,
      "f700": 4824,
      "94bc": 4825,
      "d073": 4826,
      "10cb": 4827,
      "16a": 4828,
      "175": 4829,
      "291": 4830,
      "2ba": 4831,
      "6e7": 4832,
      "72f": 4833,
      "92f": 4834,
      "b28": 4835,
      "b1f": 4836,
      "dba": 4837,
      "e3c": 4838,
      "ee9": 4839,
      "e9a": 4840,
      "fd9": 4841,
      "4b2d": 4842,
      "03fe": 4843,
      "0d23": 4844,
      "3c54": 4845,
      "3c88": 4846,
      "9474": 4847,
      "9473": 4848,
      "94ac": 4849,
      "##60b": 4850,
      "##367": 4851,
      "##7a1": 4852,
      "0056": 4853,
      "9482": 4854,
      "b08c": 4855,
      "1df": 4856,
      "728": 4857,
      "71c": 4858,
      "a01": 4859,
      "a500": 4860,
      "ace": 4861,
      "e0c": 4862,
      "fe5": 4863,
      "f90c": 4864,
      "9189": 4865,
      "4b66": 4866,
      "3c0b": 4867,
      "3c2f": 4868,
      "3c59": 4869,
      "9479": 4870,
      "9477": 4871,
      "4f01": 4872,
      "4bb7": 4873,
      "##e6f": 4874,
      "c800": 4875,
      "##edd": 4876,
      "4e45": 4877,
      "9485": 4878,
      "33b5": 4879,
      "239d": 4880,
      "26f": 4881,
      "718": 4882,
      "9500": 4883,
      "a3c": 4884,
      "ad1": 4885,
      "b69": 4886,
      "f9a": 4887,
      "f9f": 4888,
      "00e8": 4889,
      "2f4b": 4890,
      "4be3": 4891,
      "3caf": 4892,
      "3c47": 4893,
      "3c78": 4894,
      "3c0f": 4895,
      "3c46": 4896,
      "##944": 4897,
      "947f": 4898,
      "##60f": 4899,
      "4fde": 4900,
      "9c36": 4901,
      "##b4d": 4902,
      "c631": 4903,
      "##630": 4904,
      "##d0d": 4905,
      "##d2b": 4906,
      "##7bd": 4907,
      "##988": 4908,
      "20d3": 4909,
      "1f34": 4910,
      "4e48": 4911,
      "1734": 4912,
      "40e3": 4913,
      "a380": 4914,
      "56a3": 4915,
      "12d": 4916,
      "1a4": 4917,
      "8ff": 4918,
      "934": 4919,
      "93a0": 4920,
      "a801": 4921,
      "b68": 4922,
      "ce9": 4923,
      "db6": 4924,
      "e80": 4925,
      "ee5": 4926,
      "ed1": 4927,
      "38eb": 4928,
      "4b9e": 4929,
      "001d": 4930,
      "3c7e": 4931,
      "3cb1": 4932,
      "3c85": 4933,
      "94c9": 4934,
      "5f47": 4935,
      "cb41": 4936,
      "5e0d": 4937,
      "##dbf": 4938,
      "##707": 4939,
      "005c": 4940,
      "9835": 4941,
      "1401": 4942,
      "2448": 4943,
      "897f": 4944,
      "94bd": 4945,
      "b01b": 4946,
      "2a4": 4947,
      "5b8": 4948,
      "780c": 4949,
      "87c": 4950,
      "989": 4951,
      "9ef": 4952,
      "a2f": 4953,
      "c8c": 4954,
      "d3c": 4955,
      "d6c": 4956,
      "fba": 4957,
      "ff8": 4958,
      "##90d": 4959,
      "4be2": 4960,
      "4b9c": 4961,
      "0d4f": 4962,
      "1943": 4963,
      "3c9f": 4964,
      "3cc3": 4965,
      "3cad": 4966,
      "947e": 4967,
      "94c1": 4968,
      "##2c1": 4969,
      "464c": 4970,
      "##7f9": 4971,
      "##db1": 4972,
      "##dbd": 4973,
      "##e07": 4974,
      "dc0c": 4975,
      "##d26": 4976,
      "0057": 4977,
      "##66d": 4978,
      "907c": 4979,
      "88a5": 4980,
      "##1a6": 4981,
      "##2bd": 4982,
      "e401": 4983,
      "##96d": 4984,
      "ed62": 4985,
      "04ec": 4986,
      "4048": 4987,
      "942c": 4988,
      "e484": 4989,
      "2b83": 4990,
      "11c": 4991,
      "178": 4992,
      "23c": 4993,
      "73c": 4994,
      "a76": 4995,
      "a68": 4996,
      "a32": 4997,
      "a8d": 4998,
      "a2a": 4999,
      "bd9": 5000,
      "b89": 5001,
      "c90c": 5002,
      "dbc": 5003,
      "de9": 5004,
      "e91": 5005,
      "e39": 5006,
      "e76": 5007,
      "e35": 5008,
      "fb6": 5009,
      "0063": 5010,
      "000c": 5011,
      "##909": 5012,
      "##90e": 5013,
      "3e63": 5014,
      "38ed": 5015,
      "4bcd": 5016,
      "3ce8": 5017,
      "3ccb": 5018,
      "3cc7": 5019,
      "3c83": 5020,
      "3c5b": 5021,
      "##e2e": 5022,
      "##0bf": 5023,
      "5c0c": 5024,
      "##09b": 5025,
      "##7a5": 5026,
      "##e8e": 5027,
      "##721": 5028,
      "##98e": 5029,
      "##207": 5030,
      "9b2c": 5031,
      "3780": 5032,
      "b189": 5033,
      "2700": 5034,
      "1623": 5035,
      "03a": 5036,
      "09a": 5037,
      "169": 5038,
      "560c": 5039,
      "6d6": 5040,
      "9b8": 5041,
      "962": 5042,
      "adf": 5043,
      "ba4": 5044,
      "b32": 5045,
      "c75": 5046,
      "d68": 5047,
      "dd1": 5048,
      "d61": 5049,
      "f91": 5050,
      "38e4": 5051,
      "da8d": 5052,
      "dad4": 5053,
      "4b63": 5054,
      "4bd3": 5055,
      "4bc1": 5056,
      "f189": 5057,
      "3c25": 5058,
      "3ce0": 5059,
      "3c1e": 5060,
      "##94e": 5061,
      "947a": 5062,
      "9475": 5063,
      "94c0": 5064,
      "5fd6": 5065,
      "##2c9": 5066,
      "4bbd": 5067,
      "4989": 5068,
      "5e0c": 5069,
      "##d0f": 5070,
      "##7fe": 5071,
      "##6be": 5072,
      "##98f": 5073,
      "c5ec": 5074,
      "##10d": 5075,
      "2601": 5076,
      "bd0c": 5077,
      "a401": 5078,
      "a70b": 5079,
      "942b": 5080,
      "940a": 5081,
      "234": 5082,
      "6b6": 5083,
      "8ec": 5084,
      "c00c": 5085,
      "e6c": 5086,
      "38fe": 5087,
      "4bc6": 5088,
      "3c2d": 5089,
      "3c8c": 5090,
      "3c74": 5091,
      "3c7f": 5092,
      "3cb2": 5093,
      "3c5e": 5094,
      "b81c": 5095,
      "##7a2": 5096,
      "##7f3": 5097,
      "##db7": 5098,
      "##79b": 5099,
      "##79f": 5100,
      "##986": 5101,
      "5b7d": 5102,
      "5189": 5103,
      "ed6d": 5104,
      "b6a1": 5105,
      "1d34": 5106,
      "9451": 5107,
      "94bf": 5108,
      "1334": 5109,
      "3763": 5110,
      "82b9": 5111,
      "9d9": 5112,
      "9ec": 5113,
      "9d1": 5114,
      "975": 5115,
      "ab8": 5116,
      "c76": 5117,
      "def": 5118,
      "d9a": 5119,
      "d9f": 5120,
      "ea4": 5121,
      "ebc": 5122,
      "f3c": 5123,
      "fdf": 5124,
      "0062": 5125,
      "0077": 5126,
      "4b50": 5127,
      "0018": 5128,
      "3c94": 5129,
      "3cb0": 5130,
      "3c29": 5131,
      "3c8a": 5132,
      "3c57": 5133,
      "4543": 5134,
      "943d": 5135,
      "8d01": 5136,
      "##e26": 5137,
      "4ba9": 5138,
      "5e45": 5139,
      "##7ae": 5140,
      "6c01": 5141,
      "##7f1": 5142,
      "##6bd": 5143,
      "##6b7": 5144,
      "00ab": 5145,
      "##9ed": 5146,
      "##1a7": 5147,
      "##1a3": 5148,
      "364b": 5149,
      "3161": 5150,
      "e989": 5151,
      "94b1": 5152,
      "5c81": 5153,
      "5e10": 5154,
      "1d8": 5155,
      "8c8d": 5156,
      "ae9": 5157,
      "a18": 5158,
      "b7c": 5159,
      "d08": 5160,
      "d37": 5161,
      "d6f": 5162,
      "e15": 5163,
      "4b96": 5164,
      "4b26": 5165,
      "3908": 5166,
      "1004": 5167,
      "1007": 5168,
      "3c28": 5169,
      "3c76": 5170,
      "3c7c": 5171,
      "3c2a": 5172,
      "94ad": 5173,
      "cb11": 5174,
      "6953": 5175,
      "c633": 5176,
      "bcb3": 5177,
      "##e0f": 5178,
      "b5c4": 5179,
      "0052": 5180,
      "5b7e": 5181,
      "##929": 5182,
      "945c": 5183,
      "9487": 5184,
      "176": 5185,
      "13c": 5186,
      "6b8": 5187,
      "a71": 5188,
      "b75": 5189,
      "c9a": 5190,
      "c40c": 5191,
      "dd5": 5192,
      "0189": 5193,
      "##902": 5194,
      "##387": 5195,
      "0c01": 5196,
      "4b92": 5197,
      "4bf8": 5198,
      "4b27": 5199,
      "4b23": 5200,
      "3cec": 5201,
      "3c0a": 5202,
      "3cc6": 5203,
      "3c50": 5204,
      "##94f": 5205,
      "458d": 5206,
      "fa01": 5207,
      "5c00": 5208,
      "##7fb": 5209,
      "0b73": 5210,
      "2e30": 5211,
      "fd7c": 5212,
      "633c": 5213,
      "73e7": 5214,
      "0ea": 5215,
      "591": 5216,
      "60a": 5217,
      "96a": 5218,
      "97c": 5219,
      "a3a": 5220,
      "afc": 5221,
      "d34": 5222,
      "d18": 5223,
      "ee4": 5224,
      "edc": 5225,
      "e2a": 5226,
      "fdc": 5227,
      "fd1": 5228,
      "003d": 5229,
      "0006": 5230,
      "##905": 5231,
      "4b60": 5232,
      "3c8b": 5233,
      "3ca2": 5234,
      "##94c": 5235,
      "##94a": 5236,
      "9471": 5237,
      "9472": 5238,
      "##e2f": 5239,
      "##2ce": 5240,
      "##3d7": 5241,
      "3501": 5242,
      "a834": 5243,
      "##f2e": 5244,
      "##7ac": 5245,
      "258d": 5246,
      "b5e4": 5247,
      "7f31": 5248,
      "##9dd": 5249,
      "c189": 5250,
      "30db": 5251,
      "5e7e": 5252,
      "09c": 5253,
      "3633": 5254,
      "59c": 5255,
      "9dc": 5256,
      "9df": 5257,
      "a7c": 5258,
      "b80": 5259,
      "e37": 5260,
      "e61": 5261,
      "eef": 5262,
      "e9f": 5263,
      "e48d": 5264,
      "f32": 5265,
      "fec": 5266,
      "00e5": 5267,
      "0ac5": 5268,
      "8012": 5269,
      "3e11": 5270,
      "4b99": 5271,
      "001f": 5272,
      "3c3c": 5273,
      "3c11": 5274,
      "3c13": 5275,
      "3c52": 5276,
      "##e2c": 5277,
      "##e23": 5278,
      "578d": 5279,
      "5e3c": 5280,
      "##e84": 5281,
      "##7fd": 5282,
      "##7b7": 5283,
      "bb3c": 5284,
      "d8a2": 5285,
      "##1a9": 5286,
      "##9b0": 5287,
      "##2b7": 5288,
      "3715": 5289,
      "b180": 5290,
      "a780": 5291,
      "ce01": 5292,
      "a201": 5293,
      "94ba": 5294,
      "cb8d": 5295,
      "5450": 5296,
      "0e4": 5297,
      "1d1": 5298,
      "171": 5299,
      "261": 5300,
      "312e": 5301,
      "668": 5302,
      "662": 5303,
      "661": 5304,
      "8fc": 5305,
      "a9f": 5306,
      "bb8d": 5307,
      "c69": 5308,
      "cef": 5309,
      "d11": 5310,
      "d9c": 5311,
      "eec": 5312,
      "e8d": 5313,
      "e9c": 5314,
      "fb8": 5315,
      "fef": 5316,
      "f9c": 5317,
      "00d0": 5318,
      "4b38": 5319,
      "4b56": 5320,
      "3c75": 5321,
      "3c12": 5322,
      "3c1f": 5323,
      "3c20": 5324,
      "3cf6": 5325,
      "3cb3": 5326,
      "3c5c": 5327,
      "9444": 5328,
      "94f2": 5329,
      "053c": 5330,
      "##2cd": 5331,
      "4748": 5332,
      "4bac": 5333,
      "5e8d": 5334,
      "##e85": 5335,
      "9a01": 5336,
      "4d0b": 5337,
      "##999": 5338,
      "1732": 5339,
      "0da7": 5340,
      "262b": 5341,
      "091": 5342,
      "29c": 5343,
      "218": 5344,
      "4801": 5345,
      "66c": 5346,
      "711": 5347,
      "708d": 5348,
      "9b6": 5349,
      "98c": 5350,
      "ab6": 5351,
      "a37": 5352,
      "ad8": 5353,
      "aba": 5354,
      "b500": 5355,
      "c9c": 5356,
      "d02": 5357,
      "d1c": 5358,
      "d0c": 5359,
      "dd8": 5360,
      "e78": 5361,
      "007d": 5362,
      "3bd0": 5363,
      "0a32": 5364,
      "##90a": 5365,
      "38b3": 5366,
      "4b01": 5367,
      "4bee": 5368,
      "3cc4": 5369,
      "3cde": 5370,
      "3c43": 5371,
      "3c77": 5372,
      "3c51": 5373,
      "##943": 5374,
      "94d0": 5375,
      "5f0d": 5376,
      "4f89": 5377,
      "##2c5": 5378,
      "4744": 5379,
      "4bad": 5380,
      "464b": 5381,
      "4647": 5382,
      "4646": 5383,
      "##f26": 5384,
      "##7a9": 5385,
      "##db9": 5386,
      "##d2e": 5387,
      "##d27": 5388,
      "##66e": 5389,
      "90ee": 5390,
      "00a2": 5391,
      "##d73": 5392,
      "1f01": 5393,
      "1180": 5394,
      "1e34": 5395,
      "664b": 5396,
      "5334": 5397,
      "5e7a": 5398,
      "830c": 5399,
      "1ef7": 5400,
      "8065": 5401,
      "078": 5402,
      "0348": 5403,
      "10a": 5404,
      "278": 5405,
      "340c": 5406,
      "969": 5407,
      "ab5": 5408,
      "a6c": 5409,
      "b3a": 5410,
      "cd1": 5411,
      "db8": 5412,
      "d7c": 5413,
      "d001": 5414,
      "e06": 5415,
      "efa": 5416,
      "f3b": 5417,
      "00d7": 5418,
      "0023": 5419,
      "00b7": 5420,
      "3bcd": 5421,
      "0a44": 5422,
      "38d5": 5423,
      "38ec": 5424,
      "388d": 5425,
      "38fc": 5426,
      "4b4b": 5427,
      "4bdd": 5428,
      "4bc9": 5429,
      "3989": 5430,
      "3c73": 5431,
      "2d44": 5432,
      "5f0f": 5433,
      "5f19": 5434,
      "4a48": 5435,
      "##e87": 5436,
      "0b2d": 5437,
      "##79d": 5438,
      "00ad": 5439,
      "c82a": 5440,
      "##d77": 5441,
      "521b": 5442,
      "2989": 5443,
      "5e7c": 5444,
      "5e75": 5445,
      "5e4d": 5446,
      "eb54": 5447,
      "1da": 5448,
      "67c": 5449,
      "968": 5450,
      "ae4": 5451,
      "aff": 5452,
      "bd6": 5453,
      "cdf": 5454,
      "e28": 5455,
      "e11": 5456,
      "0042": 5457,
      "0046": 5458,
      "3bd1": 5459,
      "3bcc": 5460,
      "91e8": 5461,
      "0a34": 5462,
      "4b9f": 5463,
      "3c38": 5464,
      "3cd0": 5465,
      "3c1d": 5466,
      "3c0d": 5467,
      "944a": 5468,
      "9470": 5469,
      "2d47": 5470,
      "5f0c": 5471,
      "5f11": 5472,
      "5f43": 5473,
      "5f85": 5474,
      "0564": 5475,
      "##2cf": 5476,
      "4baa": 5477,
      "5e48": 5478,
      "5e42": 5479,
      "5e06": 5480,
      "##e8b": 5481,
      "##7f7": 5482,
      "##6b3": 5483,
      "##66f": 5484,
      "##9e3": 5485,
      "##fb2": 5486,
      "0f80": 5487,
      "26d0": 5488,
      "6789": 5489,
      "0e01": 5490,
      "5e78": 5491,
      "ee80": 5492,
      "5e51": 5493,
      "5e46": 5494,
      "5e4f": 5495,
      "9402": 5496,
      "bbc5": 5497,
      "5420": 5498,
      "502f": 5499,
      "118": 5500,
      "5801": 5501,
      "5643": 5502,
      "971": 5503,
      "a61": 5504,
      "c80": 5505,
      "de4": 5506,
      "ddc": 5507,
      "ddf": 5508,
      "df8": 5509,
      "e05": 5510,
      "eba": 5511,
      "f6c": 5512,
      "3bce": 5513,
      "3bcf": 5514,
      "##90f": 5515,
      "38a5": 5516,
      "dae6": 5517,
      "286d": 5518,
      "4ba4": 5519,
      "4b18": 5520,
      "4bcc": 5521,
      "3cd7": 5522,
      "949b": 5523,
      "94c5": 5524,
      "2d43": 5525,
      "5f45": 5526,
      "5fd5": 5527,
      "5f84": 5528,
      "5f86": 5529,
      "4f06": 5530,
      "b6d8": 5531,
      "##3db": 5532,
      "4644": 5533,
      "##7b1": 5534,
      "##98a": 5535,
      "5234": 5536,
      "##107": 5537,
      "8189": 5538,
      "f701": 5539,
      "0e0c": 5540,
      "940c": 5541,
      "04bc": 5542,
      "61c": 5543,
      "618": 5544,
      "942f": 5545,
      "978": 5546,
      "ca4": 5547,
      "e18": 5548,
      "f80": 5549,
      "0180": 5550,
      "0874": 5551,
      "0a0e": 5552,
      "0a99": 5553,
      "4884": 5554,
      "38e8": 5555,
      "389e": 5556,
      "4bdc": 5557,
      "4bd1": 5558,
      "4b12": 5559,
      "3cd9": 5560,
      "3ce7": 5561,
      "3cea": 5562,
      "3cdc": 5563,
      "3c21": 5564,
      "3cb7": 5565,
      "3c5f": 5566,
      "9494": 5567,
      "9447": 5568,
      "2d41": 5569,
      "2d49": 5570,
      "5f44": 5571,
      "5f16": 5572,
      "4f0a": 5573,
      "57ec": 5574,
      "4749": 5575,
      "47fb": 5576,
      "5e3e": 5577,
      "5e39": 5578,
      "5e0f": 5579,
      "##f20": 5580,
      "##f23": 5581,
      "##7ab": 5582,
      "##e81": 5583,
      "##987": 5584,
      "5b7f": 5585,
      "42ba": 5586,
      "##677": 5587,
      "4189": 5588,
      "e201": 5589,
      "61d7": 5590,
      "8989": 5591,
      "94b4": 5592,
      "24a0": 5593,
      "5e53": 5594,
      "428c": 5595,
      "537d": 5596,
      "5454": 5597,
      "4e4e": 5598,
      "049c": 5599,
      "606": 5600,
      "6c8d": 5601,
      "738b": 5602,
      "a348": 5603,
      "d80": 5604,
      "fa4": 5605,
      "00ef": 5606,
      "0097": 5607,
      "1b34": 5608,
      "4be7": 5609,
      "4bfc": 5610,
      "001e": 5611,
      "3cda": 5612,
      "3c9c": 5613,
      "3c14": 5614,
      "9448": 5615,
      "949e": 5616,
      "94a3": 5617,
      "5f48": 5618,
      "5f0b": 5619,
      "5f09": 5620,
      "5f81": 5621,
      "4f08": 5622,
      "4f8d": 5623,
      "fa0c": 5624,
      "##3d3": 5625,
      "4bba": 5626,
      "4745": 5627,
      "5e3f": 5628,
      "5e4b": 5629,
      "5e0a": 5630,
      "4645": 5631,
      "##f24": 5632,
      "##d21": 5633,
      "0b78": 5634,
      "##98b": 5635,
      "00ac": 5636,
      "##923": 5637,
      "5180": 5638,
      "512c": 5639,
      "3748": 5640,
      "7189": 5641,
      "6334": 5642,
      "0b8a": 5643,
      "24a6": 5644,
      "0ff": 5645,
      "7dbe": 5646,
      "9d8": 5647,
      "a06": 5648,
      "b62": 5649,
      "c7c": 5650,
      "cd6": 5651,
      "c78": 5652,
      "d2f": 5653,
      "d1f": 5654,
      "e7c": 5655,
      "f3a": 5656,
      "9180": 5657,
      "346d": 5658,
      "6afd": 5659,
      "4bb4": 5660,
      "4b70": 5661,
      "3ca4": 5662,
      "3cba": 5663,
      "3c24": 5664,
      "##94d": 5665,
      "944c": 5666,
      "94fc": 5667,
      "94c6": 5668,
      "2d42": 5669,
      "2d45": 5670,
      "5f15": 5671,
      "5fd4": 5672,
      "5f83": 5673,
      "##3d1": 5674,
      "5e0b": 5675,
      "5a01": 5676,
      "bbec": 5677,
      "##985": 5678,
      "1434": 5679,
      "4105": 5680,
      "##777": 5681,
      "d189": 5682,
      "c701": 5683,
      "e189": 5684,
      "5e7d": 5685,
      "5e56": 5686,
      "3717": 5687,
      "3713": 5688,
      "3020": 5689,
      "5e11": 5690,
      "432c": 5691,
      "6e56": 5692,
      "264e": 5693,
      "380c": 5694,
      "508d": 5695,
      "6e4": 5696,
      "6d1": 5697,
      "9ba": 5698,
      "a0a": 5699,
      "a11": 5700,
      "a1f": 5701,
      "be4": 5702,
      "e1f": 5703,
      "0032": 5704,
      "00db": 5705,
      "004e": 5706,
      "0021": 5707,
      "0a5c": 5708,
      "2f31": 5709,
      "4b39": 5710,
      "4b1c": 5711,
      "3901": 5712,
      "3cdb": 5713,
      "94fa": 5714,
      "947c": 5715,
      "94f5": 5716,
      "94a2": 5717,
      "##609": 5718,
      "5f4b": 5719,
      "5f41": 5720,
      "5f49": 5721,
      "5f1a": 5722,
      "5f13": 5723,
      "5f0e": 5724,
      "4f48": 5725,
      "4f4e": 5726,
      "cb93": 5727,
      "cba0": 5728,
      "5584": 5729,
      "474c": 5730,
      "5e08": 5731,
      "##7ad": 5732,
      "bc3a": 5733,
      "##9be": 5734,
      "5248": 5735,
      "1189": 5736,
      "c401": 5737,
      "##977": 5738,
      "820c": 5739,
      "a989": 5740,
      "e70c": 5741,
      "5e76": 5742,
      "5e54": 5743,
      "5e4e": 5744,
      "3714": 5745,
      "3349": 5746,
      "0e7": 5747,
      "3006": 5748,
      "408d": 5749,
      "4746": 5750,
      "980": 5751,
      "b11": 5752,
      "d48d": 5753,
      "f78": 5754,
      "001b": 5755,
      "00e2": 5756,
      "2fa7": 5757,
      "3865": 5758,
      "38b4": 5759,
      "4b76": 5760,
      "4b5d": 5761,
      "0d4d": 5762,
      "3c22": 5763,
      "3cd1": 5764,
      "3ce6": 5765,
      "3c7b": 5766,
      "3ca1": 5767,
      "9438": 5768,
      "9460": 5769,
      "9463": 5770,
      "9461": 5771,
      "94cf": 5772,
      "94a8": 5773,
      "2d4a": 5774,
      "2d46": 5775,
      "2dc3": 5776,
      "5f42": 5777,
      "5f18": 5778,
      "5f14": 5779,
      "5f10": 5780,
      "5f17": 5781,
      "cb1c": 5782,
      "cb19": 5783,
      "058d": 5784,
      "4c48": 5785,
      "5c48": 5786,
      "3563": 5787,
      "4ba6": 5788,
      "4948": 5789,
      "5e09": 5790,
      "##7a7": 5791,
      "##7a3": 5792,
      "##e82": 5793,
      "2cdc": 5794,
      "##1ab": 5795,
      "c504": 5796,
      "##9b7": 5797,
      "e81c": 5798,
      "516b": 5799,
      "4180": 5800,
      "50eb": 5801,
      "2980": 5802,
      "9456": 5803,
      "9455": 5804,
      "7094": 5805,
      "5e79": 5806,
      "5e74": 5807,
      "0b8d": 5808,
      "836a": 5809,
      "5e57": 5810,
      "2459": 5811,
      "5e47": 5812,
      "3716": 5813,
      "3712": 5814,
      "eda3": 5815,
      "434f": 5816,
      "2801": 5817,
      "3746": 5818,
      "6fc": 5819,
      "cff": 5820,
      "d724": 5821,
      "d11f": 5822,
      "fe4": 5823,
      "002b": 5824,
      "00ed": 5825,
      "0092": 5826,
      "34bd": 5827,
      "0a38": 5828,
      "38f5": 5829,
      "4b14": 5830,
      "156c": 5831,
      "3c42": 5832,
      "3c3a": 5833,
      "3c71": 5834,
      "3ceb": 5835,
      "3ce9": 5836,
      "3c23": 5837,
      "9436": 5838,
      "94e0": 5839,
      "94d3": 5840,
      "94f1": 5841,
      "5f4a": 5842,
      "cbf1": 5843,
      "##e27": 5844,
      "1a0c": 5845,
      "ec9a": 5846,
      "5e3a": 5847,
      "5e3d": 5848,
      "5e0e": 5849,
      "4649": 5850,
      "1c15": 5851,
      "68f4": 5852,
      "##7b9": 5853,
      "##9b2": 5854,
      "##9d3": 5855,
      "524a": 5856,
      "8e01": 5857,
      "377f": 5858,
      "4148": 5859,
      "2180": 5860,
      "e490": 5861,
      "3648": 5862,
      "3189": 5863,
      "0d5c": 5864,
      "7989": 5865,
      "d989": 5866,
      "e180": 5867,
      "948c": 5868,
      "5e7f": 5869,
      "5e41": 5870,
      "3284": 5871,
      "24b0": 5872,
      "1067": 5873,
      "0e9": 5874,
      "09f": 5875,
      "237": 5876,
      "548d": 5877,
      "d69": 5878,
      "ffc": 5879,
      "f00d": 5880,
      "009c": 5881,
      "00fb": 5882,
      "3401": 5883,
      "3895": 5884,
      "4b15": 5885,
      "4b28": 5886,
      "1804": 5887,
      "150a": 5888,
      "1518": 5889,
      "0012": 5890,
      "3c6a": 5891,
      "3ce1": 5892,
      "3cca": 5893,
      "3cdf": 5894,
      "3c6e": 5895,
      "94d2": 5896,
      "946b": 5897,
      "94f8": 5898,
      "941e": 5899,
      "2d3f": 5900,
      "5f12": 5901,
      "5fd3": 5902,
      "5f46": 5903,
      "4f07": 5904,
      "9c1e": 5905,
      "498d": 5906,
      "2cda": 5907,
      "##d23": 5908,
      "##799": 5909,
      "0051": 5910,
      "##9b9": 5911,
      "5249": 5912,
      "4280": 5913,
      "b989": 5914,
      "512f": 5915,
      "41ef": 5916,
      "e280": 5917,
      "e274": 5918,
      "3148": 5919,
      "8980": 5920,
      "a189": 5921,
      "1239": 5922,
      "94b8": 5923,
      "5e77": 5924,
      "5e55": 5925,
      "5e4a": 5926,
      "5e44": 5927,
      "5e43": 5928,
      "9406": 5929,
      "bbc0": 5930,
      "4910": 5931,
      "37c1": 5932,
      "0e5c": 5933,
      "37c3": 5934,
      "4747": 5935,
      "60f3": 5936,
      "c48d": 5937,
      "dd6": 5938,
      "d09c": 5939,
      "e1c": 5940,
      "0061": 5941,
      "0a2d": 5942,
      "0aac": 5943,
      "d5dc": 5944,
      "d5f4": 5945,
      "3e8d": 5946,
      "3860": 5947,
      "4bd7": 5948,
      "4bfe": 5949,
      "398d": 5950,
      "3966": 5951,
      "1544": 5952,
      "3cfb": 5953,
      "3ca5": 5954,
      "3c5d": 5955,
      "##949": 5956,
      "943e": 5957,
      "9449": 5958,
      "94d6": 5959,
      "94d8": 5960,
      "947b": 5961,
      "9493": 5962,
      "94f6": 5963,
      "94f7": 5964,
      "94a0": 5965,
      "2d1d": 5966,
      "5fd2": 5967,
      "4f0c": 5968,
      "4f09": 5969,
      "cb4a": 5970,
      "853a": 5971,
      "bb51": 5972,
      "5cc0": 5973,
      "4a8d": 5974,
      "##3df": 5975,
      "4742": 5976,
      "4741": 5977,
      "474a": 5978,
      "dcb7": 5979,
      "##d29": 5980,
      "2a48": 5981,
      "040c": 5982,
      "b980": 5983,
      "##973": 5984,
      "8280": 5985,
      "4401": 5986,
      "a980": 5987,
      "0989": 5988,
      "94b7": 5989,
      "948a": 5990,
      "5e7b": 5991,
      "5e73": 5992,
      "24a9": 5993,
      "24ae": 5994,
      "245a": 5995,
      "5e49": 5996,
      "5e4c": 5997,
      "9409": 5998,
      "c421": 5999,
      "136b": 6000,
      "269c": 6001,
      "63ac": 6002,
      "4354": 6003,
      "835a": 6004,
      "9e9d": 6005,
      "965c": 6006,
      "9f82": 6007,
      "0fc": 6008,
      "200c": 6009,
      "3743": 6010,
      "4c8d": 6011,
      "6ec": 6012,
      "6313": 6013,
      "96c": 6014,
      "d78": 6015,
      "fe9": 6016,
      "fb8d": 6017,
      "0029": 6018,
      "3416": 6019,
      "0ab1": 6020,
      "488d": 6021,
      "38f0": 6022,
      "4b22": 6023,
      "4be9": 6024,
      "4bed": 6025,
      "4b29": 6026,
      "4bf3": 6027,
      "3965": 6028,
      "3c36": 6029,
      "3c37": 6030,
      "3c05": 6031,
      "3c9e": 6032,
      "3ca8": 6033,
      "9439": 6034,
      "94dc": 6035,
      "946c": 6036,
      "949c": 6037,
      "949f": 6038,
      "946e": 6039,
      "2d3c": 6040,
      "5f80": 6041,
      "6989": 6042,
      "3a5b": 6043,
      "474b": 6044,
      "473c": 6045,
      "47fc": 6046,
      "47f9": 6047,
      "4ba7": 6048,
      "499a": 6049,
      "4993": 6050,
      "##7a6": 6051,
      "651b": 6052,
      "6515": 6053,
      "e564": 6054,
      "##9b3": 6055,
      "1f4e": 6056,
      "b9e5": 6057,
      "5172": 6058,
      "3101": 6059,
      "c180": 6060,
      "008a": 6061,
      "5401": 6062,
      "7101": 6063,
      "c201": 6064,
      "df80": 6065,
      "de04": 6066,
      "9225": 6067,
      "7780": 6068,
      "5980": 6069,
      "0e8d": 6070,
      "24a8": 6071,
      "5e50": 6072,
      "5e52": 6073,
      "9407": 6074,
      "c41e": 6075,
      "1364": 6076,
      "6370": 6077,
      "c3b0": 6078,
      "bba2": 6079,
      "07c": 6080,
      "128d": 6081,
      "27c": 6082,
      "538d": 6083,
      "6ef": 6084,
      "636f": 6085,
      "840c": 6086,
      "99a": 6087,
      "9ff": 6088,
      "d7be": 6089,
      "f34": 6090,
      "fec2": 6091,
      "0024": 6092,
      "006e": 6093,
      "0096": 6094,
      "3b60": 6095,
      "1b26": 6096,
      "1b50": 6097,
      "344f": 6098,
      "3470": 6099,
      "6a19": 6100,
      "38ea": 6101,
      "3869": 6102,
      "38b0": 6103,
      "38a1": 6104,
      "4b80": 6105,
      "4b5b": 6106,
      "1989": 6107,
      "7653": 6108,
      "1534": 6109,
      "3c02": 6110,
      "3ce2": 6111,
      "3c82": 6112,
      "4b81": 6113,
      "9408": 6114,
      "946a": 6115,
      "9462": 6116,
      "94d4": 6117,
      "941f": 6118,
      "94ed": 6119,
      "94ee": 6120,
      "94f0": 6121,
      "94fd": 6122,
      "1828": 6123,
      "5f4c": 6124,
      "cb3e": 6125,
      "cbaa": 6126,
      "568d": 6127,
      "3a80": 6128,
      "3a0c": 6129,
      "3a11": 6130,
      "ec01": 6131,
      "5cbc": 6132,
      "5cbd": 6133,
      "##b43": 6134,
      "4994": 6135,
      "##f29": 6136,
      "6511": 6137,
      "aa01": 6138,
      "ac01": 6139,
      "258e": 6140,
      "0b0f": 6141,
      "4249": 6142,
      "3744": 6143,
      "243f": 6144,
      "244b": 6145,
      "243c": 6146,
      "8680": 6147,
      "##16d": 6148,
      "8201": 6149,
      "9e80": 6150,
      "9423": 6151,
      "ce8d": 6152,
      "0301": 6153,
      "0306": 6154,
      "63b6": 6155,
      "2451": 6156,
      "9405": 6157,
      "22a5": 6158,
      "c422": 6159,
      "1652": 6160,
      "22f0": 6161,
      "5c86": 6162,
      "5c84": 6163,
      "bbbd": 6164,
      "490e": 6165,
      "249e": 6166,
      "32cc": 6167,
      "24b1": 6168,
      "b912": 6169,
      "338d": 6170,
      "448d": 6171,
      "5e12": 6172,
      "6ff": 6173,
      "6c49": 6174,
      "efc": 6175,
      "e68d": 6176,
      "f7c": 6177,
      "009d": 6178,
      "002e": 6179,
      "3411": 6180,
      "34b2": 6181,
      "6aee": 6182,
      "0aab": 6183,
      "d50c": 6184,
      "##907": 6185,
      "3e48": 6186,
      "388c": 6187,
      "3896": 6188,
      "3857": 6189,
      "da95": 6190,
      "4b34": 6191,
      "4b0c": 6192,
      "4bef": 6193,
      "4b1e": 6194,
      "4b0d": 6195,
      "3967": 6196,
      "3c62": 6197,
      "3cd6": 6198,
      "3cd8": 6199,
      "3c72": 6200,
      "3c9d": 6201,
      "3cdd": 6202,
      "3cb9": 6203,
      "453c": 6204,
      "4546": 6205,
      "9445": 6206,
      "94a4": 6207,
      "9469": 6208,
      "9437": 6209,
      "9410": 6210,
      "9446": 6211,
      "9443": 6212,
      "2d70": 6213,
      "4f6d": 6214,
      "cb6a": 6215,
      "cb0c": 6216,
      "cb29": 6217,
      "cb21": 6218,
      "b66c": 6219,
      "9c01": 6220,
      "1a01": 6221,
      "1a91": 6222,
      "3a54": 6223,
      "ec48": 6224,
      "57b3": 6225,
      "4bb1": 6226,
      "473e": 6227,
      "47e4": 6228,
      "47fa": 6229,
      "4ba1": 6230,
      "4995": 6231,
      "499b": 6232,
      "4601": 6233,
      "2cdb": 6234,
      "2cb9": 6235,
      "258c": 6236,
      "2a06": 6237,
      "##981": 6238,
      "##983": 6239,
      "##9bd": 6240,
      "6b01": 6241,
      "##f6d": 6242,
      "22e5": 6243,
      "22f5": 6244,
      "22eb": 6245,
      "3742": 6246,
      "37c4": 6247,
      "2445": 6248,
      "24e2": 6249,
      "6189": 6250,
      "5d8d": 6251,
      "26d4": 6252,
      "7e8d": 6253,
      "c989": 6254,
      "272a": 6255,
      "ae8d": 6256,
      "6336": 6257,
      "e1e0": 6258,
      "07e0": 6259,
      "f989": 6260,
      "24a2": 6261,
      "24a7": 6262,
      "24a5": 6263,
      "2456": 6264,
      "2454": 6265,
      "940f": 6266,
      "2446": 6267,
      "2447": 6268,
      "490a": 6269,
      "6788": 6270,
      "22b0": 6271,
      "c2da": 6272,
      "3081": 6273,
      "b3b9": 6274,
      "5d6b": 6275,
      "211": 6276,
      "27c3": 6277,
      "3747": 6278,
      "4348": 6279,
      "5c47": 6280,
      "512e": 6281,
      "748d": 6282,
      "ec49": 6283,
      "f60c": 6284,
      "382f": 6285,
      "38ee": 6286,
      "38b9": 6287,
      "3964": 6288,
      "1002": 6289,
      "3ca6": 6290,
      "8b01": 6291,
      "4548": 6292,
      "4549": 6293,
      "9442": 6294,
      "94d5": 6295,
      "9468": 6296,
      "94e2": 6297,
      "9495": 6298,
      "9412": 6299,
      "5f8d": 6300,
      "4fb2": 6301,
      "cb02": 6302,
      "1a16": 6303,
      "3a5c": 6304,
      "5cbe": 6305,
      "5cc1": 6306,
      "##b47": 6307,
      "47f7": 6308,
      "5e01": 6309,
      "583a": 6310,
      "bc01": 6311,
      "6564": 6312,
      "6514": 6313,
      "651e": 6314,
      "5a0c": 6315,
      "##6bf": 6316,
      "accc": 6317,
      "fc01": 6318,
      "00a7": 6319,
      "e5fc": 6320,
      "db4c": 6321,
      "512d": 6322,
      "516c": 6323,
      "c431": 6324,
      "22e7": 6325,
      "22ea": 6326,
      "22ec": 6327,
      "14ea": 6328,
      "3745": 6329,
      "2189": 6330,
      "24a4": 6331,
      "818d": 6332,
      "7401": 6333,
      "##f0d": 6334,
      "cf8d": 6335,
      "8da8": 6336,
      "c968": 6337,
      "9420": 6338,
      "2322": 6339,
      "24ac": 6340,
      "63bc": 6341,
      "63b5": 6342,
      "2450": 6343,
      "1ef8": 6344,
      "244c": 6345,
      "244a": 6346,
      "2441": 6347,
      "2443": 6348,
      "2650": 6349,
      "c41a": 6350,
      "576f": 6351,
      "576d": 6352,
      "1363": 6353,
      "5c83": 6354,
      "bbbf": 6355,
      "36f3": 6356,
      "249d": 6357,
      "135d": 6358,
      "6371": 6359,
      "3782": 6360,
      "66a1": 6361,
      "228d": 6362,
      "2c46": 6363,
      "428d": 6364,
      "5c4a": 6365,
      "528d": 6366,
      "6e9": 6367,
      "7092": 6368,
      "b34": 6369,
      "cff7": 6370,
      "00cd": 6371,
      "3b62": 6372,
      "6a8d": 6373,
      "6a9f": 6374,
      "6af8": 6375,
      "6af3": 6376,
      "6af9": 6377,
      "4893": 6378,
      "2faa": 6379,
      "2fac": 6380,
      "4bd9": 6381,
      "4b3d": 6382,
      "4b11": 6383,
      "4b6e": 6384,
      "15e4": 6385,
      "3c08": 6386,
      "3cd5": 6387,
      "3cb8": 6388,
      "3c61": 6389,
      "3c30": 6390,
      "3c6b": 6391,
      "94ec": 6392,
      "943c": 6393,
      "9411": 6394,
      "94dd": 6395,
      "94e3": 6396,
      "94fb": 6397,
      "1874": 6398,
      "2d3a": 6399,
      "4fb6": 6400,
      "4f8e": 6401,
      "cbed": 6402,
      "050c": 6403,
      "050a": 6404,
      "3a48": 6405,
      "3a55": 6406,
      "5cc2": 6407,
      "4a50": 6408,
      "5770": 6409,
      "473d": 6410,
      "5e07": 6411,
      "1c17": 6412,
      "##e83": 6413,
      "2cb1": 6414,
      "25c4": 6415,
      "c88d": 6416,
      "8e0c": 6417,
      "4295": 6418,
      "1fe0": 6419,
      "db01": 6420,
      "516a": 6421,
      "516e": 6422,
      "22b6": 6423,
      "14e4": 6424,
      "be8d": 6425,
      "243e": 6426,
      "24e4": 6427,
      "24e5": 6428,
      "243d": 6429,
      "24e3": 6430,
      "##fbe": 6431,
      "1634": 6432,
      "7d80": 6433,
      "5dd5": 6434,
      "26d3": 6435,
      "8401": 6436,
      "e736": 6437,
      "2728": 6438,
      "9422": 6439,
      "945e": 6440,
      "2326": 6441,
      "232c": 6442,
      "24ad": 6443,
      "63b4": 6444,
      "22a9": 6445,
      "22ac": 6446,
      "1ef3": 6447,
      "cb57": 6448,
      "c428": 6449,
      "2449": 6450,
      "22f7": 6451,
      "e428": 6452,
      "5c85": 6453,
      "63aa": 6454,
      "7083": 6455,
      "490f": 6456,
      "e472": 6457,
      "6372": 6458,
      "3783": 6459,
      "5444": 6460,
      "37c2": 6461,
      "6119": 6462,
      "1e46": 6463,
      "6dc3": 6464,
      "0456": 6465,
      "2001": 6466,
      "3273": 6467,
      "400c": 6468,
      "4001": 6469,
      "4743": 6470,
      "5c49": 6471,
      "6404": 6472,
      "7008": 6473,
      "8e20": 6474,
      "99c": 6475,
      "938d": 6476,
      "93de": 6477,
      "cfc": 6478,
      "c001": 6479,
      "d60c": 6480,
      "fd6": 6481,
      "0026": 6482,
      "0106": 6483,
      "1b8d": 6484,
      "3412": 6485,
      "344d": 6486,
      "6ae8": 6487,
      "6ab2": 6488,
      "6aa0": 6489,
      "2f0c": 6490,
      "2fab": 6491,
      "d501": 6492,
      "##90b": 6493,
      "38cc": 6494,
      "3882": 6495,
      "385f": 6496,
      "4be1": 6497,
      "4b07": 6498,
      "3c3d": 6499,
      "3c6c": 6500,
      "3c70": 6501,
      "3c9b": 6502,
      "3ca0": 6503,
      "3ca7": 6504,
      "4542": 6505,
      "908d": 6506,
      "9441": 6507,
      "9464": 6508,
      "94e9": 6509,
      "946f": 6510,
      "949d": 6511,
      "94a1": 6512,
      "1872": 6513,
      "1875": 6514,
      "5f82": 6515,
      "cb4f": 6516,
      "cb2e": 6517,
      "cb17": 6518,
      "8505": 6519,
      "6901": 6520,
      "1a04": 6521,
      "3a01": 6522,
      "3a98": 6523,
      "4c04": 6524,
      "5c01": 6525,
      "5c4b": 6526,
      "4a36": 6527,
      "558d": 6528,
      "473f": 6529,
      "03ec": 6530,
      "##f21": 6531,
      "1c16": 6532,
      "2cdf": 6533,
      "f58d": 6534,
      "f566": 6535,
      "6565": 6536,
      "6563": 6537,
      "6516": 6538,
      "6519": 6539,
      "b901": 6540,
      "5174": 6541,
      "5171": 6542,
      "5130": 6543,
      "5170": 6544,
      "377e": 6545,
      "4e01": 6546,
      "3d78": 6547,
      "24af": 6548,
      "##fb1": 6549,
      "1e01": 6550,
      "5601": 6551,
      "6280": 6552,
      "6339": 6553,
      "633a": 6554,
      "9459": 6555,
      "9450": 6556,
      "9d8d": 6557,
      "6d8d": 6558,
      "2325": 6559,
      "24a1": 6560,
      "63bf": 6561,
      "63b8": 6562,
      "2452": 6563,
      "2328": 6564,
      "940b": 6565,
      "22a2": 6566,
      "22a7": 6567,
      "cbc8": 6568,
      "cb8a": 6569,
      "6010": 6570,
      "c416": 6571,
      "5767": 6572,
      "22f8": 6573,
      "4e7c": 6574,
      "3283": 6575,
      "334c": 6576,
      "135f": 6577,
      "3781": 6578,
      "04b7": 6579,
      "59b0": 6580,
      "0e18": 6581,
      "328d": 6582,
      "63ba": 6583,
      "ce4": 6584,
      "00ce": 6585,
      "00f1": 6586,
      "3bac": 6587,
      "1b54": 6588,
      "6ae6": 6589,
      "6aa6": 6590,
      "0a81": 6591,
      "4892": 6592,
      "2f4c": 6593,
      "38a4": 6594,
      "3861": 6595,
      "38cd": 6596,
      "ea0c": 6597,
      "dae7": 6598,
      "4b68": 6599,
      "4b32": 6600,
      "4baf": 6601,
      "4b44": 6602,
      "f180": 6603,
      "3ce4": 6604,
      "3c04": 6605,
      "3c93": 6606,
      "3cf8": 6607,
      "3cf0": 6608,
      "45c5": 6609,
      "943f": 6610,
      "94e1": 6611,
      "2d3d": 6612,
      "2d1e": 6613,
      "5f01": 6614,
      "5f89": 6615,
      "5fd7": 6616,
      "cb1e": 6617,
      "##e29": 6618,
      "5774": 6619,
      "47f8": 6620,
      "47ff": 6621,
      "1c0e": 6622,
      "cca4": 6623,
      "f5fd": 6624,
      "6522": 6625,
      "6566": 6626,
      "6567": 6627,
      "2501": 6628,
      "0baf": 6629,
      "##797": 6630,
      "888d": 6631,
      "##9b1": 6632,
      "524b": 6633,
      "5131": 6634,
      "22b8": 6635,
      "22e2": 6636,
      "22ef": 6637,
      "22ee": 6638,
      "14d4": 6639,
      "be01": 6640,
      "3d76": 6641,
      "24c4": 6642,
      "24e1": 6643,
      "5dd2": 6644,
      "c0c4": 6645,
      "a78d": 6646,
      "6332": 6647,
      "63af": 6648,
      "6335": 6649,
      "6337": 6650,
      "5989": 6651,
      "945f": 6652,
      "9458": 6653,
      "66c4": 6654,
      "66f2": 6655,
      "94b9": 6656,
      "6d01": 6657,
      "232e": 6658,
      "24ab": 6659,
      "24aa": 6660,
      "8301": 6661,
      "63be": 6662,
      "2457": 6663,
      "2368": 6664,
      "22aa": 6665,
      "cb86": 6666,
      "244f": 6667,
      "244d": 6668,
      "2444": 6669,
      "22f3": 6670,
      "1361": 6671,
      "2695": 6672,
      "1f50": 6673,
      "1f54": 6674,
      "63ae": 6675,
      "c444": 6676,
      "490d": 6677,
      "249f": 6678,
      "5df3": 6679,
      "678a": 6680,
      "334b": 6681,
      "3681": 6682,
      "275d": 6683,
      "66f3": 6684,
      "2796": 6685,
      "441f": 6686,
      "81bd": 6687,
      "c371": 6688,
      "206d": 6689,
      "23a2": 6690,
      "e083": 6691,
      "b3ce": 6692,
      "d98b": 6693,
      "2033": 6694,
      "9404": 6695,
      "928d": 6696,
      "ec8d": 6697,
      "e001": 6698,
      "f801": 6699,
      "002c": 6700,
      "006c": 6701,
      "00bd": 6702,
      "1b80": 6703,
      "1b1b": 6704,
      "1b52": 6705,
      "1b51": 6706,
      "6aeb": 6707,
      "6aac": 6708,
      "6aa9": 6709,
      "4891": 6710,
      "2fa6": 6711,
      "38d9": 6712,
      "4b05": 6713,
      "4b2e": 6714,
      "4b53": 6715,
      "1980": 6716,
      "19ec": 6717,
      "3948": 6718,
      "39d0": 6719,
      "39d2": 6720,
      "1574": 6721,
      "15e5": 6722,
      "156b": 6723,
      "3c69": 6724,
      "3cf2": 6725,
      "3c6f": 6726,
      "3c67": 6727,
      "3ce3": 6728,
      "##941": 6729,
      "##947": 6730,
      "454e": 6731,
      "4554": 6732,
      "94e7": 6733,
      "944f": 6734,
      "94ca": 6735,
      "94e8": 6736,
      "94eb": 6737,
      "94df": 6738,
      "94de": 6739,
      "94d7": 6740,
      "949a": 6741,
      "1876": 6742,
      "1877": 6743,
      "8d20": 6744,
      "2d3e": 6745,
      "5f7e": 6746,
      "4f90": 6747,
      "cb2c": 6748,
      "cb31": 6749,
      "cbd2": 6750,
      "cb72": 6751,
      "3a56": 6752,
      "4780": 6753,
      "47f6": 6754,
      "03e1": 6755,
      "358d": 6756,
      "4980": 6757,
      "4999": 6758,
      "##f27": 6759,
      "2cde": 6760,
      "2cdd": 6761,
      "651a": 6762,
      "6512": 6763,
      "ca10": 6764,
      "25c0": 6765,
      "25c1": 6766,
      "8a01": 6767,
      "2a80": 6768,
      "b58d": 6769,
      "c84d": 6770,
      "ba36": 6771,
      "51dc": 6772,
      "5173": 6773,
      "c41b": 6774,
      "c43c": 6775,
      "c4e6": 6776,
      "22e4": 6777,
      "22b5": 6778,
      "22e8": 6779,
      "22e6": 6780,
      "22e9": 6781,
      "37dc": 6782,
      "4efa": 6783,
      "3280": 6784,
      "5445": 6785,
      "##fbd": 6786,
      "4430": 6787,
      "7d01": 6788,
      "4034": 6789,
      "cbb8": 6790,
      "2694": 6791,
      "26d1": 6792,
      "8901": 6793,
      "c980": 6794,
      "9421": 6795,
      "633f": 6796,
      "633e": 6797,
      "c301": 6798,
      "24a3": 6799,
      "63b9": 6800,
      "63bb": 6801,
      "2453": 6802,
      "2369": 6803,
      "c42e": 6804,
      "244e": 6805,
      "6016": 6806,
      "6014": 6807,
      "4ef8": 6808,
      "4ef3": 6809,
      "e426": 6810,
      "136c": 6811,
      "1398": 6812,
      "e48c": 6813,
      "3282": 6814,
      "4a4e": 6815,
      "6787": 6816,
      "22b9": 6817,
      "22b7": 6818,
      "334a": 6819,
      "135e": 6820,
      "275e": 6821,
      "1ea7": 6822,
      "647d": 6823,
      "c3db": 6824,
      "1d6e": 6825,
      "190c": 6826,
      "272b": 6827,
      "2ed3": 6828,
      "22e3": 6829,
      "5c46": 6830,
      "6001": 6831,
      "600f": 6832,
      "838d": 6833,
      "b68d": 6834,
      "da4": 6835,
      "dfc": 6836,
      "eea2": 6837,
      "e2c3": 6838,
      "00be": 6839,
      "01db": 6840,
      "1b1c": 6841,
      "1b24": 6842,
      "1b20": 6843,
      "1b1d": 6844,
      "1b55": 6845,
      "3f8d": 6846,
      "34e2": 6847,
      "34f1": 6848,
      "34c9": 6849,
      "6ae7": 6850,
      "6afa": 6851,
      "6af2": 6852,
      "6a9e": 6853,
      "6a9d": 6854,
      "6afc": 6855,
      "6ab0": 6856,
      "6aa5": 6857,
      "6aad": 6858,
      "0abb": 6859,
      "3891": 6860,
      "387c": 6861,
      "38d6": 6862,
      "38e6": 6863,
      "389a": 6864,
      "dab4": 6865,
      "2828": 6866,
      "4b48": 6867,
      "4bfa": 6868,
      "4b1d": 6869,
      "19fd": 6870,
      "1528": 6871,
      "151c": 6872,
      "154a": 6873,
      "1578": 6874,
      "3c92": 6875,
      "3cf1": 6876,
      "3cfd": 6877,
      "3c07": 6878,
      "3cf4": 6879,
      "94ea": 6880,
      "187c": 6881,
      "5f72": 6882,
      "4fb4": 6883,
      "4fb3": 6884,
      "cb36": 6885,
      "cbe0": 6886,
      "cb97": 6887,
      "cbfe": 6888,
      "cba8": 6889,
      "1a80": 6890,
      "1a28": 6891,
      "1ab9": 6892,
      "3a5a": 6893,
      "5c06": 6894,
      "5cba": 6895,
      "5cbf": 6896,
      "8804": 6897,
      "47fd": 6898,
      "5e9c": 6899,
      "##f2b": 6900,
      "6562": 6901,
      "651f": 6902,
      "6518": 6903,
      "6517": 6904,
      "25ff": 6905,
      "8ac7": 6906,
      "c501": 6907,
      "e5d2": 6908,
      "5b7c": 6909,
      "2034": 6910,
      "##927": 6911,
      "5169": 6912,
      "516d": 6913,
      "22a4": 6914,
      "22b4": 6915,
      "22e0": 6916,
      "3d72": 6917,
      "4d80": 6918,
      "24e6": 6919,
      "0086": 6920,
      "5442": 6921,
      "54ee": 6922,
      "8f01": 6923,
      "6101": 6924,
      "1601": 6925,
      "7d8d": 6926,
      "0d54": 6927,
      "6401": 6928,
      "26d5": 6929,
      "264f": 6930,
      "1ef2": 6931,
      "1201": 6932,
      "9e8d": 6933,
      "bd01": 6934,
      "bd8d": 6935,
      "2701": 6936,
      "272c": 6937,
      "ae0c": 6938,
      "633d": 6939,
      "6330": 6940,
      "f748": 6941,
      "1360": 6942,
      "1365": 6943,
      "2324": 6944,
      "030c": 6945,
      "63b3": 6946,
      "5e58": 6947,
      "2455": 6948,
      "22a8": 6949,
      "22a3": 6950,
      "1ef1": 6951,
      "1ef0": 6952,
      "1efd": 6953,
      "d301": 6954,
      "cb5f": 6955,
      "cbc0": 6956,
      "cb87": 6957,
      "6012": 6958,
      "c419": 6959,
      "576e": 6960,
      "1650": 6961,
      "cb64": 6962,
      "22f6": 6963,
      "1366": 6964,
      "391e": 6965,
      "139c": 6966,
      "4086": 6967,
      "1f56": 6968,
      "1f52": 6969,
      "532a": 6970,
      "4a4d": 6971,
      "32cb": 6972,
      "32cd": 6973,
      "84a7": 6974,
      "2798": 6975,
      "2797": 6976,
      "8342": 6977,
      "66a0": 6978,
      "3d73": 6979,
      "3797": 6980,
      "2c49": 6981,
      "2c44": 6982,
      "77fc": 6983,
      "9c8d": 6984,
      "a48d": 6985,
      "0091": 6986,
      "00de": 6987,
      "3b21": 6988,
      "1b25": 6989,
      "1b22": 6990,
      "1b1e": 6991,
      "1b23": 6992,
      "3f80": 6993,
      "3421": 6994,
      "6aa4": 6995,
      "6af5": 6996,
      "6aa8": 6997,
      "6aa2": 6998,
      "6aa7": 6999,
      "0a25": 7000,
      "48cc": 7001,
      "38fa": 7002,
      "389c": 7003,
      "38ff": 7004,
      "ea80": 7005,
      "dae4": 7006,
      "3968": 7007,
      "15e1": 7008,
      "157c": 7009,
      "15f7": 7010,
      "3cfa": 7011,
      "3c60": 7012,
      "3cb4": 7013,
      "3c64": 7014,
      "3cd2": 7015,
      "3cee": 7016,
      "8ba4": 7017,
      "454b": 7018,
      "454d": 7019,
      "94da": 7020,
      "941d": 7021,
      "5f08": 7022,
      "5f0a": 7023,
      "4f80": 7024,
      "4f86": 7025,
      "cb42": 7026,
      "cb37": 7027,
      "cb47": 7028,
      "cbfc": 7029,
      "cb27": 7030,
      "cb26": 7031,
      "cbf9": 7032,
      "3a12": 7033,
      "3a99": 7034,
      "3a57": 7035,
      "3a53": 7036,
      "3a59": 7037,
      "5c07": 7038,
      "4a53": 7039,
      "57eb": 7040,
      "55e4": 7041,
      "47fe": 7042,
      "4933": 7043,
      "5ef3": 7044,
      "1c14": 7045,
      "6521": 7046,
      "688d": 7047,
      "25c3": 7048,
      "bbd4": 7049,
      "5bd2": 7050,
      "758d": 7051,
      "2bd8": 7052,
      "2b1e": 7053,
      "1fa4": 7054,
      "b9ca": 7055,
      "c442": 7056,
      "22ed": 7057,
      "14d2": 7058,
      "36db": 7059,
      "3d34": 7060,
      "3d8d": 7061,
      "32ca": 7062,
      "8601": 7063,
      "86d2": 7064,
      "813c": 7065,
      "1dc4": 7066,
      "5de4": 7067,
      "cbb5": 7068,
      "2e48": 7069,
      "1ef5": 7070,
      "d980": 7071,
      "6331": 7072,
      "7280": 7073,
      "078d": 7074,
      "f980": 7075,
      "9989": 7076,
      "f401": 7077,
      "4380": 7078,
      "63b1": 7079,
      "63b0": 7080,
      "22a6": 7081,
      "22ae": 7082,
      "1efb": 7083,
      "1efc": 7084,
      "1efe": 7085,
      "cb56": 7086,
      "cb51": 7087,
      "cb85": 7088,
      "6011": 7089,
      "c410": 7090,
      "5768": 7091,
      "22f4": 7092,
      "22f2": 7093,
      "391f": 7094,
      "5c82": 7095,
      "1397": 7096,
      "2b64": 7097,
      "7085": 7098,
      "3d6d": 7099,
      "63c0": 7100,
      "6786": 7101,
      "678b": 7102,
      "4d67": 7103,
      "3a4e": 7104,
      "3688": 7105,
      "275f": 7106,
      "66f1": 7107,
      "66f4": 7108,
      "6907": 7109,
      "04f7": 7110,
      "7472": 7111,
      "128c": 7112,
      "2761": 7113,
      "2760": 7114,
      "2367": 7115,
      "c8d2": 7116,
      "134f": 7117,
      "1414": 7118,
      "308d": 7119,
      "474d": 7120,
      "5004": 7121,
      "5c4c": 7122,
      "5de3": 7123,
      "6031": 7124,
      "7001": 7125,
      "8001": 7126,
      "868d": 7127,
      "82f0": 7128,
      "ac49": 7129,
      "b002": 7130,
      "b48d": 7131,
      "c08d": 7132,
      "0171": 7133,
      "1b21": 7134,
      "1b53": 7135,
      "91a4": 7136,
      "3f3e": 7137,
      "344c": 7138,
      "342a": 7139,
      "6a80": 7140,
      "6aef": 7141,
      "6a9c": 7142,
      "6afb": 7143,
      "6aaa": 7144,
      "6af0": 7145,
      "6af4": 7146,
      "6aa3": 7147,
      "0ae5": 7148,
      "0aa7": 7149,
      "4848": 7150,
      "2f4d": 7151,
      "2f0e": 7152,
      "3898": 7153,
      "3813": 7154,
      "38a3": 7155,
      "dad8": 7156,
      "da88": 7157,
      "4bcf": 7158,
      "0d01": 7159,
      "19f0": 7160,
      "7680": 7161,
      "1568": 7162,
      "15ef": 7163,
      "3c3f": 7164,
      "3c68": 7165,
      "3c63": 7166,
      "3cd4": 7167,
      "3ced": 7168,
      "4541": 7169,
      "454f": 7170,
      "94db": 7171,
      "9496": 7172,
      "9413": 7173,
      "944e": 7174,
      "94f4": 7175,
      "94a7": 7176,
      "1873": 7177,
      "8d73": 7178,
      "5f9c": 7179,
      "cbd5": 7180,
      "cbd6": 7181,
      "cb95": 7182,
      "cbdb": 7183,
      "cb1f": 7184,
      "cb7d": 7185,
      "cbe3": 7186,
      "cbab": 7187,
      "cbad": 7188,
      "1a0b": 7189,
      "4cc0": 7190,
      "5cc3": 7191,
      "5cb9": 7192,
      "5c55": 7193,
      "4a51": 7194,
      "57af": 7195,
      "5775": 7196,
      "478d": 7197,
      "3548": 7198,
      "35fc": 7199,
      "4996": 7200,
      "5ed5": 7201,
      "1c4b": 7202,
      "9534": 7203,
      "5836": 7204,
      "2c11": 7205,
      "68ec": 7206,
      "25c2": 7207,
      "0b01": 7208,
      "b580": 7209,
      "7a8d": 7210,
      "bbdc": 7211,
      "bb2e": 7212,
      "##9bf": 7213,
      "5b01": 7214,
      "7501": 7215,
      "2bd6": 7216,
      "2b9c": 7217,
      "2b1a": 7218,
      "4248": 7219,
      "420c": 7220,
      "4235": 7221,
      "1f13": 7222,
      "1f4d": 7223,
      "c41c": 7224,
      "22e1": 7225,
      "22af": 7226,
      "36dc": 7227,
      "3d70": 7228,
      "4d8d": 7229,
      "3248": 7230,
      "243a": 7231,
      "81e9": 7232,
      "ed8c": 7233,
      "618d": 7234,
      "cbb0": 7235,
      "cbbd": 7236,
      "b101": 7237,
      "7901": 7238,
      "d901": 7239,
      "2789": 7240,
      "ef80": 7241,
      "fe8d": 7242,
      "9457": 7243,
      "678d": 7244,
      "5301": 7245,
      "94b6": 7246,
      "94b5": 7247,
      "2329": 7248,
      "232b": 7249,
      "232a": 7250,
      "2327": 7251,
      "4301": 7252,
      "63b2": 7253,
      "63b7": 7254,
      "232d": 7255,
      "940e": 7256,
      "940d": 7257,
      "1ef6": 7258,
      "d328": 7259,
      "cb5d": 7260,
      "cb58": 7261,
      "cbcb": 7262,
      "c42c": 7263,
      "cb8b": 7264,
      "6013": 7265,
      "c418": 7266,
      "1656": 7267,
      "14fc": 7268,
      "14f4": 7269,
      "22f1": 7270,
      "e42a": 7271,
      "4421": 7272,
      "4420": 7273,
      "1395": 7274,
      "4084": 7275,
      "3d50": 7276,
      "532c": 7277,
      "4a4f": 7278,
      "3d6b": 7279,
      "3d6e": 7280,
      "361d": 7281,
      "5df0": 7282,
      "6486": 7283,
      "6484": 7284,
      "22b2": 7285,
      "275c": 7286,
      "5443": 7287,
      "42a3": 7288,
      "bb85": 7289,
      "2799": 7290,
      "53ef": 7291,
      "e2df": 7292,
      "1e58": 7293,
      "3d7d": 7294,
      "fb5c": 7295,
      "a620": 7296,
      "ad6c": 7297,
      "028d": 7298,
      "1c8d": 7299,
      "1d2b": 7300,
      "2729": 7301,
      "3604": 7302,
      "6402": 7303,
      "6333": 7304,
      "740b": 7305,
      "808d": 7306,
      "ac8d": 7307,
      "b09d": 7308,
      "d08d": 7309,
      "f604": 7310,
      "01dc": 7311,
      "3b61": 7312,
      "3bb0": 7313,
      "9101": 7314,
      "3415": 7315,
      "3435": 7316,
      "347b": 7317,
      "349c": 7318,
      "0848": 7319,
      "6aea": 7320,
      "6aec": 7321,
      "6aaf": 7322,
      "6af6": 7323,
      "6af7": 7324,
      "6aae": 7325,
      "6aab": 7326,
      "6aa1": 7327,
      "0a8d": 7328,
      "0ac1": 7329,
      "2fa8": 7330,
      "3e01": 7331,
      "3ecc": 7332,
      "0c8d": 7333,
      "dad1": 7334,
      "4b17": 7335,
      "19f6": 7336,
      "1548": 7337,
      "156a": 7338,
      "15ec": 7339,
      "1579": 7340,
      "15f4": 7341,
      "3c06": 7342,
      "3c90": 7343,
      "3c39": 7344,
      "3cb6": 7345,
      "3c9a": 7346,
      "285e": 7347,
      "454c": 7348,
      "9415": 7349,
      "94d9": 7350,
      "94e6": 7351,
      "9492": 7352,
      "9467": 7353,
      "94a5": 7354,
      "94a6": 7355,
      "b82a": 7356,
      "2d34": 7357,
      "2d20": 7358,
      "cb74": 7359,
      "cbd1": 7360,
      "cbd0": 7361,
      "cb78": 7362,
      "cb75": 7363,
      "cb24": 7364,
      "cbee": 7365,
      "cb16": 7366,
      "cba2": 7367,
      "cba7": 7368,
      "858d": 7369,
      "5682": 7370,
      "1a34": 7371,
      "1a11": 7372,
      "1a1f": 7373,
      "1a27": 7374,
      "1a96": 7375,
      "5ccb": 7376,
      "4ae0": 7377,
      "5701": 7378,
      "4729": 7379,
      "5e34": 7380,
      "5e62": 7381,
      "658d": 7382,
      "0059": 7383,
      "20af": 7384,
      "5262": 7385,
      "e842": 7386,
      "426b": 7387,
      "1f4f": 7388,
      "eb01": 7389,
      "516f": 7390,
      "c415": 7391,
      "c43e": 7392,
      "c438": 7393,
      "c435": 7394,
      "227c": 7395,
      "14d1": 7396,
      "be02": 7397,
      "418d": 7398,
      "36da": 7399,
      "3d79": 7400,
      "4ddc": 7401,
      "3160": 7402,
      "54e4": 7403,
      "54e2": 7404,
      "543d": 7405,
      "##fbf": 7406,
      "7434": 7407,
      "0f0c": 7408,
      "6180": 7409,
      "f201": 7410,
      "1701": 7411,
      "172a": 7412,
      "2602": 7413,
      "26d2": 7414,
      "2ed0": 7415,
      "8960": 7416,
      "8930": 7417,
      "1efa": 7418,
      "fd8d": 7419,
      "d180": 7420,
      "9f0c": 7421,
      "7e01": 7422,
      "ff8d": 7423,
      "5034": 7424,
      "a448": 7425,
      "7980": 7426,
      "778d": 7427,
      "e980": 7428,
      "5380": 7429,
      "948b": 7430,
      "9601": 7431,
      "20ac": 7432,
      "20ae": 7433,
      "236a": 7434,
      "22ab": 7435,
      "1ef9": 7436,
      "1eff": 7437,
      "cbce": 7438,
      "20b0": 7439,
      "cb84": 7440,
      "c41f": 7441,
      "165f": 7442,
      "4ef6": 7443,
      "4ef4": 7444,
      "428a": 7445,
      "5395": 7446,
      "139a": 7447,
      "1f53": 7448,
      "1f55": 7449,
      "5e1a": 7450,
      "bbbb": 7451,
      "538f": 7452,
      "63a9": 7453,
      "63ab": 7454,
      "63ad": 7455,
      "490b": 7456,
      "3d6c": 7457,
      "e4ac": 7458,
      "22b3": 7459,
      "390b": 7460,
      "548f": 7461,
      "64c5": 7462,
      "4802": 7463,
      "815c": 7464,
      "128b": 7465,
      "8624": 7466,
      "038d": 7467,
      "268d": 7468,
      "3001": 7469,
      "468d": 7470,
      "5c8d": 7471,
      "9fc": 7472,
      "9001": 7473,
      "980c": 7474,
      "a40c": 7475,
      "c68d": 7476,
      "eb8d": 7477,
      "fc8d": 7478,
      "f08d": 7479,
      "3b63": 7480,
      "3bd2": 7481,
      "1b1f": 7482,
      "34b6": 7483,
      "3437": 7484,
      "3450": 7485,
      "6ae9": 7486,
      "6af1": 7487,
      "6ab1": 7488,
      "0a0c": 7489,
      "0a64": 7490,
      "2fa4": 7491,
      "2f0b": 7492,
      "2fad": 7493,
      "3ed0": 7494,
      "3815": 7495,
      "38df": 7496,
      "3884": 7497,
      "38a2": 7498,
      "daec": 7499,
      "4bda": 7500,
      "4bd4": 7501,
      "4bf4": 7502,
      "19fa": 7503,
      "19fc": 7504,
      "3920": 7505,
      "39cf": 7506,
      "f074": 7507,
      "f1c4": 7508,
      "1531": 7509,
      "3cf7": 7510,
      "4547": 7511,
      "9414": 7512,
      "946d": 7513,
      "18cf": 7514,
      "8d80": 7515,
      "2d01": 7516,
      "4fee": 7517,
      "4f0e": 7518,
      "4f85": 7519,
      "cb3f": 7520,
      "cb06": 7521,
      "cb90": 7522,
      "cbaf": 7523,
      "cb7c": 7524,
      "cb49": 7525,
      "cb4c": 7526,
      "cb7a": 7527,
      "cb9c": 7528,
      "cb13": 7529,
      "cbfb": 7530,
      "cb0e": 7531,
      "168d": 7532,
      "1a0e": 7533,
      "3ae4": 7534,
      "3a64": 7535,
      "4c01": 7536,
      "4c06": 7537,
      "4c9c": 7538,
      "4cf6": 7539,
      "4a01": 7540,
      "4a9c": 7541,
      "552b": 7542,
      "55b2": 7543,
      "4992": 7544,
      "9580": 7545,
      "5838": 7546,
      "5837": 7547,
      "2c48": 7548,
      "2c7e": 7549,
      "6551": 7550,
      "aa8d": 7551,
      "25c5": 7552,
      "7a80": 7553,
      "bf8d": 7554,
      "bb01": 7555,
      "bb6a": 7556,
      "a58d": 7557,
      "00a6": 7558,
      "d8a1": 7559,
      "98f5": 7560,
      "206a": 7561,
      "2074": 7562,
      "2280": 7563,
      "1464": 7564,
      "e4e7": 7565,
      "3d7a": 7566,
      "4d48": 7567,
      "2442": 7568,
      "c18d": 7569,
      "54de": 7570,
      "1d01": 7571,
      "ed8d": 7572,
      "8f80": 7573,
      "af8d": 7574,
      "df7e": 7575,
      "3075": 7576,
      "2e80": 7577,
      "d10c": 7578,
      "9f80": 7579,
      "9e48": 7580,
      "de8d": 7581,
      "798d": 7582,
      "a7d9": 7583,
      "272d": 7584,
      "2795": 7585,
      "6338": 7586,
      "66f5": 7587,
      "9980": 7588,
      "22a1": 7589,
      "1ef4": 7590,
      "cb54": 7591,
      "cbc3": 7592,
      "c425": 7593,
      "f301": 7594,
      "4654": 7595,
      "4652": 7596,
      "6015": 7597,
      "3711": 7598,
      "4425": 7599,
      "269d": 7600,
      "2698": 7601,
      "6915": 7602,
      "2b63": 7603,
      "5fa9": 7604,
      "537e": 7605,
      "708a": 7606,
      "7081": 7607,
      "1426": 7608,
      "22b1": 7609,
      "3a4d": 7610,
      "31a9": 7611,
      "14be": 7612,
      "bb8f": 7613,
      "c052": 7614,
      "500b": 7615,
      "2ecf": 7616,
      "26a4": 7617,
      "40cd": 7618,
      "eda8": 7619,
      "bba6": 7620,
      "1dc0": 7621,
      "33c3": 7622,
      "0fa8": 7623,
      "236b": 7624,
      "6341": 7625,
      "dbbe": 7626,
      "f2f2": 7627,
      "bf27": 7628,
      "248d": 7629,
      "4ebd": 7630,
      "6801": 7631,
      "7c8d": 7632,
      "70fb": 7633,
      "968d": 7634,
      "a38d": 7635,
      "aff7": 7636,
      "c42f": 7637,
      "dc8d": 7638,
      "004a": 7639,
      "01f0": 7640,
      "3bcb": 7641,
      "918d": 7642,
      "91f0": 7643,
      "34db": 7644,
      "0864": 7645,
      "6aed": 7646,
      "0a04": 7647,
      "2f8d": 7648,
      "3845": 7649,
      "38bc": 7650,
      "385c": 7651,
      "4bea": 7652,
      "4b09": 7653,
      "19ee": 7654,
      "f1c9": 7655,
      "154b": 7656,
      "154c": 7657,
      "152c": 7658,
      "15dd": 7659,
      "15f8": 7660,
      "15f1": 7661,
      "3c3e": 7662,
      "3cb5": 7663,
      "3cf5": 7664,
      "3c95": 7665,
      "3cfc": 7666,
      "3c6d": 7667,
      "3ca3": 7668,
      "4545": 7669,
      "4592": 7670,
      "18ce": 7671,
      "187d": 7672,
      "8d8d": 7673,
      "2d8d": 7674,
      "5f2a": 7675,
      "5fc6": 7676,
      "4f0b": 7677,
      "4f0d": 7678,
      "4fb1": 7679,
      "4f8b": 7680,
      "cbe4": 7681,
      "cbfa": 7682,
      "cbec": 7683,
      "cb22": 7684,
      "cb35": 7685,
      "cbe5": 7686,
      "cb04": 7687,
      "cbe6": 7688,
      "cb92": 7689,
      "cb77": 7690,
      "85ce": 7691,
      "692d": 7692,
      "1a20": 7693,
      "1a26": 7694,
      "4aa2": 7695,
      "57b5": 7696,
      "574c": 7697,
      "57b4": 7698,
      "5799": 7699,
      "4789": 7700,
      "03e6": 7701,
      "4942": 7702,
      "5e6f": 7703,
      "5eff": 7704,
      "1c01": 7705,
      "5839": 7706,
      "588c": 7707,
      "583d": 7708,
      "f501": 7709,
      "bcea": 7710,
      "6513": 7711,
      "5a42": 7712,
      "aaa4": 7713,
      "8a76": 7714,
      "8a04": 7715,
      "2a08": 7716,
      "7a34": 7717,
      "005e": 7718,
      "ba01": 7719,
      "7f01": 7720,
      "1f8d": 7721,
      "b98d": 7722,
      "eb44": 7723,
      "119b": 7724,
      "c408": 7725,
      "14d9": 7726,
      "14e0": 7727,
      "373c": 7728,
      "21e5": 7729,
      "e434": 7730,
      "3dd4": 7731,
      "4d68": 7732,
      "##fb7": 7733,
      "1d2a": 7734,
      "ed01": 7735,
      "743c": 7736,
      "5dd6": 7737,
      "178d": 7738,
      "f679": 7739,
      "cbb9": 7740,
      "cbbb": 7741,
      "a96c": 7742,
      "2662": 7743,
      "878d": 7744,
      "2e8d": 7745,
      "1e64": 7746,
      "1ee9": 7747,
      "a180": 7748,
      "a101": 7749,
      "a17c": 7750,
      "9f01": 7751,
      "c901": 7752,
      "d701": 7753,
      "7701": 7754,
      "d201": 7755,
      "cd8d": 7756,
      "5901": 7757,
      "6601": 7758,
      "6d4c": 7759,
      "63bd": 7760,
      "7380": 7761,
      "cb5c": 7762,
      "c42b": 7763,
      "c420": 7764,
      "4656": 7765,
      "4651": 7766,
      "4655": 7767,
      "2653": 7768,
      "1651": 7769,
      "1653": 7770,
      "4eff": 7771,
      "4efd": 7772,
      "14f6": 7773,
      "4422": 7774,
      "e450": 7775,
      "269e": 7776,
      "2697": 7777,
      "391c": 7778,
      "8d94": 7779,
      "532b": 7780,
      "c446": 7781,
      "63c1": 7782,
      "6785": 7783,
      "4e46": 7784,
      "3686": 7785,
      "52ac": 7786,
      "548e": 7787,
      "bb8a": 7788,
      "7d54": 7789,
      "53f0": 7790,
      "13d4": 7791,
      "8ce0": 7792,
      "59f4": 7793,
      "73a3": 7794,
      "3223": 7795,
      "47cc": 7796,
      "690c": 7797,
      "a384": 7798,
      "c914": 7799,
      "f36c": 7800,
      "0173": 7801,
      "1b1a": 7802,
      "3432": 7803,
      "34c8": 7804,
      "3413": 7805,
      "088d": 7806,
      "6a29": 7807,
      "0af8": 7808,
      "d548": 7809,
      "d5e3": 7810,
      "7b80": 7811,
      "0802": 7812,
      "381b": 7813,
      "3848": 7814,
      "3862": 7815,
      "38d0": 7816,
      "38d4": 7817,
      "385e": 7818,
      "ead1": 7819,
      "dad6": 7820,
      "da82": 7821,
      "288d": 7822,
      "2824": 7823,
      "4be4": 7824,
      "4b49": 7825,
      "4be5": 7826,
      "4bdf": 7827,
      "4bff": 7828,
      "1901": 7829,
      "19f2": 7830,
      "19f1": 7831,
      "19f3": 7832,
      "39d1": 7833,
      "1806": 7834,
      "f101": 7835,
      "158d": 7836,
      "15f5": 7837,
      "1575": 7838,
      "1577": 7839,
      "3c09": 7840,
      "3cfe": 7841,
      "453f": 7842,
      "458c": 7843,
      "4550": 7844,
      "9430": 7845,
      "94f3": 7846,
      "18af": 7847,
      "1871": 7848,
      "4f91": 7849,
      "4f37": 7850,
      "4f05": 7851,
      "4fb0": 7852,
      "4f88": 7853,
      "4f87": 7854,
      "cb15": 7855,
      "cb3c": 7856,
      "cb0a": 7857,
      "cb2a": 7858,
      "cbd8": 7859,
      "cb30": 7860,
      "cb7f": 7861,
      "cbde": 7862,
      "cb9a": 7863,
      "cb9b": 7864,
      "cb9f": 7865,
      "cbdd": 7866,
      "cbf0": 7867,
      "b601": 7868,
      "8501": 7869,
      "5681": 7870,
      "6934": 7871,
      "1ae5": 7872,
      "1a9d": 7873,
      "1a0d": 7874,
      "ec29": 7875,
      "5780": 7876,
      "5776": 7877,
      "5501": 7878,
      "4701": 7879,
      "4908": 7880,
      "499c": 7881,
      "4998": 7882,
      "4997": 7883,
      "f5f6": 7884,
      "2a14": 7885,
      "b5a8": 7886,
      "0054": 7887,
      "9a80": 7888,
      "e5a0": 7889,
      "7f80": 7890,
      "7f89": 7891,
      "5b10": 7892,
      "2b1b": 7893,
      "2b1c": 7894,
      "1f48": 7895,
      "5132": 7896,
      "11dc": 7897,
      "fb01": 7898,
      "2260": 7899,
      "2267": 7900,
      "14dd": 7901,
      "4171": 7902,
      "21e4": 7903,
      "4e80": 7904,
      "3d6a": 7905,
      "4d2a": 7906,
      "86c8": 7907,
      "0081": 7908,
      "8101": 7909,
      "543f": 7910,
      "543e": 7911,
      "5490": 7912,
      "54dd": 7913,
      "##fb9": 7914,
      "7467": 7915,
      "c23a": 7916,
      "164b": 7917,
      "5dd7": 7918,
      "0d59": 7919,
      "f601": 7920,
      "df89": 7921,
      "2ed6": 7922,
      "1eef": 7923,
      "1234": 7924,
      "7edc": 7925,
      "e78d": 7926,
      "d78d": 7927,
      "278d": 7928,
      "ef01": 7929,
      "d214": 7930,
      "cd74": 7931,
      "b706": 7932,
      "72a4": 7933,
      "f780": 7934,
      "6e63": 7935,
      "c380": 7936,
      "22ad": 7937,
      "cb5b": 7938,
      "cbc4": 7939,
      "a301": 7940,
      "c423": 7941,
      "cb8f": 7942,
      "cb82": 7943,
      "4657": 7944,
      "6017": 7945,
      "2651": 7946,
      "3718": 7947,
      "1657": 7948,
      "4958": 7949,
      "cb66": 7950,
      "cb6c": 7951,
      "cb67": 7952,
      "cb65": 7953,
      "e455": 7954,
      "4e7b": 7955,
      "4e7a": 7956,
      "428f": 7957,
      "139b": 7958,
      "4252": 7959,
      "bbb3": 7960,
      "538c": 7961,
      "3614": 7962,
      "4944": 7963,
      "4e47": 7964,
      "4d6f": 7965,
      "84aa": 7966,
      "c409": 7967,
      "c40d": 7968,
      "26a3": 7969,
      "33c2": 7970,
      "62f4": 7971,
      "7254": 7972,
      "a281": 7973,
      "96f7": 7974,
      "03dd": 7975,
      "1eb0": 7976,
      "21c0": 7977,
      "368d": 7978,
      "5b8d": 7979,
      "628d": 7980,
      "a001": 7981,
      "a08d": 7982,
      "b801": 7983,
      "be22": 7984,
      "dff": 7985,
      "d7bf": 7986,
      "eff": 7987,
      "e402": 7988,
      "f001": 7989,
      "f68d": 7990,
      "fe88": 7991,
      "006f": 7992,
      "00f3": 7993,
      "3fd8": 7994,
      "3f6c": 7995,
      "3474": 7996,
      "3452": 7997,
      "0834": 7998,
      "6a8a": 7999,
      "6ab3": 8000,
      "0adc": 8001,
      "0a30": 8002,
      "0a59": 8003,
      "4855": 8004,
      "2fc2": 8005,
      "2f0d": 8006,
      "2fa5": 8007,
      "7b01": 8008,
      "3e28": 8009,
      "3e96": 8010,
      "2860": 8011,
      "2899": 8012,
      "4b3f": 8013,
      "4b3a": 8014,
      "4bf9": 8015,
      "19ef": 8016,
      "1542": 8017,
      "153a": 8018,
      "1567": 8019,
      "3cd3": 8020,
      "4594": 8021,
      "45e6": 8022,
      "9491": 8023,
      "943a": 8024,
      "1820": 8025,
      "185a": 8026,
      "2d2c": 8027,
      "5f1d": 8028,
      "4f8c": 8029,
      "cbeb": 8030,
      "cb33": 8031,
      "cb0f": 8032,
      "cb98": 8033,
      "cb9d": 8034,
      "cb4d": 8035,
      "cba5": 8036,
      "0239": 8037,
      "02fb": 8038,
      "6948": 8039,
      "6950": 8040,
      "1a25": 8041,
      "1a2a": 8042,
      "1a6f": 8043,
      "1a24": 8044,
      "1a93": 8045,
      "1a23": 8046,
      "4ce5": 8047,
      "5cc4": 8048,
      "4abc": 8049,
      "4aa0": 8050,
      "5773": 8051,
      "47f5": 8052,
      "499e": 8053,
      "49a2": 8054,
      "5e80": 8055,
      "a818": 8056,
      "a814": 8057,
      "1c13": 8058,
      "f535": 8059,
      "6580": 8060,
      "651d": 8061,
      "5a08": 8062,
      "dc0e": 8063,
      "aa0c": 8064,
      "68e4": 8065,
      "b501": 8066,
      "7ad4": 8067,
      "9a0c": 8068,
      "5b80": 8069,
      "5bd1": 8070,
      "20e9": 8071,
      "5247": 8072,
      "e863": 8073,
      "ab01": 8074,
      "8e8d": 8075,
      "4201": 8076,
      "c439": 8077,
      "c43a": 8078,
      "14d8": 8079,
      "4101": 8080,
      "4ebc": 8081,
      "361c": 8082,
      "36dd": 8083,
      "3d74": 8084,
      "543c": 8085,
      "8f2d": 8086,
      "8f8d": 8087,
      "44c4": 8088,
      "0f8d": 8089,
      "c275": 8090,
      "1648": 8091,
      "5dd1": 8092,
      "5dd3": 8093,
      "f680": 8094,
      "a901": 8095,
      "3076": 8096,
      "8748": 8097,
      "a18d": 8098,
      "6201": 8099,
      "c98d": 8100,
      "50e8": 8101,
      "a4e2": 8102,
      "3301": 8103,
      "b780": 8104,
      "59af": 8105,
      "dd8d": 8106,
      "9d01": 8107,
      "9d72": 8108,
      "4014": 8109,
      "f901": 8110,
      "9488": 8111,
      "f433": 8112,
      "d06a": 8113,
      "9680": 8114,
      "4328": 8115,
      "20ab": 8116,
      "9362": 8117,
      "b380": 8118,
      "b301": 8119,
      "730c": 8120,
      "cb50": 8121,
      "cbc7": 8122,
      "c429": 8123,
      "cb8c": 8124,
      "4659": 8125,
      "465c": 8126,
      "4653": 8127,
      "265b": 8128,
      "265f": 8129,
      "2654": 8130,
      "4efc": 8131,
      "4954": 8132,
      "4952": 8133,
      "4953": 8134,
      "e420": 8135,
      "e425": 8136,
      "136d": 8137,
      "e301": 8138,
      "4fa0": 8139,
      "494c": 8140,
      "4941": 8141,
      "68d8": 8142,
      "5ec6": 8143,
      "e4c0": 8144,
      "368a": 8145,
      "3687": 8146,
      "3314": 8147,
      "8426": 8148,
      "842a": 8149,
      "3dae": 8150,
      "41f4": 8151,
      "5495": 8152,
      "3808": 8153,
      "74f4": 8154,
      "50a9": 8155,
      "17c2": 8156,
      "2e99": 8157,
      "b2d2": 8158,
      "71b2": 8159,
      "afac": 8160,
      "cd5c": 8161,
      "a75c": 8162,
      "2014": 8163,
      "1d6f": 8164,
      "1e7a": 8165,
      "189b": 8166,
      "1c4c": 8167,
      "2002": 8168,
      "236c": 8169,
      "390c": 8170,
      "460c": 8171,
      "500c": 8172,
      "5246": 8173,
      "8612": 8174,
      "b001": 8175,
      "b38d": 8176,
      "c414": 8177,
      "c28d": 8178,
      "ce2a": 8179,
      "db8d": 8180,
      "d382": 8181,
      "e801": 8182,
      "e74e": 8183,
      "0064": 8184,
      "00dd": 8185,
      "3b80": 8186,
      "3b8d": 8187,
      "3b26": 8188,
      "1b96": 8189,
      "3f3c": 8190,
      "342c": 8191,
      "6ae0": 8192,
      "6acd": 8193,
      "0a47": 8194,
      "0af7": 8195,
      "48b2": 8196,
      "8014": 8197,
      "3e2d": 8198,
      "3e98": 8199,
      "3e27": 8200,
      "3827": 8201,
      "38bf": 8202,
      "3888": 8203,
      "ea01": 8204,
      "eab0": 8205,
      "dad5": 8206,
      "4b74": 8207,
      "19f4": 8208,
      "15fa": 8209,
      "15dc": 8210,
      "1533": 8211,
      "1570": 8212,
      "15f6": 8213,
      "3c32": 8214,
      "3c41": 8215,
      "3c8e": 8216,
      "3c8f": 8217,
      "454a": 8218,
      "458f": 8219,
      "186c": 8220,
      "b88d": 8221,
      "2d39": 8222,
      "2d6b": 8223,
      "5f54": 8224,
      "4f20": 8225,
      "4f9d": 8226,
      "cb08": 8227,
      "cb1b": 8228,
      "cb09": 8229,
      "cbd3": 8230,
      "cbf8": 8231,
      "cbf6": 8232,
      "cb23": 8233,
      "cbf4": 8234,
      "cbf3": 8235,
      "cba1": 8236,
      "8580": 8237,
      "8542": 8238,
      "857c": 8239,
      "85b2": 8240,
      "9cc4": 8241,
      "1a0a": 8242,
      "1a74": 8243,
      "1ad8": 8244,
      "1a72": 8245,
      "1a12": 8246,
      "1aa8": 8247,
      "3a52": 8248,
      "4c02": 8249,
      "4c52": 8250,
      "4ab4": 8251,
      "4aa5": 8252,
      "57b0": 8253,
      "5574": 8254,
      "55b3": 8255,
      "1022": 8256,
      "46e2": 8257,
      "464f": 8258,
      "46fc": 8259,
      "4643": 8260,
      "7cb4": 8261,
      "6ca4": 8262,
      "2c45": 8263,
      "6523": 8264,
      "dc01": 8265,
      "ca01": 8266,
      "8ad4": 8267,
      "6b0c": 8268,
      "2b01": 8269,
      "2b1d": 8270,
      "5294": 8271,
      "524c": 8272,
      "4268": 8273,
      "eb80": 8274,
      "5101": 8275,
      "518d": 8276,
      "118d": 8277,
      "c42d": 8278,
      "c44b": 8279,
      "c430": 8280,
      "c433": 8281,
      "2201": 8282,
      "1462": 8283,
      "14e9": 8284,
      "14d7": 8285,
      "378d": 8286,
      "3680": 8287,
      "3d7c": 8288,
      "3d71": 8289,
      "4d3c": 8290,
      "329a": 8291,
      "31dc": 8292,
      "c101": 8293,
      "008f": 8294,
      "54e1": 8295,
      "aff5": 8296,
      "4448": 8297,
      "4438": 8298,
      "0f89": 8299,
      "164a": 8300,
      "1e63": 8301,
      "fd01": 8302,
      "9780": 8303,
      "e0a4": 8304,
      "6f80": 8305,
      "6f89": 8306,
      "6f7c": 8307,
      "5038": 8308,
      "e780": 8309,
      "a789": 8310,
      "d737": 8311,
      "e18d": 8312,
      "a20c": 8313,
      "dd01": 8314,
      "f78d": 8315,
      "098d": 8316,
      "136a": 8317,
      "0380": 8318,
      "c424": 8319,
      "465a": 8320,
      "4658": 8321,
      "2655": 8322,
      "c413": 8323,
      "cb62": 8324,
      "e429": 8325,
      "2696": 8326,
      "5c87": 8327,
      "4288": 8328,
      "328c": 8329,
      "32a0": 8330,
      "c449": 8331,
      "63c5": 8332,
      "e47d": 8333,
      "42c3": 8334,
      "68de": 8335,
      "5d54": 8336,
      "32c9": 8337,
      "31a8": 8338,
      "3386": 8339,
      "41f0": 8340,
      "44c0": 8341,
      "3e70": 8342,
      "64c6": 8343,
      "3650": 8344,
      "3df3": 8345,
      "4805": 8346,
      "b081": 8347,
      "50a8": 8348,
      "1286": 8349,
      "1dc1": 8350,
      "5627": 8351,
      "56c7": 8352,
      "2366": 8353,
      "12fe": 8354,
      "a91d": 8355,
      "9354": 8356,
      "21b3": 8357,
      "b78a": 8358,
      "9062": 8359,
      "cd8a": 8360,
      "26a2": 8361,
      "2e67": 8362,
      "340e": 8363,
      "440c": 8364,
      "4c49": 8365,
      "4ded": 8366,
      "64c3": 8367,
      "638d": 8368,
      "680c": 8369,
      "728d": 8370,
      "a68d": 8371,
      "bc8d": 8372,
      "b08d": 8373,
      "c801": 8374,
      "c60c": 8375,
      "c70e": 8376,
      "d68d": 8377,
      "d456": 8378,
      "e08d": 8379,
      "e348": 8380,
      "00c9": 8381,
      "0109": 8382,
      "0146": 8383,
      "3ba8": 8384,
      "1b01": 8385,
      "1b94": 8386,
      "1b8a": 8387,
      "3fda": 8388,
      "3fa6": 8389,
      "3436": 8390,
      "3466": 8391,
      "6a48": 8392,
      "0a20": 8393,
      "0a5a": 8394,
      "0a8f": 8395,
      "4888": 8396,
      "3ed2": 8397,
      "3e97": 8398,
      "38db": 8399,
      "38f6": 8400,
      "da01": 8401,
      "dadc": 8402,
      "daa8": 8403,
      "da85": 8404,
      "4b3c": 8405,
      "0d80": 8406,
      "19e6": 8407,
      "19ff": 8408,
      "15ea": 8409,
      "1576": 8410,
      "1565": 8411,
      "15f2": 8412,
      "15eb": 8413,
      "159f": 8414,
      "15ee": 8415,
      "3cf3": 8416,
      "4f02": 8417,
      "4f04": 8418,
      "4fef": 8419,
      "4f8a": 8420,
      "cb0b": 8421,
      "9c94": 8422,
      "698d": 8423,
      "6954": 8424,
      "1a22": 8425,
      "1aca": 8426,
      "1a6c": 8427,
      "1a6e": 8428,
      "4c60": 8429,
      "4c05": 8430,
      "4cf4": 8431,
      "5cfc": 8432,
      "5cfb": 8433,
      "4a80": 8434,
      "4a32": 8435,
      "5789": 8436,
      "5725": 8437,
      "5720": 8438,
      "57ad": 8439,
      "c680": 8440,
      "353c": 8441,
      "4901": 8442,
      "494b": 8443,
      "5e84": 8444,
      "464e": 8445,
      "a822": 8446,
      "8cca": 8447,
      "58af": 8448,
      "5850": 8449,
      "bce2": 8450,
      "ca8d": 8451,
      "688c": 8452,
      "2590": 8453,
      "b5d5": 8454,
      "b50c": 8455,
      "7a01": 8456,
      "7ad5": 8457,
      "bf01": 8458,
      "bbd0": 8459,
      "5201": 8460,
      "427c": 8461,
      "1f80": 8462,
      "226a": 8463,
      "14e7": 8464,
      "14d6": 8465,
      "1463": 8466,
      "14d0": 8467,
      "14ef": 8468,
      "14df": 8469,
      "1466": 8470,
      "4174": 8471,
      "41ee": 8472,
      "e468": 8473,
      "36e0": 8474,
      "36ee": 8475,
      "4d01": 8476,
      "5494": 8477,
      "54e8": 8478,
      "##fb3": 8479,
      "74fa": 8480,
      "74e1": 8481,
      "60bc": 8482,
      "1649": 8483,
      "164c": 8484,
      "5d01": 8485,
      "173f": 8486,
      "f641": 8487,
      "df0c": 8488,
      "6494": 8489,
      "2680": 8490,
      "8701": 8491,
      "d101": 8492,
      "1274": 8493,
      "9f8d": 8494,
      "9e01": 8495,
      "7e0c": 8496,
      "ff01": 8497,
      "de01": 8498,
      "bd80": 8499,
      "a4d8": 8500,
      "d608": 8501,
      "d780": 8502,
      "33c4": 8503,
      "7789": 8504,
      "d4a4": 8505,
      "d4e4": 8506,
      "b789": 8507,
      "b78d": 8508,
      "945d": 8509,
      "7201": 8510,
      "b295": 8511,
      "ad7a": 8512,
      "537c": 8513,
      "5365": 8514,
      "0e4b": 8515,
      "0901": 8516,
      "6d80": 8517,
      "f98d": 8518,
      "99d4": 8519,
      "c30a": 8520,
      "430c": 8521,
      "b33a": 8522,
      "d380": 8523,
      "cbc9": 8524,
      "2652": 8525,
      "c41d": 8526,
      "c412": 8527,
      "1655": 8528,
      "4efb": 8529,
      "442a": 8530,
      "4083": 8531,
      "4085": 8532,
      "e486": 8533,
      "3023": 8534,
      "c45b": 8535,
      "bbbe": 8536,
      "c441": 8537,
      "708f": 8538,
      "4909": 8539,
      "6483": 8540,
      "e4cc": 8541,
      "7495": 8542,
      "42a2": 8543,
      "3381": 8544,
      "41f1": 8545,
      "6ca8": 8546,
      "315d": 8547,
      "2ecc": 8548,
      "1fa1": 8549,
      "5035": 8550,
      "c37a": 8551,
      "834c": 8552,
      "b010": 8553,
      "206b": 8554,
      "6020": 8555,
      "43cb": 8556,
      "43dd": 8557,
      "58dc": 8558,
      "215b": 8559,
      "40ac": 8560,
      "52f6": 8561,
      "3d77": 8562,
      "deac": 8563,
      "037e": 8564,
      "dfa3": 8565,
      "164d": 8566,
      "1eb1": 8567,
      "24b2": 8568,
      "3221": 8569,
      "648d": 8570,
      "668d": 8571,
      "600e": 8572,
      "7801": 8573,
      "9801": 8574,
      "ab8d": 8575,
      "b28d": 8576,
      "e60c": 8577,
      "00c8": 8578,
      "0079": 8579,
      "017b": 8580,
      "014e": 8581,
      "1bd2": 8582,
      "3f89": 8583,
      "3f3d": 8584,
      "34d6": 8585,
      "3431": 8586,
      "34df": 8587,
      "3414": 8588,
      "34fe": 8589,
      "3429": 8590,
      "6ac8": 8591,
      "6ae5": 8592,
      "0a9f": 8593,
      "48cb": 8594,
      "d58a": 8595,
      "3e90": 8596,
      "3e2a": 8597,
      "3e92": 8598,
      "3e99": 8599,
      "38a6": 8600,
      "4b6a": 8601,
      "4b51": 8602,
      "0dd4": 8603,
      "19eb": 8604,
      "19fb": 8605,
      "19f7": 8606,
      "3970": 8607,
      "3924": 8608,
      "768d": 8609,
      "f18d": 8610,
      "153e": 8611,
      "152a": 8612,
      "1547": 8613,
      "157b": 8614,
      "1566": 8615,
      "15fb": 8616,
      "15f0": 8617,
      "3c91": 8618,
      "8b8d": 8619,
      "4580": 8620,
      "4590": 8621,
      "45c3": 8622,
      "45c2": 8623,
      "4553": 8624,
      "4585": 8625,
      "b8ca": 8626,
      "8d34": 8627,
      "2dbb": 8628,
      "2d63": 8629,
      "cb68": 8630,
      "cbe1": 8631,
      "cb3a": 8632,
      "cb2f": 8633,
      "cbe9": 8634,
      "cb18": 8635,
      "cb14": 8636,
      "cb73": 8637,
      "cb96": 8638,
      "9c72": 8639,
      "6908": 8640,
      "6928": 8641,
      "1a02": 8642,
      "1a09": 8643,
      "1a10": 8644,
      "1a1e": 8645,
      "3a96": 8646,
      "4c0a": 8647,
      "4cce": 8648,
      "4cd1": 8649,
      "4c50": 8650,
      "5c2b": 8651,
      "5722": 8652,
      "571f": 8653,
      "57ac": 8654,
      "57ae": 8655,
      "57a5": 8656,
      "c638": 8657,
      "55e7": 8658,
      "3580": 8659,
      "353e": 8660,
      "4945": 8661,
      "5e37": 8662,
      "5e6c": 8663,
      "46ea": 8664,
      "8c1c": 8665,
      "1c73": 8666,
      "5833": 8667,
      "2c12": 8668,
      "5a48": 8669,
      "5aa0": 8670,
      "68fd": 8671,
      "ace2": 8672,
      "a501": 8673,
      "c832": 8674,
      "ba80": 8675,
      "e58d": 8676,
      "e5bf": 8677,
      "7f8d": 8678,
      "5b9b": 8679,
      "2bd5": 8680,
      "2b9b": 8681,
      "e88d": 8682,
      "e8e2": 8683,
      "9b80": 8684,
      "4232": 8685,
      "42af": 8686,
      "1f89": 8687,
      "5175": 8688,
      "14d5": 8689,
      "14e5": 8690,
      "14dc": 8691,
      "14db": 8692,
      "14d3": 8693,
      "3789": 8694,
      "21e8": 8695,
      "e4e2": 8696,
      "4ef5": 8697,
      "3d80": 8698,
      "4d30": 8699,
      "4d70": 8700,
      "3201": 8701,
      "54dc": 8702,
      "8f96": 8703,
      "7435": 8704,
      "6115": 8705,
      "1660": 8706,
      "5de9": 8707,
      "b4d5": 8708,
      "cbb2": 8709,
      "cbb3": 8710,
      "b141": 8711,
      "6415": 8712,
      "8772": 8713,
      "2e01": 8714,
      "2ed4": 8715,
      "8945": 8716,
      "1e80": 8717,
      "1e8d": 8718,
      "9f89": 8719,
      "7ec8": 8720,
      "50e7": 8721,
      "bdc4": 8722,
      "d680": 8723,
      "a701": 8724,
      "27d4": 8725,
      "ef8d": 8726,
      "e928": 8727,
      "707f": 8728,
      "ee8d": 8729,
      "43dc": 8730,
      "2301": 8731,
      "7301": 8732,
      "cb55": 8733,
      "cbcc": 8734,
      "cbc2": 8735,
      "f380": 8736,
      "c417": 8737,
      "4ef9": 8738,
      "14f3": 8739,
      "e453": 8740,
      "136e": 8741,
      "539c": 8742,
      "5397": 8743,
      "1399": 8744,
      "e485": 8745,
      "406e": 8746,
      "4765": 8747,
      "4a4c": 8748,
      "63c9": 8749,
      "63c7": 8750,
      "249c": 8751,
      "e4a6": 8752,
      "462c": 8753,
      "43ae": 8754,
      "44b9": 8755,
      "3a4c": 8756,
      "615c": 8757,
      "52ab": 8758,
      "bb86": 8759,
      "5009": 8760,
      "c4b9": 8761,
      "2ece": 8762,
      "4806": 8763,
      "c392": 8764,
      "6894": 8765,
      "589c": 8766,
      "dcae": 8767,
      "3dc3": 8768,
      "22c7": 8769,
      "a91c": 8770,
      "b446": 8771,
      "9bb6": 8772,
      "148d": 8773,
      "164e": 8774,
      "208d": 8775,
      "2c43": 8776,
      "21ae": 8777,
      "2667": 8778,
      "2921": 8779,
      "438d": 8780,
      "640c": 8781,
      "67f4": 8782,
      "700c": 8783,
      "83ba": 8784,
      "80b3": 8785,
      "9b8d": 8786,
      "903a": 8787,
      "b729": 8788,
      "b184": 8789,
      "b364": 8790,
      "c38d": 8791,
      "dc81": 8792,
      "dd7d": 8793,
      "e1aa": 8794,
      "f28d": 8795,
      "f38d": 8796,
      "f7aa": 8797,
      "01f8": 8798,
      "0188": 8799,
      "3bb4": 8800,
      "3b7f": 8801,
      "6abc": 8802,
      "6ac2": 8803,
      "4879": 8804,
      "4886": 8805,
      "2f89": 8806,
      "d580": 8807,
      "3ed1": 8808,
      "3e50": 8809,
      "38e9": 8810,
      "38c9": 8811,
      "388f": 8812,
      "daa3": 8813,
      "4b37": 8814,
      "4b21": 8815,
      "03ff": 8816,
      "0d73": 8817,
      "19ea": 8818,
      "39ce": 8819,
      "3963": 8820,
      "3984": 8821,
      "15e8": 8822,
      "15ed": 8823,
      "15e3": 8824,
      "156d": 8825,
      "3cef": 8826,
      "3c96": 8827,
      "8b80": 8828,
      "8b0a": 8829,
      "2859": 8830,
      "45c4": 8831,
      "4552": 8832,
      "4588": 8833,
      "4586": 8834,
      "458e": 8835,
      "1848": 8836,
      "2d25": 8837,
      "2d71": 8838,
      "5f91": 8839,
      "5f79": 8840,
      "5f93": 8841,
      "4fca": 8842,
      "4f8f": 8843,
      "cba4": 8844,
      "cb28": 8845,
      "cbbc": 8846,
      "cb7e": 8847,
      "cba9": 8848,
      "5683": 8849,
      "1a08": 8850,
      "1a9c": 8851,
      "3a90": 8852,
      "3ab6": 8853,
      "3ae3": 8854,
      "ec5a": 8855,
      "4ce2": 8856,
      "4cdc": 8857,
      "4cf5": 8858,
      "4cd8": 8859,
      "5c08": 8860,
      "5cca": 8861,
      "5c04": 8862,
      "4a0b": 8863,
      "4a0a": 8864,
      "4a6c": 8865,
      "5576": 8866,
      "55e5": 8867,
      "55ae": 8868,
      "55ad": 8869,
      "4667": 8870,
      "8c01": 8871,
      "8c3c": 8872,
      "cc01": 8873,
      "cc62": 8874,
      "6c28": 8875,
      "583c": 8876,
      "588d": 8877,
      "5871": 8878,
      "5870": 8879,
      "58ae": 8880,
      "58ad": 8881,
      "65b4": 8882,
      "65c7": 8883,
      "5a8d": 8884,
      "aad0": 8885,
      "68c8": 8886,
      "68e8": 8887,
      "6878": 8888,
      "68fb": 8889,
      "25fe": 8890,
      "8adc": 8891,
      "2a3e": 8892,
      "2ac4": 8893,
      "2ac7": 8894,
      "bf89": 8895,
      "bb48": 8896,
      "bb71": 8897,
      "bb26": 8898,
      "7f37": 8899,
      "6b3d": 8900,
      "6b04": 8901,
      "6b12": 8902,
      "52f5": 8903,
      "8e80": 8904,
      "42c4": 8905,
      "4236": 8906,
      "427a": 8907,
      "4230": 8908,
      "c43f": 8909,
      "c448": 8910,
      "22bb": 8911,
      "22ba": 8912,
      "14e6": 8913,
      "2101": 8914,
      "e42d": 8915,
      "e47c": 8916,
      "4e34": 8917,
      "4e06": 8918,
      "361b": 8919,
      "36e1": 8920,
      "36de": 8921,
      "3d75": 8922,
      "4d62": 8923,
      "4de8": 8924,
      "4de9": 8925,
      "e2ea": 8926,
      "2401": 8927,
      "54da": 8928,
      "54e3": 8929,
      "1d2c": 8930,
      "4434": 8931,
      "442d": 8932,
      "4431": 8933,
      "164f": 8934,
      "cf01": 8935,
      "df8d": 8936,
      "b18d": 8937,
      "3048": 8938,
      "8789": 8939,
      "2e65": 8940,
      "a1ea": 8941,
      "d18d": 8942,
      "978d": 8943,
      "e04b": 8944,
      "9e0c": 8945,
      "7e06": 8946,
      "56c8": 8947,
      "629c": 8948,
      "c97a": 8949,
      "c96b": 8950,
      "de32": 8951,
      "bde6": 8952,
      "a434": 8953,
      "e7c8": 8954,
      "2948": 8955,
      "d98d": 8956,
      "9201": 8957,
      "d23c": 8958,
      "fe01": 8959,
      "e9fa": 8960,
      "e98d": 8961,
      "ce0c": 8962,
      "6301": 8963,
      "a210": 8964,
      "b2c4": 8965,
      "f77a": 8966,
      "07c4": 8967,
      "e64c": 8968,
      "d0e2": 8969,
      "707d": 8970,
      "20ad": 8971,
      "2306": 8972,
      "230b": 8973,
      "a36a": 8974,
      "a3c4": 8975,
      "20b2": 8976,
      "4650": 8977,
      "2659": 8978,
      "5769": 8979,
      "4efe": 8980,
      "4ef7": 8981,
      "495b": 8982,
      "495f": 8983,
      "4955": 8984,
      "14f1": 8985,
      "e42c": 8986,
      "4424": 8987,
      "e45f": 8988,
      "4e7d": 8989,
      "269b": 8990,
      "428b": 8991,
      "691f": 8992,
      "432a": 8993,
      "32a5": 8994,
      "4766": 8995,
      "476c": 8996,
      "c44d": 8997,
      "5df8": 8998,
      "4e5c": 8999,
      "4e5a": 9000,
      "4946": 9001,
      "494e": 9002,
      "6487": 9003,
      "e419": 9004,
      "e41e": 9005,
      "4913": 9006,
      "2d50": 9007,
      "c471": 9008,
      "52ad": 9009,
      "3902": 9010,
      "c406": 9011,
      "c40a": 9012,
      "c407": 9013,
      "4df6": 9014,
      "4df8": 9015,
      "3dad": 9016,
      "380a": 9017,
      "1fa2": 9018,
      "3df4": 9019,
      "6024": 9020,
      "a485": 9021,
      "23a5": 9022,
      "56c6": 9023,
      "431f": 9024,
      "3db0": 9025,
      "7df4": 9026,
      "4dcf": 9027,
      "22c1": 9028,
      "ae8b": 9029,
      "894d": 9030,
      "d44e": 9031,
      "fead": 9032,
      "f287": 9033,
      "11f4": 9034,
      "108d": 9035,
      "17c3": 9036,
      "1eee": 9037,
      "2604": 9038,
      "206c": 9039,
      "222c": 9040,
      "2e66": 9041,
      "21ad": 9042,
      "360c": 9043,
      "3402": 9044,
      "480c": 9045,
      "4e50": 9046,
      "4ebf": 9047,
      "440b": 9048,
      "422f": 9049,
      "5001": 9050,
      "540c": 9051,
      "66a2": 9052,
      "738d": 9053,
      "848d": 9054,
      "a404": 9055,
      "a60a": 9056,
      "c404": 9057,
      "cc8d": 9058,
      "d80c": 9059,
      "e40c": 9060,
      "00fa": 9061,
      "0176": 9062,
      "018a": 9063,
      "3b01": 9064,
      "3bca": 9065,
      "3baa": 9066,
      "3f01": 9067,
      "3f42": 9068,
      "3f0c": 9069,
      "34b4": 9070,
      "34e6": 9071,
      "34e3": 9072,
      "34fd": 9073,
      "6aba": 9074,
      "0a78": 9075,
      "487d": 9076,
      "2f80": 9077,
      "2f06": 9078,
      "2f0a": 9079,
      "d58d": 9080,
      "9e73": 9081,
      "3ed5": 9082,
      "3eca": 9083,
      "3e2c": 9084,
      "3e26": 9085,
      "3894": 9086,
      "38b5": 9087,
      "382c": 9088,
      "38de": 9089,
      "38d3": 9090,
      "386e": 9091,
      "3873": 9092,
      "eaf4": 9093,
      "da48": 9094,
      "dad3": 9095,
      "da8a": 9096,
      "28c3": 9097,
      "19e7": 9098,
      "198d": 9099,
      "19e5": 9100,
      "19fe": 9101,
      "3991": 9102,
      "399a": 9103,
      "3988": 9104,
      "3986": 9105,
      "15e7": 9106,
      "1538": 9107,
      "1569": 9108,
      "15e2": 9109,
      "1541": 9110,
      "154f": 9111,
      "1571": 9112,
      "15e9": 9113,
      "157d": 9114,
      "152e": 9115,
      "1546": 9116,
      "15bd": 9117,
      "3c15": 9118,
      "3c35": 9119,
      "3cf9": 9120,
      "285d": 9121,
      "4544": 9122,
      "4599": 9123,
      "944d": 9124,
      "183f": 9125,
      "18e4": 9126,
      "18b0": 9127,
      "2d38": 9128,
      "2d4b": 9129,
      "2d1f": 9130,
      "2d26": 9131,
      "5f02": 9132,
      "4f1c": 9133,
      "4f50": 9134,
      "cb94": 9135,
      "cbdc": 9136,
      "cb0d": 9137,
      "0220": 9138,
      "9c32": 9139,
      "6906": 9140,
      "6920": 9141,
      "0534": 9142,
      "1a71": 9143,
      "1a0f": 9144,
      "1a70": 9145,
      "fa8d": 9146,
      "3a45": 9147,
      "3a66": 9148,
      "3a10": 9149,
      "3a50": 9150,
      "ecfa": 9151,
      "4c4b": 9152,
      "4ce4": 9153,
      "4c0c": 9154,
      "4cd3": 9155,
      "5cf9": 9156,
      "5750": 9157,
      "5785": 9158,
      "55af": 9159,
      "477c": 9160,
      "4771": 9161,
      "3541": 9162,
      "49b3": 9163,
      "49a0": 9164,
      "5ed8": 9165,
      "4660": 9166,
      "a835": 9167,
      "6c0c": 9168,
      "58fd": 9169,
      "2cd9": 9170,
      "2c10": 9171,
      "6568": 9172,
      "651c": 9173,
      "5a0a": 9174,
      "5a0f": 9175,
      "aac0": 9176,
      "68e6": 9177,
      "68f7": 9178,
      "6884": 9179,
      "250c": 9180,
      "0bdc": 9181,
      "8a8d": 9182,
      "2a07": 9183,
      "2ac9": 9184,
      "bbe9": 9185,
      "bb1d": 9186,
      "88b5": 9187,
      "a5d0": 9188,
      "d8da": 9189,
      "9a5a": 9190,
      "c58d": 9191,
      "e501": 9192,
      "5b0d": 9193,
      "5bf4": 9194,
      "6b05": 9195,
      "2bd7": 9196,
      "5238": 9197,
      "f88d": 9198,
      "1f02": 9199,
      "119a": 9200,
      "c46a": 9201,
      "c432": 9202,
      "14e2": 9203,
      "14de": 9204,
      "14ee": 9205,
      "1467": 9206,
      "416f": 9207,
      "21e9": 9208,
      "e408": 9209,
      "e43f": 9210,
      "e4c8": 9211,
      "e4fa": 9212,
      "e4d1": 9213,
      "e4d4": 9214,
      "36eb": 9215,
      "3d01": 9216,
      "3d08": 9217,
      "3d48": 9218,
      "4d6a": 9219,
      "4dd1": 9220,
      "3274": 9221,
      "c1dd": 9222,
      "4442": 9223,
      "4433": 9224,
      "c280": 9225,
      "16ce": 9226,
      "1661": 9227,
      "7da4": 9228,
      "5d44": 9229,
      "0415": 9230,
      "cf80": 9231,
      "4072": 9232,
      "6434": 9233,
      "64d1": 9234,
      "2ed5": 9235,
      "d14f": 9236,
      "9734": 9237,
      "c7e7": 9238,
      "c78d": 9239,
      "6260": 9240,
      "296c": 9241,
      "296f": 9242,
      "3380": 9243,
      "ae90": 9244,
      "b77c": 9245,
      "6680": 9246,
      "a601": 9247,
      "f938": 9248,
      "e6ce": 9249,
      "0391": 9250,
      "1034": 9251,
      "2380": 9252,
      "cb5a": 9253,
      "cbcd": 9254,
      "cbc5": 9255,
      "cb88": 9256,
      "265a": 9257,
      "2658": 9258,
      "c411": 9259,
      "495a": 9260,
      "4951": 9261,
      "cb61": 9262,
      "cb6d": 9263,
      "14f0": 9264,
      "14f2": 9265,
      "e422": 9266,
      "4285": 9267,
      "1396": 9268,
      "6914": 9269,
      "c458": 9270,
      "406f": 9271,
      "5383": 9272,
      "c44c": 9273,
      "c44a": 9274,
      "c443": 9275,
      "42c1": 9276,
      "494d": 9277,
      "68d6": 9278,
      "43a8": 9279,
      "1424": 9280,
      "44ba": 9281,
      "4d6d": 9282,
      "7458": 9283,
      "4915": 9284,
      "3a46": 9285,
      "e4be": 9286,
      "528e": 9287,
      "e447": 9288,
      "378a": 9289,
      "548c": 9290,
      "5446": 9291,
      "3daf": 9292,
      "5493": 9293,
      "44c2": 9294,
      "c05a": 9295,
      "4e2c": 9296,
      "2ecd": 9297,
      "8450": 9298,
      "bbaa": 9299,
      "1dc2": 9300,
      "5037": 9301,
      "5478": 9302,
      "8066": 9303,
      "8492": 9304,
      "2e9a": 9305,
      "2e77": 9306,
      "844f": 9307,
      "be92": 9308,
      "82ac": 9309,
      "d892": 9310,
      "40b7": 9311,
      "7e9c": 9312,
      "81fb": 9313,
      "a455": 9314,
      "ed88": 9315,
      "0377": 9316,
      "befe": 9317,
      "e2f6": 9318,
      "f392": 9319,
      "9da1": 9320,
      "962c": 9321,
      "2c8d": 9322,
      "238d": 9323,
      "2307": 9324,
      "3224": 9325,
      "442f": 9326,
      "611a": 9327,
      "828d": 9328,
      "9e12": 9329,
      "a314": 9330,
      "be88": 9331,
      "be14": 9332,
      "c40e": 9333,
      "c792": 9334,
      "d673": 9335,
      "e414": 9336,
      "e40b": 9337,
      "e7a2": 9338,
      "f48d": 9339,
      "00ca": 9340,
      "00b4": 9341,
      "0099": 9342,
      "00fd": 9343,
      "00f9": 9344,
      "3b25": 9345,
      "3bc8": 9346,
      "3bbe": 9347,
      "3b29": 9348,
      "1b27": 9349,
      "3468": 9350,
      "34e8": 9351,
      "3472": 9352,
      "34f4": 9353,
      "3454": 9354,
      "34cf": 9355,
      "6a74": 9356,
      "6ab4": 9357,
      "6a96": 9358,
      "0abc": 9359,
      "4837": 9360,
      "488f": 9361,
      "7b8d": 9362,
      "3ec8": 9363,
      "3e93": 9364,
      "3ecf": 9365,
      "3893": 9366,
      "38a7": 9367,
      "ead6": 9368,
      "ead2": 9369,
      "0c65": 9370,
      "daba": 9371,
      "daeb": 9372,
      "da9f": 9373,
      "da9d": 9374,
      "dac1": 9375,
      "0d45": 9376,
      "0d0c": 9377,
      "19e9": 9378,
      "19ed": 9379,
      "19f8": 9380,
      "39d3": 9381,
      "396e": 9382,
      "3999": 9383,
      "3982": 9384,
      "153c": 9385,
      "1535": 9386,
      "1536": 9387,
      "1537": 9388,
      "1572": 9389,
      "15a0": 9390,
      "285f": 9391,
      "4539": 9392,
      "45d8": 9393,
      "4593": 9394,
      "450e": 9395,
      "458b": 9396,
      "94e4": 9397,
      "2dd4": 9398,
      "2d23": 9399,
      "5f6a": 9400,
      "5f3c": 9401,
      "5f8c": 9402,
      "5f04": 9403,
      "4f22": 9404,
      "4f43": 9405,
      "4f82": 9406,
      "cb48": 9407,
      "cbe2": 9408,
      "cb3d": 9409,
      "cbe8": 9410,
      "cbae": 9411,
      "b680": 9412,
      "9c68": 9413,
      "6932": 9414,
      "6965": 9415,
      "1a07": 9416,
      "1abf": 9417,
      "3a28": 9418,
      "3a76": 9419,
      "3a70": 9420,
      "3a14": 9421,
      "3aa0": 9422,
      "ec26": 9423,
      "4ce1": 9424,
      "4cde": 9425,
      "4ccb": 9426,
      "4ce3": 9427,
      "5cfa": 9428,
      "5c09": 9429,
      "4ab0": 9430,
      "4ab9": 9431,
      "5786": 9432,
      "55e6": 9433,
      "5573": 9434,
      "4737": 9435,
      "4770": 9436,
      "47f4": 9437,
      "353a": 9438,
      "35fd": 9439,
      "493e": 9440,
      "49d6": 9441,
      "5ee1": 9442,
      "4642": 9443,
      "4662": 9444,
      "46e8": 9445,
      "7c01": 9446,
      "9501": 9447,
      "6c34": 9448,
      "5842": 9449,
      "6510": 9450,
      "5a04": 9451,
      "5a9e": 9452,
      "dcf2": 9453,
      "aa94": 9454,
      "aa13": 9455,
      "ca54": 9456,
      "68ea": 9457,
      "687e": 9458,
      "68f3": 9459,
      "acda": 9460,
      "2534": 9461,
      "258a": 9462,
      "2a8d": 9463,
      "2a0c": 9464,
      "2aca": 9465,
      "bb2d": 9466,
      "bbe8": 9467,
      "883c": 9468,
      "8812": 9469,
      "d88d": 9470,
      "e584": 9471,
      "98ba": 9472,
      "6b9d": 9473,
      "204c": 9474,
      "2073": 9475,
      "42a4": 9476,
      "424c": 9477,
      "4233": 9478,
      "4272": 9479,
      "5192": 9480,
      "2261": 9481,
      "14da": 9482,
      "14fa": 9483,
      "146c": 9484,
      "e4dc": 9485,
      "e4e0": 9486,
      "4eec": 9487,
      "4e8d": 9488,
      "4e0c": 9489,
      "4e05": 9490,
      "4ee8": 9491,
      "3608": 9492,
      "3df5": 9493,
      "4dfa": 9494,
      "4dd2": 9495,
      "3225": 9496,
      "32b8": 9497,
      "3298": 9498,
      "8632": 9499,
      "86d7": 9500,
      "54e7": 9501,
      "54e5": 9502,
      "82ba": 9503,
      "edc4": 9504,
      "74af": 9505,
      "##f07": 9506,
      "af80": 9507,
      "4439": 9508,
      "4460": 9509,
      "443c": 9510,
      "443a": 9511,
      "61d3": 9512,
      "1680": 9513,
      "5dda": 9514,
      "5dd0": 9515,
      "5deb": 9516,
      "1789": 9517,
      "40b8": 9518,
      "407a": 9519,
      "cbba": 9520,
      "cbb7": 9521,
      "2648": 9522,
      "2661": 9523,
      "2ee6": 9524,
      "977a": 9525,
      "9e04": 9526,
      "ff89": 9527,
      "ffd4": 9528,
      "6f01": 9529,
      "50e9": 9530,
      "298d": 9531,
      "d601": 9532,
      "d7ea": 9533,
      "9280": 9534,
      "2734": 9535,
      "d2e2": 9536,
      "fe42": 9537,
      "ce08": 9538,
      "cd80": 9539,
      "dd80": 9540,
      "5368": 9541,
      "f734": 9542,
      "0980": 9543,
      "0701": 9544,
      "9901": 9545,
      "7090": 9546,
      "6e80": 9547,
      "6e01": 9548,
      "6e8d": 9549,
      "a0ea": 9550,
      "231c": 9551,
      "b3da": 9552,
      "cbca": 9553,
      "1658": 9554,
      "4959": 9555,
      "cb60": 9556,
      "14f9": 9557,
      "14f7": 9558,
      "4428": 9559,
      "e451": 9560,
      "1367": 9561,
      "4286": 9562,
      "e380": 9563,
      "4088": 9564,
      "e488": 9565,
      "c456": 9566,
      "3d58": 9567,
      "5384": 9568,
      "5388": 9569,
      "4764": 9570,
      "36f0": 9571,
      "36f8": 9572,
      "4947": 9573,
      "68d4": 9574,
      "68d3": 9575,
      "462f": 9576,
      "63f7": 9577,
      "142e": 9578,
      "44bc": 9579,
      "44be": 9580,
      "4d6e": 9581,
      "e412": 9582,
      "7450": 9583,
      "68c9": 9584,
      "68c7": 9585,
      "e4b0": 9586,
      "5e20": 9587,
      "2d52": 9588,
      "e44f": 9589,
      "31a6": 9590,
      "4df0": 9591,
      "3dac": 9592,
      "3382": 9593,
      "3387": 9594,
      "5496": 9595,
      "54f8": 9596,
      "66f0": 9597,
      "315e": 9598,
      "7e70": 9599,
      "54b0": 9600,
      "4d5c": 9601,
      "84fd": 9602,
      "503a": 9603,
      "206e": 9604,
      "6893": 9605,
      "43db": 9606,
      "5b58": 9607,
      "5626": 9608,
      "0e53": 9609,
      "b495": 9610,
      "8bb4": 9611,
      "868c": 9612,
      "4e8f": 9613,
      "30ca": 9614,
      "ed8e": 9615,
      "ed9a": 9616,
      "f65b": 9617,
      "f41e": 9618,
      "21b4": 9619,
      "4d2b": 9620,
      "6ea1": 9621,
      "59b1": 9622,
      "6d8f": 9623,
      "dd92": 9624,
      "138d": 9625,
      "1d24": 9626,
      "364e": 9627,
      "3222": 9628,
      "364d": 9629,
      "4092": 9630,
      "44c3": 9631,
      "4c4c": 9632,
      "4ebe": 9633,
      "6456": 9634,
      "646d": 9635,
      "7344": 9636,
      "a22a": 9637,
      "b224": 9638,
      "e46d": 9639,
      "e12b": 9640,
      "e409": 9641,
      "f914": 9642,
      "0069": 9643,
      "00d4": 9644,
      "00df": 9645,
      "00b3": 9646,
      "017a": 9647,
      "3b48": 9648,
      "3b28": 9649,
      "3fd9": 9650,
      "3fa4": 9651,
      "3f0b": 9652,
      "3434": 9653,
      "341c": 9654,
      "34d7": 9655,
      "6a90": 9656,
      "6abb": 9657,
      "6aca": 9658,
      "6adc": 9659,
      "6ad7": 9660,
      "6ae3": 9661,
      "0ade": 9662,
      "0a10": 9663,
      "487b": 9664,
      "48a6": 9665,
      "2f4e": 9666,
      "2fae": 9667,
      "7bf2": 9668,
      "3ed6": 9669,
      "3ed3": 9670,
      "3e29": 9671,
      "3e5c": 9672,
      "3814": 9673,
      "ea8d": 9674,
      "0c7c": 9675,
      "dad2": 9676,
      "daed": 9677,
      "dae3": 9678,
      "dac3": 9679,
      "dabe": 9680,
      "4b5c": 9681,
      "396c": 9682,
      "3978": 9683,
      "3972": 9684,
      "39ee": 9685,
      "398e": 9686,
      "157a": 9687,
      "159d": 9688,
      "1526": 9689,
      "154e": 9690,
      "3c33": 9691,
      "450c": 9692,
      "45ce": 9693,
      "45d1": 9694,
      "4598": 9695,
      "4551": 9696,
      "941c": 9697,
      "188d": 9698,
      "18fb": 9699,
      "8d6a": 9700,
      "8d1a": 9701,
      "2d21": 9702,
      "5f06": 9703,
      "5f38": 9704,
      "5fda": 9705,
      "5fc8": 9706,
      "5fd1": 9707,
      "5f05": 9708,
      "5f8e": 9709,
      "4f15": 9710,
      "4f42": 9711,
      "4f39": 9712,
      "4f74": 9713,
      "4fcb": 9714,
      "4f93": 9715,
      "cb39": 9716,
      "cb32": 9717,
      "cbf5": 9718,
      "cb71": 9719,
      "cbef": 9720,
      "cb1a": 9721,
      "cb46": 9722,
      "cb4e": 9723,
      "b66e": 9724,
      "85d2": 9725,
      "8550": 9726,
      "9ce8": 9727,
      "6968": 9728,
      "6921": 9729,
      "1a8d": 9730,
      "1a73": 9731,
      "1a13": 9732,
      "1a29": 9733,
      "1a21": 9734,
      "1ab3": 9735,
      "3a62": 9736,
      "3a36": 9737,
      "3ab4": 9738,
      "3a2f": 9739,
      "3a9a": 9740,
      "3a51": 9741,
      "3a5d": 9742,
      "4ca4": 9743,
      "4c0b": 9744,
      "4cd4": 9745,
      "4ce0": 9746,
      "4c70": 9747,
      "4c16": 9748,
      "5c0a": 9749,
      "4ab8": 9750,
      "4a9f": 9751,
      "4a21": 9752,
      "4aae": 9753,
      "4aa7": 9754,
      "4a59": 9755,
      "5772": 9756,
      "57f4": 9757,
      "5755": 9758,
      "c6d4": 9759,
      "552c": 9760,
      "550d": 9761,
      "55ab": 9762,
      "477a": 9763,
      "49d5": 9764,
      "49a4": 9765,
      "4990": 9766,
      "498e": 9767,
      "4634": 9768,
      "4628": 9769,
      "46e4": 9770,
      "a88d": 9771,
      "1c1f": 9772,
      "95cd": 9773,
      "6c52": 9774,
      "5834": 9775,
      "5864": 9776,
      "2c01": 9777,
      "f580": 9778,
      "6501": 9779,
      "6595": 9780,
      "5a06": 9781,
      "6879": 9782,
      "687d": 9783,
      "68f9": 9784,
      "688e": 9785,
      "6887": 9786,
      "25cd": 9787,
      "258b": 9788,
      "258f": 9789,
      "2a01": 9790,
      "2a05": 9791,
      "2a8b": 9792,
      "bfb0": 9793,
      "bb94": 9794,
      "bb92": 9795,
      "883a": 9796,
      "88b2": 9797,
      "d8c8": 9798,
      "d83a": 9799,
      "bad5": 9800,
      "c593": 9801,
      "e576": 9802,
      "988d": 9803,
      "981a": 9804,
      "5be2": 9805,
      "2bd9": 9806,
      "523f": 9807,
      "5268": 9808,
      "526c": 9809,
      "f867": 9810,
      "426a": 9811,
      "4297": 9812,
      "c4e2": 9813,
      "22c8": 9814,
      "2265": 9815,
      "1465": 9816,
      "14e8": 9817,
      "14ed": 9818,
      "14e3": 9819,
      "370c": 9820,
      "21e6": 9821,
      "e494": 9822,
      "e462": 9823,
      "e43c": 9824,
      "e43a": 9825,
      "e464": 9826,
      "e4de": 9827,
      "e46e": 9828,
      "4ed5": 9829,
      "4ef2": 9830,
      "364c": 9831,
      "364f": 9832,
      "36ef": 9833,
      "3d7b": 9834,
      "4d2d": 9835,
      "4de7": 9836,
      "4dea": 9837,
      "4de2": 9838,
      "4df2": 9839,
      "4de0": 9840,
      "326e": 9841,
      "8162": 9842,
      "54db": 9843,
      "718d": 9844,
      "1d8d": 9845,
      "82ea": 9846,
      "ed80": 9847,
      "74a4": 9848,
      "7432": 9849,
      "af30": 9850,
      "4436": 9851,
      "4437": 9852,
      "616e": 9853,
      "1645": 9854,
      "5dd8": 9855,
      "17c4": 9856,
      "407e": 9857,
      "b1e2": 9858,
      "64c4": 9859,
      "2665": 9860,
      "1eb6": 9861,
      "fd80": 9862,
      "9701": 9863,
      "621b": 9864,
      "6f8d": 9865,
      "2971": 9866,
      "296e": 9867,
      "a270": 9868,
      "ad01": 9869,
      "ad8d": 9870,
      "6dec": 9871,
      "e680": 9872,
      "e601": 9873,
      "948f": 9874,
      "145a": 9875,
      "7048": 9876,
      "707e": 9877,
      "8337": 9878,
      "104c": 9879,
      "cb6f": 9880,
      "14fb": 9881,
      "14fe": 9882,
      "e45c": 9883,
      "4e7f": 9884,
      "4e7e": 9885,
      "3915": 9886,
      "408c": 9887,
      "425c": 9888,
      "425d": 9889,
      "691e": 9890,
      "6917": 9891,
      "e487": 9892,
      "5358": 9893,
      "c454": 9894,
      "4321": 9895,
      "4323": 9896,
      "5fac": 9897,
      "5fa0": 9898,
      "32a6": 9899,
      "4768": 9900,
      "36f6": 9901,
      "c447": 9902,
      "63c6": 9903,
      "63ca": 9904,
      "63c2": 9905,
      "4fac": 9906,
      "361a": 9907,
      "bbc9": 9908,
      "4ec3": 9909,
      "68df": 9910,
      "68dd": 9911,
      "e4f1": 9912,
      "e4f8": 9913,
      "5d56": 9914,
      "43ab": 9915,
      "63f5": 9916,
      "1427": 9917,
      "1425": 9918,
      "e4cd": 9919,
      "e41f": 9920,
      "e411": 9921,
      "68cd": 9922,
      "e49c": 9923,
      "c475": 9924,
      "6158": 9925,
      "c40b": 9926,
      "c405": 9927,
      "31a7": 9928,
      "6944": 9929,
      "33b3": 9930,
      "315f": 9931,
      "315c": 9932,
      "3e74": 9933,
      "7e7e": 9934,
      "500a": 9935,
      "500d": 9936,
      "5007": 9937,
      "647e": 9938,
      "c4ba": 9939,
      "26a1": 9940,
      "64b8": 9941,
      "bca0": 9942,
      "acad": 9943,
      "31bf": 9944,
      "5a44": 9945,
      "5036": 9946,
      "13d2": 9947,
      "14cf": 9948,
      "4d9c": 9949,
      "5063": 9950,
      "5b59": 9951,
      "b4f2": 9952,
      "c3ad": 9953,
      "12ff": 9954,
      "d2a3": 9955,
      "789c": 9956,
      "8d5c": 9957,
      "1014": 9958,
      "1371": 9959,
      "628f": 9960,
      "e0a9": 9961,
      "b1cb": 9962,
      "b372": 9963,
      "bd82": 9964,
      "976c": 9965,
      "090c": 9966,
      "0383": 9967,
      "17a0": 9968,
      "222a": 9969,
      "2229": 9970,
      "2784": 9971,
      "2727": 9972,
      "2666": 9973,
      "305c": 9974,
      "4c88": 9975,
      "42c2": 9976,
      "422e": 9977,
      "5224": 9978,
      "5008": 9979,
      "5402": 9980,
      "641a": 9981,
      "6b8d": 9982,
      "6220": 9983,
      "8747": 9984,
      "ab52": 9985,
      "a80c": 9986,
      "a184": 9987,
      "a750": 9988,
      "a64d": 9989,
      "a7a0": 9990,
      "c1c0": 9991,
      "c402": 9992,
      "c24e": 9993,
      "d1c6": 9994,
      "e28d": 9995,
      "e40e": 9996,
      "e40a": 9997,
      "e40d": 9998,
      "f40c": 9999,
      "fe11": 10000,
      "3b5f": 10001,
      "3fa7": 10002,
      "3410": 10003,
      "34ff": 10004,
      "34b0": 10005,
      "08c4": 10006,
      "6ac4": 10007,
      "6a95": 10008,
      "6ad0": 10009,
      "6ac3": 10010,
      "6ab9": 10011,
      "0ae0": 10012,
      "0af6": 10013,
      "0af1": 10014,
      "0aa8": 10015,
      "488c": 10016,
      "487f": 10017,
      "4878": 10018,
      "487e": 10019,
      "48cd": 10020,
      "48a0": 10021,
      "4856": 10022,
      "d57b": 10023,
      "3ece": 10024,
      "3868": 10025,
      "386c": 10026,
      "389d": 10027,
      "38fd": 10028,
      "38f7": 10029,
      "38bd": 10030,
      "38ad": 10031,
      "da91": 10032,
      "da9c": 10033,
      "da96": 10034,
      "2874": 10035,
      "2863": 10036,
      "282b": 10037,
      "4b0a": 10038,
      "4b4a": 10039,
      "39ea": 10040,
      "39c4": 10041,
      "3930": 10042,
      "3998": 10043,
      "39ed": 10044,
      "39c2": 10045,
      "395c": 10046,
      "7601": 10047,
      "f0b8": 10048,
      "15db": 10049,
      "15de": 10050,
      "1524": 10051,
      "156e": 10052,
      "1543": 10053,
      "1529": 10054,
      "15f9": 10055,
      "3c34": 10056,
      "3c1a": 10057,
      "453a": 10058,
      "459a": 10059,
      "45cf": 10060,
      "2d1c": 10061,
      "5f3f": 10062,
      "5fc4": 10063,
      "5f20": 10064,
      "5f87": 10065,
      "4f45": 10066,
      "4f25": 10067,
      "4f41": 10068,
      "4f0f": 10069,
      "4ff0": 10070,
      "4fb7": 10071,
      "cb91": 10072,
      "cb45": 10073,
      "cbda": 10074,
      "cb79": 10075,
      "cb7b": 10076,
      "cbff": 10077,
      "cb1d": 10078,
      "6935": 10079,
      "696c": 10080,
      "695a": 10081,
      "6957": 10082,
      "05d3": 10083,
      "1a2d": 10084,
      "1a06": 10085,
      "1ae2": 10086,
      "1a18": 10087,
[...]
