[PAD]
[SEP]
[CLS]
[UNK]
[MASK]
0
1
2
3
4
5
6
7
8
9
a
b
c
d
e
f
##4
##c
##8
##b
##6
##d
##a
##2
##e
##3
##0
##7
##1
##5
##9
##f
##00
00
01
##80
##01
##08
000
##3b
##1b
3b
1b
##3f
##91
##500
91
##34
3f
##48
##15
##6a
0000
##40
34
##2d
##42
##45
##d9
08
##d5
6a
0a
48
0800
##e7
##a4
##06
2f
##3e
d5
7b
##000
##90
##38
0045
##42f
9e7
2d9
4000
341b
3b15
2fd5
a42f
481b
9e7b
1b2d
d56a
2d9e
1ba4
7b3f
080
06
080a
##ea
0101
0001
##28
801
0108
3e
38
ea
1500
##da
0c
4500
da
##4b
3b91
9191
0c38
011
28
0080
91ea
##03
003e
4b
3f08
6a34
3e06
0a01
##00c
ea3b
890
0119
03f
800c
38da
da28
890d
014b
0d
19
##39
##76
39
76
8018
180
##89
3980
7639
0d76
1801
f0
03f0
f048
8010
f1
100
03f1
f148
##200
##a00
15
##68
001
1001
##bc
##32
3c
##94
284
4b8
3f48
6a08
003f
3f06
##e4
##bb
8b
285
##25
45
##b5
283
##e3b
##b8
908
8a00
0015
1594
908a
##c8
191
4b90
0034
192
##b6
##02
##c4
##fa
3200
##1c
##03c
94
067
18
0010
##ec
195
103c
8b32
b8
##60
4b8b
##e1
##03b
##69
8d
2d
##62
##3c
5f
068
##af
4f
cb
b6
85
##3a
##44
02
0e3b
0016
##8d
9c
0bc
##289
##e2
##0c
568
69
bb5
##41
825
168
3e00
000e
3bb8
0bcb
b8ea
8256
568e
0ab6
4508
1682
ea3e
##0b
05
##7c
##22
##49
##d6
##4c
##35
1a
##0a
fa
0d9
##4f
3a
##4a
##489
##8c
##65
##74
##ca
##e5
##dc
ec
4c
##36
5c
4a
##f5
##37
##2c
57
##95
##e89
8e4
0118
##2a
##33b
##b4
880
803b
##3d
0a03
c6
##47
55
##340
4bb
##300
47
03e
##04
##c88
##ce
35
1834
102
##31
##1c6
4ba
##d1
##2f
##089
880c
38e1
bc88
eabc
49
e1c6
03ed
5e
46
##d8
##05
a8
##240
8c
##080
##43b
##64
##f2
##63
##23b
##09
##73b
##7a
##440
065
7c
1c
##d0
##6c
##040
##e40
##61
cc
##71
95
##303
##f3b
##740
6c
58
##e8
##ba
##13b
##403
##30
##ef
2c
##7f
f5
##140
bc
65
##db
##d4
##e0
5a
##11
06a
##93b
da00
000a
dc
##eb
aa
##e6
##689
##d3b
##78
##d2
4b85
##d40
##6b
ca
06f
##33
68
##f40
ac
25
##df
0ae4
0b
##203
##72
##940
85da
##75
##79
8a
##e9
0060
##0f
1020
100b
2a
##640
fa80
9cfa
b5
0d9c
##70
7a
fc
91da
##7b
bf
##63b
bb
005
##003
##9c
##66
##103
180b
90
196a
##98
284f
bb5e
##903
##703
88
##de
a5
00a
##6f
d8
9a
c8
##9e
##1a
##12
##d7
##e03
ba
c5
bb5f
##9a
##d03
e5
7f
2839
##24
##1f
98
78
##9b
5b
##18
75
##d89
040
283a
##803
##2b
##603
6b
##cb
150b
##7d
##14
##9f
##ed
2b
da3b
20
##20
##9d
4880
52
##ee
##480
f8
##cc
e8
ab
8e
##d3
##7e
##6e
9b
42
##93
##92
9048
0d90
1f
06c
b9
db
eb
51
284e
1922
c62
##2e
##dd
##67
##f8
2852
ba00
0005
1924
##fc
##f6
##27
06b
##5a
11
ed6
195e
c4
fb
6a00
##97
##10
22
2853
ed5
##3ba
14
##f03
348
1963
be
##46
37
##1e
283b
41
21
c628
##002
28ce
e4
4e
##73
0038
2840
36
3d
0a00
002d
4bb3
4d
##ff
cec
b3ba
38c4
##96
32
2af
##e3
b6a
##4bb
608
e2
##c0
4ba8
2832
6980
2d74
a86a
24
01bb
31
6969
0d69
##414
86
191a
c1
008
##16
1919
1800
##13
2846
81
2857
54
##fb
71
##4d
e200
##26
1d
##0e
283d
82
##17
##aa
##389
2858
284a
1969
ed
##b0
##43
8f
74
##99
##fe
0002
60
##4e
##f0
0044
af
44
##19
195f
2842
##6d
1915
4414
bf0a
0f
f8c
4bbf
5a00
0204
61
f2
c2
##c3
16
7d
5d
2836
04
##f1
##be
2af8
##c5
##8a
##29
##fd
c62a
##c2
282d
0d5
##b2
##77
cf
0405
17
40
001a
##404
1926
05b4
2837
##1d
##cd
b4
##57
8da
4b95
##c6
f6
df
1aec
cbb
95e2
b1
64
a9
##21
30
058c
26
87
##23
##0d
##52
##90c
2e
##ac
##50
##f7
##07
89
1e
##b3
a1
##b9
##c9
##f4
fd
d1
##c1
1000
##b1
c0
0040
3af
84
0402
##bd
##c7
12
97
1968
004f
e0
9f
003c
9e
##54
c7
##cf
##bf
7e
56
0bb
62
c9
##84
6200
ff
6f
4f64
1a00
0208
de
0200
50
bd
a4
b404
ca5a
4bca
79
e7
29
##b7
##af0
1021
02fa
d9
d6
a7
d7
##f3
33
92
195c
##f9
77
##53
27
2855
b200
##5c
aa00
01f5
ef
cec0
d2
##88
faf0
fe
##224
501
942
283f
1949
ae
e9
2847
00a0
##4b2
80
d4
ce
2854
2d80
5f2d
cd
63
##86
##a8
284c
b7
##8b
2835
0d5f
e1
284b
59
0022
##a0
##56
945
193c
1913
fa00
2850
0d40
2848
f480
1960
2843
72
##d1a
2844
283e
1914
a2
dd
##58
67
a002
b90c
cbbe
66
##092
2849
283c
0bb9
2845
9d
b2
##83
##55
1200
ad
1947
284d
191e
beec
2833
2851
f8c2
53
38cb
4b9d
ec9e
##a2
1961
2830
f7
2841
2831
1965
9d1a
00aa
0e
2224
401
09
##51
94b
0684
07
1937
##5b
e2c4
5200
6d
##5e
13
a6
##ae
##82
f9
0686
e6
948
##8e
0685
193b
0683
##ab
##81
3af4
99
0d3a
f200
f4
d0
##a5
2856
282f
0682
##a6
a200
0681
c200
##ad
0640
2834
145
067e
1923
70
##85
##5d
9a00
1945
4200
##8f
0680
067f
0055
4a00
4bb9
##a7
0677
4bd0
4bc4
3e6c
##e12
f280
b962
1501
5e7
0049
067d
cc80
2df2
2838
##59
0b8
##a3
0d2d
b0
##7cc
##a9
0689
##2c2
cec1
067c
##5f
191b
c4b2
##604
3a00
##87
0678
49bc
##05c
0676
067a
232
005a
1916
6e
ee
##4c3
4bd5
##b52
5c80
067b
7a00
0679
5ab4
a080
d5aa
##a1
03
9200
0027
4be0
1951
1d80
c3
282e
1927
401d
1954
96
0033
4b02
43
24a
05dc
4bae
192d
4ba2
83
195a
550c
d002
bb5d
4bdb
35cc
a0
0d35
191f
63b
331c
193e
ae12
2d24
##09a
20a
3440
10
0687
1957
a2c2
c62d
5e5
6ba
1938
27cc
145c
0066
245
5e4
0303
2200
7180
010f
8e49
93
343b
24c3
0d14
##c4a
0603
af3b
8e4a
ca00
0028
e0fa
1920
6604
007a
23
8e4d
063e
8e4c
8e44
8e46
007f
8e45
##48d
6080
57c4
##c8d
8e4b
1962
940
063b
##28d
22a
b3
ed5d
2f57
##001
192f
c62f
000b
196b
8e47
##6a2
1ef
7200
063f
d3
1503
4803
006b
7f06
73
011a
4703
4b86
##38d
0688
ea00
##801
##113
ed6c
##154
ed64
cb5
0671
##08d
ed63
ed5e
3489
8e48
0082
cbc
0670
1918
4603
193d
1925
0674
cf3b
a3
20b
192c
8a80
c42
f3
4b3b
4be6
4ba0
cb8
244
db52
605c
465
0025
0672
0673
1936
601
7b8a
0d7b
867a
192b
0b84
6289
f53b
4289
fe3b
1289
0675
d83b
ed68
01f6
91d8
0a89
9a89
005b
da89
8a89
d289
6a89
0570
0805
7289
3a89
0103
4c03
aa89
2289
265
371
3289
0289
5289
bc3b
5a89
4903
0020
4503
4b9b
0d8d
2a89
1703
##79a
0050
4b03
8289
91af
##40c
7a89
6089
9289
c41
c08
ea89
fa89
06fd
20c
192e
ed5c
b289
f289
194d
c289
1942
ca89
8011
ba89
4a89
8da0
576
##68d
##348
165
4403
5010
a089
4d03
259c
4ef
8e43
495
a289
a092
8e4f
9489
463b
e489
2044
9b3a
##e71
193a
2300
ed65
c93b
ba3b
1955
4a03
cb6
192a
eb00
3c89
1a89
0650
f93b
1003
405
1940
e6a2
14f
c43b
e289
4b8c
7489
8e3b
22f
c0a
007c
4bec
0011
0a3b
1933
6bac
103b
5689
733b
##40e
f8c3
e300
1e89
023b
##123
5489
d489
9c89
9f3b
e42
3c00
5e40
4b40
442
4b91
cb3b
d13b
e45
7c3b
7c89
583b
0c89
4bf7
5c89
4e89
713b
d53b
4e7
a489
b300
b93b
c03b
06e4
b689
##41a
8e4e
6c89
136
002a
0601
4689
##7f4
269
4e03
8689
4003
0071
6489
e73b
3b00
##344
0600
062f
4303
008d
4489
2e89
391
5e3b
3c3b
##60c
00f6
2c89
5018
0035
91ca
dc89
5c8
9300
9689
2d3b
1103
428
539
5f40
c689
243b
7089
e689
3b98
ec89
0657
1689
##80c
1502
633b
7154
d300
ec4a
194e
a53b
0489
139
8300
0076
1939
533b
a840
f889
5240
5640
c489
e3
4bf1
4f03
5503
1c89
cc89
f83b
16d4
3300
3689
4889
0629
011e
1921
5303
8d9
3f3b
4c89
2689
003b
573b
aa3b
8a3b
0300
8e89
833b
f689
69da
783b
443b
4103
8489
061b
4ba5
2440
408
##008
0632
4540
6689
ae3b
ae89
ce89
943b
b53b
0e89
363b
4203
5403
06e5
06e3
001c
425
691
de89
e48
0030
9440
3a3b
302
313b
7040
fe89
4b97
453b
4f40
bc89
4089
535
5440
153b
8c22
6340
c440
ee89
9140
0269
6889
ac89
2640
603b
6440
703b
7ca4
1403
208
5e89
5340
9f40
f489
1540
2d40
653b
e889
1489
5003
7f40
d73b
0089
3e3b
4940
a889
1100
ad03
d089
913b
062a
fa3b
ec3b
4c3b
1303
273b
c45
ff3b
3889
2889
195b
aa40
406
a13b
d689
b63b
1f5
1203
9e89
b140
c140
e089
f63b
0625
##1c0
9c40
112c
2340
3d03
5e1
011b
053b
fc89
2b6
3140
6140
7e89
3f40
1966
f1f2
3a40
353b
c840
3d5
8f40
bd3b
f79a
7b00
1932
393b
a83b
8c89
06f1
6840
303b
563b
8040
8740
b33b
c300
3f03
0840
06f2
062e
1948
068c
3540
7540
2089
433b
4240
7240
8640
e403
f740
4840
0540
4640
3089
4e3b
a940
c089
d03b
0048
062b
194f
76fc
5889
c83b
6b40
ed5f
143b
1040
973b
a340
bf40
f440
0641
293b
066f
8b00
5840
043b
173b
3640
503b
543b
793b
873b
3c40
068b
693b
0440
403b
843b
9740
be89
##012
8b40
##e50
2a3b
7a40
1240
328
432
6e40
6703
b489
7640
4740
06f0
0b40
e83b
db3b
6d3b
9d40
a689
483b
191d
1840
6940
ec40
6c3b
bb3b
0e40
2489
623b
8e40
8940
a33b
bbb
ee3b
e640
f089
3240
4140
813b
9940
c13b
0634
06dd
3e03
4bfd
0d3b
f140
8c3b
f503
223b
333b
4080
5fa
a03b
d140
df40
f640
0638
0628
c63b
bb40
c53b
fb3b
033b
1e3b
1e40
1603
32a
3340
a040
bf3b
e43b
083b
4f3b
cb40
1c7c
2603
373b
538
b940
f340
f403
3840
##b8d
b889
473b
4bab
953b
b401
476
b73b
d940
7b40
f13b
##c49
1c3b
2a40
7889
fb40
36f
423b
5203
7d40
863b
ef3b
0003
3400
3448
0630
0c3b
0c03
5f03
fa40
5a3b
##0fc
883b
a540
2940
2003
6e89
af40
a640
c240
c73b
dd3b
e040
e63b
f23b
fe40
013b
1b40
062c
f040
4bb0
ab40
0940
4440
5089
723b
8340
8089
8603
c203
0889
06de
0117
f103
3c03
493b
5a40
fc40
1640
63a
8240
8f3b
893b
9e40
c303
e03b
3b3b
183b
5540
bc40
dc40
8889
f606
0f40
532
537
5140
6240
c44
e940
f240
f43b
4bb5
193f
1a3b
cc3b
06ff
b540
ba40
0f3b
0e03
263b
5d40
708
9340
9040
b040
e13b
062d
0d03
1964
8d40
0240
2c03
fc3b
9b40
db40
1089
1440
4340
4040
4d3b
5040
643b
a740
b340
ee40
2f40
0631
194b
f03b
b840
1a40
4a3b
cc40
ac40
9772
209a
311
635
673b
743b
823b
a140
a93b
be40
e440
3b40
06e6
3e89
763b
1889
b640
1a03
6c40
d840
2b3b
490
413b
663b
a23b
b003
d43b
d740
0661
ea40
0c40
5c40
2323
093b
2140
4e40
7300
af03
f940
3442
4b00
7689
cb00
0659
7c40
ac03
6b3b
eb40
073b
2040
3740
4a4
6e3b
ae40
b080
f73b
ff40
343d
3443
d540
06e9
011d
##e2b
4c40
4a40
8840
113b
6f3b
ad3b
e23b
063a
383b
0280
2c3b
983b
163b
3d6
63c
7340
7080
9640
a440
b440
ce3b
df3b
0093
063d
9089
ca40
e503
9840
9889
4fa
6040
6f40
6640
6e03
8440
a43b
b740
0636
06e8
da40
c640
9540
7a3b
d889
c889
2b40
0340
1340
2e3b
2e40
323b
7e3b
9240
b089
b43b
c403
f33b
6a40
194a
068a
dc3b
203b
233b
8140
b13b
cd40
cf40
d23b
e93b
3445
0a42
06d8
0d6e
2c40
2a03
5b3b
1740
6603
7e40
963b
d203
0602
0626
c540
249
2203
513b
7940
9e3b
cd3b
c940
e340
0627
##7c3
1c40
e540
2b00
133b
361
5d3b
b03b
e740
003a
0642
0633
065a
6540
0bf5
7840
4d40
ad40
c080
e240
f003
3446
8540
5c3b
f540
2540
0b03
1140
3d3b
613b
6e71
993b
c340
c740
de3b
d640
d63b
ef40
fd3b
##004
2f3b
06ef
1967
8d3b
06f3
253b
0b3b
e53b
753b
6b03
0740
1d40
1f40
5df
bd40
d340
d93b
e33b
e47
13e
1d3b
42c
593b
7440
933b
a300
a73b
bbc
b240
0140
343e
06ea
06fa
06e0
5b40
06be
0087
2740
4e5
d440
06e2
8b3b
f840
e840
1f3b
923b
d040
06df
5771
0656
5080
b23b
d240
de40
ed3b
343c
3441
06da
0637
1931
2af4
1702
213b
7140
ae03
d33b
3444
06ed
3880
011c
##3cf
5740
##11a
5603
6d40
7d3b
9903
ed40
343a
06e7
063c
4bbb
ab3b
678
e140
6a3b
7b3b
0624
5e03
0652
2503
eb3b
2703
4ec
523b
dd40
3449
3447
0a40
553b
06fb
ac3b
2240
494
5940
68d
be3b
e4f
e4a
0098
343f
##06c
890c
f080
b83b
0bfe
a5ea
3040
ef03
fd40
0635
06f5
0666
9c3b
db00
545
7f3b
c33b
4b08
0d17
8a40
5280
4e4
773b
7740
ce40
0662
06db
3e40
##c8c
5f3b
0651
00ae
462
c040
d503
4bc0
06fe
7003
a240
c23b
f603
0639
06d6
0663
066c
191c
0658
2903
5d5
903b
3480
0660
8c40
06f8
06c2
06bd
1380
1080
123b
43a
63f
9080
4b0e
3d40
6003
d080
06ee
683b
9a40
fd42
2092
5ec
5103
648
a63b
f203
2803
1b3b
06c4
d880
ab03
06c1
824c
1b03
06eb
3940
06f4
6740
0197
3a03
1f03
304c
2103
3080
7403
7103
06ec
4b13
9503
06a5
ca3b
0f03
f303
06d9
1952
853b
06c3
142
22b
44b
6300
d200
060b
0649
06a0
8880
9b3b
2303
8200
1b00
347e
195d
0655
06b0
334
e4c
0665
06d7
6103
009e
0667
135
9d3b
007b
6a03
06dc
1911
06f6
4d6
e080
06a8
06f9
9a3b
ab42
d103
e41
060c
066e
2d03
##36c
6880
b97d
6d03
745
b103
060a
0605
0611
06a6
06af
b534
3afc
6f03
8080
c103
3b03
0d71
06ac
0703
491
5ea
68c
7113
9b5
0608
0606
06d4
011f
##093
625
06c8
066d
3a4
368
87f4
e4b
ee03
06d5
0647
6503
8a03
525
e49
1958
02eb
065d
2b03
2122
6403
e703
##402
347d
061f
35a4
##793
79b
0037
d589
0664
0692
275
32c
8703
a103
0653
06a9
9a52
0d57
5e2
00cb
0694
06d2
068d
06a3
f703
0616
0d9a
5703
065c
aa03
0903
528
e603
06b4
b5f2
2d5
331
##064
06bb
0610
1950
06c5
1e03
c47
0668
06ba
0607
1c80
1101
dd89
##456
0880
0604
06a1
7503
2080
d003
002f
068f
534
06e1
069f
0017
065f
06ae
24b
6803
064a
069e
060d
0d89
1946
0803
4bc5
0589
5a03
##ebf
06bf
637
a012
06a2
2a00
84a
d0a
06ca
9480
6c03
e880
2403
5803
9803
a203
b09a
0648
064f
069d
064d
3d89
b203
06d3
3589
dc80
06f7
06b9
615
6903
74a
cf03
060f
bb4a
9a03
52a
0070
2880
194c
2d89
8589
1300
842
06a4
06aa
06a7
7589
210b
6303
066b
1917
7880
522
d303
e44
066a
06b5
0669
0697
0643
1912
8d89
065b
06ab
06fc
2589
a589
06cd
390
378
4d89
548
cd89
0004
06ad
0053
544
6d89
749
c4f
04b
c40
d603
0609
##0b2
31a
9d89
f803
b880
9c03
5589
9603
347f
0691
0690
760c
a880
06c9
fb03
9403
9b03
06c6
9344
d403
e903
0620
0116
##60a
9880
20d7
37c
06d1
069c
4589
45ac
ec03
8c03
6589
06cf
06b1
20aa
20a1
c0a2
7203
9703
e303
00b5
347c
0615
06bc
0621
8903
1934
1880
0654
065e
b589
06b3
4054
14b
42a
4df
694
064c
5c03
8d9c
3da
6203
0036
06b6
06d0
1928
068e
e589
33b
338
41f
8ca
fd89
0893
0693
##3a0
9589
a503
1d03
445
8303
ad89
bb8
1589
1c03
98ec
06b7
1ea
56a
549
a403
a003
0613
064e
c880
542
54f
06cb
0b76
c503
f880
44c
d480
ed89
f903
20ed
0f8
344a
6b00
20c8
20de
eb03
435
645
66f
7303
fa03
20e6
13e3
5d03
690
6ca
e803
00fe
0801
061c
3890
315
0612
0619
1c00
dc03
3d9
3e7
7e7
a703
c05
e103
1956
0201
5880
##2b9
06c7
1d89
279
380
500
647
74f
7d89
c4c
06b2
4e2
64c
64f
8203
a603
c4b
0622
ea03
2ec
5d89
3b31
0623
38e5
0113
982c
0400
20cf
26a
54b
742
7d5
004b
061d
##c4c
##c46
##612
0b00
2104
8103
a903
0617
8b03
1fa
365
9f03
eb6
00a4
1953
##221
20b1
3df
480
bd89
00d5
00c6
3114
141a
376
c3b
c4a
0645
4bd6
4b04
4b30
3c80
8d03
##747
3d8
845
069b
0110
7603
06c0
0308
4d5
84f
9e03
ed03
ff03
06cc
0646
4b41
4c80
5b03
dd03
069a
0699
4b89
04f
20fc
44f
4300
64b
64a
78c
8002
840e
f589
fc03
4123
642
9d03
a803
b08
c003
4b19
##746
14a
9e5
0abe
1903
441
50a
815
f300
0134
0a28
06ce
060e
4b1f
40c
53f
bca
0698
ab34
049
5903
835
db5
061a
4bcb
1929
493d
20b9
79b3
2113
94bb
061e
1803
0503
2cba
c589
fb00
1238
2008
502
7ca
00c0
cb03
02f9
cc03
20f5
c085
03cf
2da
3903
74c
c2d
4b79
bb00
febc
415
eda
0618
##c47
c62c
348d
f8c1
a43c
149
375
61c0
747
8403
aca
bba
0614
4b35
##12e
2b61
0e2b
128
24f
31b
611
0115
##40b
##6b9
20c0
0403
211a
b303
0ab5
064b
db03
6353
5a4
74b
81b
cb52
3cbb
1a84
434
44a
5ca
0644
0112
9e94
9380
1dc
447
503
3493
##e21
5b00
449
5300
c48
c37
00d9
4b8a
8503
0203
##2f0
0f90
7dbc
9b57
276
834
9303
9e9
b01
c3f
1f33
206
602
7f5
4beb
8c80
13d
53e
7da
848
84b
c49
00ba
00b0
06b8
9b00
c780
0793
8f03
a08
c25
00bb
0d07
14c
2e03
54c
547
505
84c
a303
c01
c39
fff
##c43
55b4
##724
008e
045
0ba
806
8c8
849
b403
fd8
0bc9
c5fa
8e50
fd03
0043
##40a
8dbe
32d
689
649
4a60
8803
badc
04a
1480
33c
4d9
402
##40d
35d3
362
32f
43f
43c
43d
58d
744
198b
7400
c234
215
506
589
c703
bf03
3486
3601
de34
308
4ca
741
82d
eca
0104
##382
0695
1935
b6d7
##743
##729
be34
608d
c134
54a
58c
de03
b6b7
##184
162
33f
40a
53a
52f
7d03
83b
c803
e203
539b
10c
3003
515
ce03
##38b
8dde
##e20
5b5
562
##ea2
da03
##c44
##314
##64e
ed5b
##46d
17c
332
444
847
a42
000f
0114
##e88
43e
a48
bb6
0100
##09c
dd34
46a
8f5
b903
e003
3439
4b2a
4b6b
7703
cebf
8ddd
8dc2
##22a
##74d
##0f3
5b0c
0088
505c
66a
748
7e03
a4f
dca
d703
d534
4bf0
##c4e
8dc1
2e9
32b
536
6093
3491
4800
8dbd
b6ba
3487
bd34
2e7
23a
5480
644
8ce
f4bb
00af
0008
##407
##c4d
##120
3484
33a
335
51b
844
b45
be9
c1b
8dd5
ca34
2a83
c0bb
0e5
2e5
448
42d
4af
0120
4b24
##c8e
8db0
##74e
7c80
3482
6090
d602
042
325
36c
b6c0
aa34
##750
7f03
d934
3803
43b
468
56c
7d9
841
cd03
00f0
00c3
0105
2f01
0d4a
f0ac
6d5
641
4b46
3900
##e18
8dc7
b6bb
b6c8
##220
b934
3485
b6ac
6091
af8c
0494
8dac
0da
147
52d
5d9
83f
82a
cca
fe03
##00d
1008
8dcf
cb80
ec80
d834
##1a0
b334
0500
53b
b49
0075
##914
##c81
8dd8
8db3
b6d2
##222
5cbb
b503
##70e
00a9
c434
41b
431
508
706c
b4b
b4f
c3a
3492
0a88
8dca
b6ce
b6b2
##098
68bb
348e
608a
c734
d334
24c
3ea
339
3db
8bb
865
3494
b834
8db9
##333
##1ac
e560
b6a4
b034
239
3dc
77a
7df
862
c15
0696
0d1c
cb34
b603
b6cc
b6c3
##3de
##307
0be7
00a1
##12b
301
7fa
d89
##40f
ac34
b6ae
b6a9
cf34
8daf
242
418
83e
8e03
9203
be03
c35
d48
8dd9
8dd3
b6d5
cc34
ccbb
b6a8
b6a3
6084
6082
608e
4dc
6004
868
a4b
b3b
c2f
##406
##032
8db8
8dc6
b6c4
b6b1
##eb0
348b
608f
af34
970c
d034
208b
d0aa
0fa
141
802
9e4
3490
0ac8
da80
1944
1930
##c4f
##e14
##04d
348c
348f
8daa
fe0c
eb62
36a
7af
7e5
795
b42
e2d
e480
4bf6
8dd0
b6b5
b6be
b6c9
##22c
ca03
##24e
3488
a100
c034
22c
360
305
59f
4bfb
##ec2
8dcc
b6b6
b6d1
##64d
bc80
##e66
24db
a9e4
2b8
236
40b
c0c
eb5
fca
##006
##384
8db5
8dc0
b6b8
b6b9
##313
##72b
##720
b434
6ba3
1e4
12f
541
7e9
828
80a
c32
d2a
##405
2f48
##030
##c41
##e10
8dcb
##e2a
c634
##09d
2c80
608c
6086
008b
1600
42c7
4ea
4e8
5d8
81f
b2d
c903
f01
f06
3b7b
##409
38bb
##7a0
6c80
0b80
bb03
0058
207c
6088
d634
80bb
04bb
2ef
30c
632
a4c
d06
##c8a
##096
##d24
bf34
##dee
0084
202
262
24bb
3d1
3103
634
7ea
a91
a45
b4a
ed8
##364
##36f
##eee
50bb
1e5
3d7
71b
7480
86a
ed9
b6d6
00a8
ab00
2600
30a
4da
6064
776
839
876
935
afa
00c5
bc03
##11f
dc34
##0f4
3481
8100
a934
ce34
302b
144
29a
580
53c
5389
cd5
c02
df03
f42
f65
0c80
##033
4b83
##c8f
8dcd
8c00
##633
f50c
348a
ed69
8780
b234
db5a
3203
7a4
74bb
86f
90a
92a
9003
b91
8dc4
##dbe
ac80
fc80
db34
c400
70bb
437
44bb
5da
561
62f
832
b4c
c06
c3e
0196
##c85
8dbf
##643
##7f8
##ed3
3700
608b
607c
d734
a0bb
c084
025
225
5d6
51f
83a
818
965
a75
0065
##035
4b16
##c84
##e11
##e0e
##0fb
bb34
90bb
##246
75c4
20bb
cd34
3500
5bb
50c
7ce
92d
b703
c1f
2f03
7b03
##036
19a8
8dbb
8dce
9c80
1400
b6a2
607f
607e
c334
14bb
3403
3703
6fa
725
b25
c34
f1b
f000
0074
9103
da34
4b06
1941
##c82
8db1
ecbb
c603
7c00
7c03
fc00
##de3
7f00
40bb
30bb
9426
044
31f
5bc
565
789
7ec
7dc
775
8d5
aaf
a480
d42
d803
e08
f41
00b8
##031
4bc2
##c87
8dbc
b6d0
b6d4
b6c1
##b46
##318
58bb
1f00
e400
3600
5400
d0bb
2083
2ea
4d1
7803
83c
871
9e8
b3c
cda
c2a
dea
0130
8dba
8dd7
##0b4
6087
b134
8700
e700
9427
10bb
148
201
205
469
56f
791
7d8
928
96b9
c3d
d3e
##03a
0d42
1900
f0ba
3cce
8dc8
8dc5
4f00
b6bf
##046
##310
##d0e
bc34
##0fe
7a03
ba34
6b14
b6a5
6400
e0bb
5011
e900
b0bb
21b
379
5dc
869
80c
ae7
b803
00b2
9400
94cd
8dd2
8db2
b6b4
6900
##22e
##04e
8cbb
##30e
00a5
c834
##1ae
3483
b6ab
fdbc
ad34
2ca
6092
808
82f
805
b35
d49
f4f
##00f
0073
##388
4b93
8dda
b6b0
b6c5
b6bd
4c00
##ebd
ba03
5b89
8dad
ae34
d434
b734
0b83
ee00
ffff
1d5
295
33e
7d1
705
bd03
ce7
c3c
d45
f49
##00e
00c4
0a1e
0c00
8dd4
8dc3
##7c2
4cbb
8dab
2e00
fd00
337
4d2
6ea
60c
6389
abc
bea
c000
d91
d4bb
f08
fd5
ff5
4b33
f0bb
8db6
8dd6
8db4
8ddb
8dc9
b634
b6d3
b6b3
9cbb
7cbb
##0f0
##7be
bb93
c534
b6ad
b6aa
b6a7
60bb
607d
d134
c934
d234
037
2000
228
6500
72d
7ef
7903
861
ae8
bda
b44
b05
d47
d903
1808
3c4b
18bb
##e1a
8ddc
8dd1
b6c2
b6cd
b6c7
cc00
bcbb
88bb
b6a6
6081
8dae
11b
22d
4389
701
889
8fa
837
a25
a4a
b78
b9f
e68
f68
0009
##386
##38a
94ce
##e17
8db7
b6ca
b6c6
b6cf
##2c0
##7fc
##243
37a
6e5
6480
64bb
739
78d
8bc
81c
8003
8480
925
d4f
df5
e4bb
0090
08bb
28bb
0019
3c48
3cc0
3cbf
b800
5f00
b6bc
b6cb
##6b0
##ded
d8bb
f8bb
be00
8da9
048
04c
369
54bb
61b
63e
891
84bb
9000
af8
b1b
c28
c8d
4b1b
cb89
cbd4
a8bb
##2e3
4100
b6af
6083
0085
1d6
248
439
51c
53d
6ce
93f
b9a
d4a
d8c
f4b
fb5
9100
4b0b
3c4f
##31a
##e67
78bb
dd00
1389
3000
31c
901
939
a35
b48
d000
ef5
0078
48bb
3ccc
94cc
b8bb
65bc
dcbb
##eb2
##eb1
##124
e8bb
##10e
8600
b400
1e00
411
59b
6da
675
73e
894
906
a28
bd5
b41
c4bb
d389
384c
4b10
3ccd
4b88
##60d
9c00
##36d
00a3
##1ad
##20d
6094
03b
041
1ca
16c
3603
780
7e4
895
a2d
a62
af5
b4bb
d65
d98
f47
34bb
2800
947d
ec00
##097
1cbb
##1aa
5100
8074
ce00
e600
101
106
100c
2ce
42f
88c
8c8c
905
aa4
be7
bdf
d500
d28
dce
e0b2
f48
f4a
004c
0067
##e22
c600
3503
5e00
6c00
acbb
##0f6
c8bb
##129
##2b1
8e00
##273
2400
7100
d700
fe00
047
280
241
41c
47c
4480
6d8
735
90c
d44
009b
b600
##0ba
##229
6cbb
##7f0
98bb
6085
7e00
78cb
1e7
137
2bb
57c
628
671
8000
89a
9d5
9389
a4bb
f500
f4c
##00a
##383
0cbb
4b4c
4b8e
##7aa
##30d
##784
0bd1
##24d
6b89
3701
4400
f900
02d
0b5
1af
23f
5500
7d6
70a
a15
ada
a49
a9a
a389
c480
d76
e0a
fea
f28
1b89
0ae7
4bc3
3c01
3cbc
##c8b
0bc0
##36e
##2cc
##099
##09f
ed6b
2132
3180
a900
d900
a600
0f8b
035
134
132
73a
72a
88d
99f
bce
c91
c95
f45
0047
2f00
##38c
38e7
0d78
3cc2
##e1e
8d00
##0b3
##2c3
##e6d
##726
##20e
b900
c700
de80
9900
3313
0480
13a
3389
4e9
6dc
702
93c
96f
a3b
ad5
a000
aea
a39
a65
bef
c11
e6a
e2f
019f
0a41
7b1c
##38e
##381
4b20
0d00
3c2e
##e24
##22b
##22f
4c73
##727
##126
##2be
fb6a
3d00
##ff7
c100
9e00
0700
028
2bc
511
7221
8e7
a1b
ae5
b18
dd9
d39
dbb
d05
e60a
fe7
fda
00dc
00d1
0a94
7b89
3c4c
##c83
##60e
##31e
##ebe
fcbb
9b89
4e00
d17c
e100
13b
189
79c
875
93e
a44
a8c
b2a
b480
de5
d95
e65
f612
3f00
4b3e
4bb8
0d28
94c3
##223
##3d0
##312
4600
##646
5800
2cbb
##eb9
##7b0
##26d
ed00
8400
bd00
ae00
0389
271
7389
8e5
9bb
bdc
d75
e3f
ee7
00eb
28da
3cc1
4b8d
1c34
##d4e
##72e
8ae2
##0f8
##0ff
##667
##1a1
9800
2b89
cf00
df34
7900
b700
0f5
13f
2b5
569
5d1
5ba
7500
734
79a
8ef
cf5
dfa
e34
ebb
e69
3886
0cfd
4bd8
3cbe
##946
##e16
858a
568b
##3dd
4700
##30f
bc36
##792
##7b2
##1a8
f800
ab89
eb89
0fec
ef00
d400
0e00
fd87
1ec
247
4d8
605
7000
79f
8389
a05
b389
c6a
cd9
c89
c1c
cdc
d3f
e389
0aed
3800
3c4d
02f8
ac00
##723
d800
b100
d100
de00
945b
ad00
0900
2e4
5000
639
91b
b76
c389
e62
f6a
f6f
##009
0068
3b89
##385
3c0c
3c26
3c4e
4b8f
8b24
##0b0
5700
##d07
##7f6
##db0
dc00
0b89
##1a2
##2b2
##2b3
##2b0
##14e
##ddd
2100
8180
8f00
5600
cd00
9452
9d00
9d80
f400
111
235
2123
6e21
73f
8500
86c
811
902
a3e
adc
a95
c18
d3b
d71
f25
f2f
008c
007e
006d
4bce
944b
bf00
bb89
e800
##921
db89
9f00
a700
7700
a084
12a
11f
3303
3d2
318
59a
518
715
706
77c
7f2
a34
b15
ce5
d6a
d4b
f39
f389
##00b
0cf3
0014
3cbd
##3d2
##317
##798
fcd0
005d
7800
##7dd
##7d3
2172
6100
7d00
f600
161
16f
2480
2389
3348
6df
9da
937
b000
bf5
c9f
d1b
e01
eea
e8c
0031
08ec
7600
0013
3c87
2d00
##0bd
##226
##36b
4bbe
##31d
##09e
##79c
##0fd
##70d
##7bf
##d7d
##146
429c
0083
9700
a400
e708
9453
6700
9600
26c
680
62a
76a
732
71f
8ea
94b2
a3f
a41
b1c
b0c
cce
1b7b
3495
38d1
3c79
3c7d
9490
cb01
02ff
##0b9
##366
##363
##043
##d4d
0f00
0408
5900
945a
0ef
595
676
790
771
9fa
a80
abb
aef
bec
b0a
b37
cd8
d3a
d8d
d4c
d35
e3e
f3e
f2a
##005
4bb6
4b2b
f100
3c45
3c2b
3c58
3cae
cb44
3502
##316
##319
951e
##e8a
8800
##673
fb89
94be
1d9
125
23b
306
6bc
89c
932
a1c
baf
b95
b47
b456
f2d
f69
3b7d
1959
8ddf
ecf3
4900
##e86
2c00
##eb3
##121
0bbd
ff00
ae01
0b6
075
2500
21f
669
6f8
73b
991
9a4
9af
93a
995
a78
bfa
bd1
bd8
cea
e3b
e02
e6f
0095
086e
3c8d
3c4a
3caa
3ccf
##e13
46cb
##db3
##e6e
##982
c841
##d7e
1d00
1e0c
c900
2900
9484
9486
f31c
6d9
6bb
665
70c
8f8
93b
976
b3e
be5
e500
e000
eb8
0007
4bbc
4bc8
3c7a
94c8
94af
94aa
94c2
85cc
##2c7
##7ff
bc00
##db2
##e6b
##0f7
##666
##6e3
c436
8900
d600
9454
071
115
1ce
268
29f
878
9f5
961
a02
ad6
b06
b2f
c71
de7
d32
e89
e3a
fbc
fbb
f62
004d
4bf2
4be8
3c49
3cc9
3c56
##c86
##607
##d46
##984
##fb0
6095
6600
6d00
9481
5d50
108
9ea
a0c
a47
a9c
a6f
b3f
b02
d01
d2d
dda
d41
e1b
e95
f37
0039
4854
##904
38f1
4bc7
3c44
3c27
3c10
4b87
8b89
4502
##e1d
5781
6800
0401
0bb5
d990
9428
948d
9483
2458
076
03c
105
62d
6000
778
8af
9e2
a89
e25
edf
dae2
4b94
4b36
3c86
4b82
9478
94cb
##0b7
8801
##7a8
6520
##9ee
##ee3
##1e3
df00
c094
9425
21c
6f5
89f
c500
caf
d25
d62
ffa
##38f
0cfa
##039
4b98
4bde
0d38
3cc5
3cac
3c53
3cab
##e19
##e1f
##227
##2cb
##2c6
4648
a800
##eb7
##6b1
##796
##79e
##0f1
##0f9
##7e3
##277
3100
9429
d401
94b0
6e00
5b6
6b5
737
8e9
9bc
9f8
a6a
ad9
cf8
d15
dec
e32
e71
f95
##007
00e0
0072
000d
38e2
##037
4bd2
4b9a
3c2c
3c0e
3c84
3c81
94c7
##605
##0b1
##31f
5e38
##d43
dccc
##d20
##1a5
##127
##14d
##92e
4d00
af00
5d00
6f00
80c4
095
0b46
1e9
5af
57c3
61f
8a4
b71
cfa
c65
e75
f15
f44
f35
fce
f61
f75
0041
##03d
4b57
4b52
3cc8
3c55
3ca9
4b84
9401
942d
94ae
fadc
##361
##b4e
##3d4
##3d8
4ba3
95d4
##e8f
##e0d
##6b2
##7b3
##143
##926
e204
1700
94b3
0ba5
034
039
032
0ec
0fb
23e
98d
9d6
aec
a69
b39
bf2
b9c
c68
c36c
ef8
f3f
f76
f89
faf
f8d
f71
3b8b
3c5a
9476
94c4
94d1
94ab
94a9
2d48
##0be
4bb2
##311
a5dc
##2bf
9424
942a
942e
f700
94bc
d073
10cb
16a
175
291
2ba
6e7
72f
92f
b28
b1f
dba
e3c
ee9
e9a
fd9
4b2d
03fe
0d23
3c54
3c88
9474
9473
94ac
##60b
##367
##7a1
0056
9482
b08c
1df
728
71c
a01
a500
ace
e0c
fe5
f90c
9189
4b66
3c0b
3c2f
3c59
9479
9477
4f01
4bb7
##e6f
c800
##edd
4e45
9485
33b5
239d
26f
718
9500
a3c
ad1
b69
f9a
f9f
00e8
2f4b
4be3
3caf
3c47
3c78
3c0f
3c46
##944
947f
##60f
4fde
9c36
##b4d
c631
##630
##d0d
##d2b
##7bd
##988
20d3
1f34
4e48
1734
40e3
a380
56a3
12d
1a4
8ff
934
93a0
a801
b68
ce9
db6
e80
ee5
ed1
38eb
4b9e
001d
3c7e
3cb1
3c85
94c9
5f47
cb41
5e0d
##dbf
##707
005c
9835
1401
2448
897f
94bd
b01b
2a4
5b8
780c
87c
989
9ef
a2f
c8c
d3c
d6c
fba
ff8
##90d
4be2
4b9c
0d4f
1943
3c9f
3cc3
3cad
947e
94c1
##2c1
464c
##7f9
##dbd
##db1
##e07
dc0c
##d26
0057
##66d
907c
88a5
##1a6
##2bd
e401
##96d
ed62
04ec
4048
942c
e484
2b83
11c
178
23c
73c
a76
a68
a32
a8d
a2a
bd9
b89
c90c
dbc
de9
e91
e39
e76
e35
fb6
0063
000c
##90e
##909
3e63
38ed
4bcd
3ce8
3ccb
3cc7
3c83
3c5b
##e2e
##0bf
5c0c
##09b
##7a5
##e8e
##721
##98e
##207
9b2c
3780
b189
2700
1623
03a
09a
169
560c
6d6
9b8
962
adf
ba4
b32
c75
d68
dd1
d61
f91
38e4
da8d
dad4
4b63
4bd3
4bc1
f189
3c25
3ce0
3c1e
##94e
947a
9475
94c0
5fd6
##2c9
4bbd
4989
5e0c
##d0f
##7fe
##6be
##98f
c5ec
##10d
2601
bd0c
a401
a70b
942b
940a
234
6b6
8ec
c00c
e6c
38fe
4bc6
3c2d
3c8c
3c74
3c7f
3cb2
3c5e
b81c
##7a2
##7f3
##db7
##79b
##79f
##986
5b7d
5189
ed6d
b6a1
1d34
9451
94bf
1334
3763
82b9
9d9
9ec
9d1
975
ab8
c76
def
d9a
d9f
ea4
ebc
f3c
fdf
0062
0077
4b50
0018
3c94
3cb0
3c8a
3c29
3c57
4543
943d
8d01
##e26
4ba9
5e45
##7ae
6c01
##7f1
##6bd
##6b7
00ab
##9ed
##1a3
##1a7
364b
3161
e989
94b1
5c81
5e10
1d8
8c8d
ae9
a18
b7c
d08
d37
d6f
e15
4b96
4b26
3908
1004
1007
3c28
3c76
3c7c
3c2a
94ad
cb11
6953
c633
bcb3
##e0f
b5c4
0052
5b7e
##929
945c
9487
176
13c
6b8
a71
b75
c9a
c40c
dd5
0189
##902
##387
0c01
4b92
4bf8
4b27
4b23
3cec
3c0a
3cc6
3c50
##94f
458d
fa01
5c00
##7fb
0b73
2e30
fd7c
633c
73e7
0ea
591
60a
96a
97c
a3a
afc
d34
d18
ee4
edc
e2a
fdc
fd1
003d
0006
##905
4b60
3c8b
3ca2
##94c
##94a
9471
9472
##e2f
##2ce
##3d7
3501
a834
##f2e
##7ac
258d
b5e4
7f31
##9dd
c189
30db
5e7e
09c
3633
59c
9dc
9df
a7c
b80
e37
e61
eef
e9f
e48d
f32
fec
00e5
0ac5
8012
3e11
4b99
001f
3c3c
3c11
3c13
3c52
##e2c
##e23
578d
5e3c
##e84
##7fd
##7b7
bb3c
d8a2
##1a9
##9b0
##2b7
3715
b180
a780
ce01
a201
94ba
cb8d
5450
0e4
1d1
171
261
312e
668
662
661
8fc
a9f
bb8d
c69
cef
d11
d9c
eec
e8d
e9c
fb8
fef
f9c
00d0
4b38
4b56
3c75
3c12
3c1f
3c20
3cf6
3cb3
3c5c
9444
94f2
053c
##2cd
4748
4bac
5e8d
##e85
9a01
4d0b
##999
1732
0da7
262b
091
29c
218
4801
66c
711
708d
9b6
98c
ab6
a37
ad8
aba
b500
c9c
d02
d1c
d0c
dd8
e78
007d
3bd0
0a32
##90a
38b3
4b01
4bee
3cc4
3cde
3c43
3c77
3c51
##943
94d0
5f0d
4f89
##2c5
4744
4bad
464b
4647
4646
##f26
##7a9
##db9
##d2e
##d27
##66e
90ee
00a2
##d73
1f01
1180
1e34
664b
5334
5e7a
830c
1ef7
8065
078
0348
10a
278
340c
969
ab5
a6c
b3a
cd1
db8
d7c
d001
e06
efa
f3b
00d7
0023
00b7
3bcd
0a44
38d5
38ec
388d
38fc
4b4b
4bdd
4bc9
3989
3c73
2d44
5f0f
5f19
4a48
##e87
0b2d
##79d
00ad
c82a
##d77
521b
2989
5e7c
5e75
5e4d
eb54
1da
67c
968
ae4
aff
bd6
cdf
e28
e11
0042
0046
3bd1
3bcc
91e8
0a34
4b9f
3c38
3cd0
3c1d
3c0d
944a
9470
2d47
5f0c
5f11
5f43
5f85
0564
##2cf
4baa
5e48
5e42
5e06
##e8b
##7f7
##6b3
##66f
##9e3
##fb2
0f80
26d0
6789
0e01
5e78
ee80
5e51
5e46
5e4f
9402
bbc5
5420
502f
118
5801
5643
971
a61
c80
de4
ddc
ddf
df8
e05
eba
f6c
3bce
3bcf
##90f
38a5
dae6
286d
4ba4
4b18
4bcc
3cd7
949b
94c5
2d43
5f45
5fd5
5f84
5f86
4f06
b6d8
##3db
4644
##7b1
##98a
5234
##107
8189
f701
0e0c
940c
04bc
61c
618
942f
978
ca4
e18
f80
0180
0874
0a0e
0a99
4884
38e8
389e
4bdc
4bd1
4b12
3cd9
3ce7
3cea
3cdc
3c21
3cb7
3c5f
9494
9447
2d41
2d49
5f44
5f16
4f0a
57ec
4749
47fb
5e3e
5e39
5e0f
##f23
##f20
##7ab
##e81
##987
5b7f
42ba
##677
4189
e201
61d7
8989
94b4
24a0
5e53
428c
537d
5454
4e4e
049c
606
6c8d
738b
a348
d80
fa4
00ef
0097
1b34
4be7
4bfc
001e
3cda
3c9c
3c14
9448
949e
94a3
5f48
5f0b
5f09
5f81
4f08
4f8d
fa0c
##3d3
4bba
4745
5e3f
5e4b
5e0a
4645
##f24
##d21
0b78
##98b
00ac
##923
5180
512c
3748
7189
6334
0b8a
24a6
0ff
7dbe
9d8
a06
b62
c7c
cd6
c78
d2f
d1f
e7c
f3a
9180
346d
6afd
4bb4
4b70
3ca4
3cba
3c24
##94d
944c
94fc
94c6
2d42
2d45
5f15
5fd4
5f83
##3d1
5e0b
5a01
bbec
##985
1434
4105
##777
d189
c701
e189
5e7d
5e56
3713
3717
3020
5e11
432c
6e56
264e
380c
508d
6e4
6d1
9ba
a0a
a11
a1f
be4
e1f
0032
00db
004e
0021
0a5c
2f31
4b39
4b1c
3901
3cdb
94fa
947c
94f5
94a2
##609
5f4b
5f41
5f49
5f1a
5f13
5f0e
4f48
4f4e
cb93
cba0
5584
474c
5e08
##7ad
bc3a
##9be
5248
1189
c401
##977
820c
a989
e70c
5e76
5e54
5e4e
3714
3349
0e7
3006
408d
4746
980
b11
d48d
f78
001b
00e2
2fa7
3865
38b4
4b76
4b5d
0d4d
3c22
3cd1
3ce6
3c7b
3ca1
9438
9460
9463
9461
94cf
94a8
2d4a
2d46
2dc3
5f42
5f18
5f14
5f10
5f17
cb1c
cb19
058d
4c48
5c48
3563
4ba6
4948
5e09
##7a3
##7a7
##e82
2cdc
##1ab
c504
##9b7
e81c
516b
4180
50eb
2980
9456
9455
7094
5e74
5e79
0b8d
836a
5e57
2459
5e47
3716
3712
eda3
434f
2801
3746
6fc
cff
d724
d11f
fe4
002b
00ed
0092
34bd
0a38
38f5
4b14
156c
3c42
3c3a
3c71
3ceb
3ce9
3c23
9436
94e0
94d3
94f1
5f4a
cbf1
##e27
1a0c
ec9a
5e3a
5e3d
5e0e
4649
1c15
68f4
##7b9
##9b2
##9d3
524a
8e01
377f
4148
2180
e490
3648
3189
0d5c
7989
d989
e180
948c
5e7f
5e41
3284
24b0
1067
0e9
09f
237
548d
d69
ffc
f00d
009c
00fb
3401
3895
4b15
4b28
1804
150a
1518
0012
3c6a
3ce1
3cca
3cdf
3c6e
94d2
946b
94f8
941e
2d3f
5f12
5fd3
5f46
4f07
9c1e
498d
2cda
##d23
##799
0051
##9b9
5249
4280
b989
512f
41ef
e280
e274
3148
8980
a189
1239
94b8
5e77
5e55
5e44
5e4a
5e43
9406
bbc0
4910
37c1
0e5c
37c3
4747
60f3
c48d
dd6
d09c
e1c
0061
0a2d
0aac
d5dc
d5f4
3e8d
3860
4bd7
4bfe
398d
3966
1544
3cfb
3ca5
3c5d
##949
943e
9449
94d6
94d8
947b
9493
94f6
94f7
94a0
2d1d
5fd2
4f0c
4f09
cb4a
853a
bb51
5cc0
4a8d
##3df
4742
4741
474a
dcb7
##d29
2a48
040c
b980
##973
8280
4401
a980
0989
94b7
948a
5e7b
5e73
24ae
24a9
245a
5e4c
5e49
9409
c421
136b
269c
63ac
4354
835a
9e9d
965c
9f82
0fc
200c
3743
4c8d
6ec
6313
96c
d78
fe9
fb8d
0029
3416
0ab1
488d
38f0
4b22
4be9
4bed
4b29
4bf3
3965
3c36
3c37
3c05
3c9e
3ca8
9439
94dc
946c
949c
949f
946e
2d3c
5f80
6989
3a5b
474b
473c
47fc
47f9
4ba7
499a
4993
##7a6
651b
6515
e564
##9b3
1f4e
b9e5
5172
3101
c180
008a
5401
7101
c201
df80
de04
9225
7780
5980
0e8d
24a8
5e52
5e50
9407
c41e
1364
6370
c3b0
bba2
07c
128d
27c
538d
6ef
636f
840c
99a
9ff
d7be
f34
fec2
0024
006e
0096
3b60
1b26
1b50
344f
3470
6a19
38ea
3869
38b0
38a1
4b80
4b5b
1989
7653
1534
3c02
3ce2
3c82
4b81
9408
946a
9462
94d4
941f
94ed
94ee
94f0
94fd
1828
5f4c
cb3e
cbaa
568d
3a80
3a0c
3a11
ec01
5cbc
5cbd
##b43
4994
##f29
6511
aa01
ac01
258e
0b0f
4249
3744
243f
244b
243c
8680
##16d
8201
9e80
9423
ce8d
0301
0306
63b6
2451
9405
22a5
c422
1652
22f0
5c84
5c86
bbbd
490e
249e
32cc
24b1
b912
338d
448d
5e12
6ff
6c49
efc
e68d
f7c
009d
002e
3411
34b2
6aee
0aab
d50c
##907
3e48
388c
3896
3857
da95
4b34
4b0c
4bef
4b1e
4b0d
3967
3c62
3cd6
3cd8
3c72
3c9d
3cdd
3cb9
453c
4546
9445
94a4
9469
9437
9410
9446
9443
2d70
4f6d
cb6a
cb0c
cb29
cb21
b66c
9c01
1a01
1a91
3a54
ec48
57b3
4bb1
473e
47e4
47fa
4ba1
4995
499b
4601
2cdb
2cb9
258c
2a06
##983
##981
##9bd
6b01
##f6d
22e5
22f5
22eb
3742
37c4
2445
24e2
6189
5d8d
26d4
7e8d
c989
272a
ae8d
6336
e1e0
07e0
f989
24a2
24a7
24a5
2454
2456
940f
2446
2447
490a
6788
22b0
c2da
3081
b3b9
5d6b
211
27c3
3747
4348
5c47
512e
748d
ec49
f60c
382f
38ee
38b9
3964
1002
3ca6
8b01
4548
4549
9442
94d5
9468
94e2
9495
9412
5f8d
4fb2
cb02
1a16
3a5c
5cbe
5cc1
##b47
47f7
5e01
583a
bc01
6564
6514
651e
5a0c
##6bf
accc
fc01
00a7
e5fc
db4c
512d
516c
c431
22e7
22ea
22ec
14ea
3745
2189
24a4
818d
7401
##f0d
cf8d
8da8
c968
9420
2322
24ac
63bc
63b5
2450
1ef8
244c
244a
2443
2441
2650
c41a
576d
576f
1363
5c83
bbbf
36f3
249d
135d
6371
3782
66a1
228d
2c46
428d
5c4a
528d
6e9
7092
b34
cff7
00cd
3b62
6a8d
6a9f
6af8
6af3
6af9
4893
2faa
2fac
4bd9
4b3d
4b11
4b6e
15e4
3c08
3cd5
3cb8
3c61
3c30
3c6b
94ec
943c
9411
94dd
94e3
94fb
1874
2d3a
4fb6
4f8e
cbed
050c
050a
3a48
3a55
5cc2
4a50
5770
473d
5e07
1c17
##e83
2cb1
25c4
c88d
8e0c
4295
1fe0
db01
516a
516e
22b6
14e4
be8d
243e
24e4
24e5
243d
24e3
##fbe
1634
7d80
5dd5
26d3
8401
e736
2728
9422
945e
232c
2326
24ad
63b4
22ac
22a9
1ef3
cb57
c428
2449
22f7
e428
5c85
63aa
7083
490f
e472
6372
3783
5444
37c2
6119
1e46
6dc3
0456
2001
3273
400c
4001
4743
5c49
6404
7008
8e20
99c
938d
93de
cfc
c001
d60c
fd6
0026
0106
1b8d
3412
344d
6ae8
6ab2
6aa0
2f0c
2fab
d501
##90b
38cc
3882
385f
4be1
4b07
3c3d
3c6c
3c70
3c9b
3ca0
3ca7
4542
908d
9441
9464
94e9
946f
949d
94a1
1872
1875
5f82
cb4f
cb2e
cb17
8505
6901
1a04
3a01
3a98
4c04
5c01
5c4b
4a36
558d
473f
03ec
##f21
1c16
2cdf
f58d
f566
6565
6563
6516
6519
b901
5174
5171
5130
5170
377e
4e01
3d78
24af
##fb1
1e01
5601
6280
6339
633a
9450
9459
9d8d
6d8d
2325
24a1
63b8
63bf
2452
2328
940b
22a2
22a7
cbc8
cb8a
6010
c416
5767
22f8
4e7c
3283
334c
135f
3781
04b7
59b0
0e18
328d
63ba
ce4
00ce
00f1
3bac
1b54
6ae6
6aa6
0a81
4892
2f4c
38a4
3861
38cd
ea0c
dae7
4b68
4b32
4baf
4b44
f180
3ce4
3c04
3c93
3cf8
3cf0
45c5
943f
94e1
2d3d
2d1e
5f01
5f89
5fd7
cb1e
##e29
5774
47f8
47ff
1c0e
cca4
f5fd
6522
6566
6567
2501
0baf
##797
888d
##9b1
524b
5131
22b8
22e2
22ef
22ee
14d4
be01
3d76
24c4
24e1
5dd2
c0c4
a78d
6332
63af
6335
6337
5989
9458
945f
66c4
66f2
94b9
6d01
232e
24ab
24aa
8301
63be
2457
2368
22aa
cb86
2444
244d
244f
22f3
1361
2695
1f54
1f50
63ae
c444
490d
249f
5df3
678a
334b
3681
275d
66f3
2796
441f
81bd
c371
206d
23a2
e083
b3ce
d98b
2033
9404
928d
ec8d
e001
f801
002c
006c
00bd
1b80
1b1b
1b52
1b51
6aeb
6aac
6aa9
4891
2fa6
38d9
4b05
4b2e
4b53
1980
19ec
3948
39d0
39d2
1574
15e5
156b
3c69
3cf2
3c6f
3c67
3ce3
##947
##941
454e
4554
94e7
944f
94ca
94e8
94eb
94df
94de
94d7
949a
1876
1877
8d20
2d3e
5f7e
4f90
cb2c
cb31
cbd2
cb72
3a56
4780
47f6
03e1
358d
4980
4999
##f27
2cde
2cdd
651a
6512
ca10
25c0
25c1
8a01
2a80
b58d
c84d
ba36
51dc
5173
c41b
c43c
c4e6
22e4
22b5
22e8
22e6
22e9
37dc
4efa
3280
5445
##fbd
4430
7d01
4034
cbb8
2694
26d1
8901
c980
9421
633f
633e
c301
24a3
63bb
63b9
2453
2369
c42e
244e
6014
6016
4ef8
4ef3
e426
136c
1398
e48c
3282
4a4e
6787
22b7
22b9
334a
135e
275e
1ea7
647d
c3db
1d6e
190c
272b
2ed3
22e3
5c46
6001
600f
838d
b68d
da4
dfc
eea2
e2c3
00be
01db
1b1c
1b24
1b20
1b1d
1b55
3f8d
34e2
34f1
34c9
6ae7
6afa
6af2
6a9e
6a9d
6afc
6ab0
6aa5
6aad
0abb
3891
387c
38d6
38e6
389a
dab4
2828
4b48
4bfa
4b1d
19fd
1528
151c
154a
1578
3c92
3cf1
3cfd
3c07
3cf4
94ea
187c
5f72
4fb4
4fb3
cb36
cbe0
cb97
cbfe
cba8
1a80
1a28
1ab9
3a5a
5c06
5cba
5cbf
8804
47fd
5e9c
##f2b
6562
651f
6518
6517
25ff
8ac7
c501
e5d2
5b7c
2034
##927
5169
516d
22a4
22b4
22e0
3d72
4d80
24e6
0086
5442
54ee
8f01
6101
1601
7d8d
0d54
6401
26d5
264f
1ef2
1201
9e8d
bd01
bd8d
2701
272c
ae0c
633d
6330
f748
1360
1365
2324
030c
63b3
5e58
2455
22a8
22a3
1efd
1ef0
1ef1
d301
cb5f
cbc0
cb87
6012
c419
576e
1650
cb64
22f6
1366
391e
139c
4086
1f56
1f52
532a
4a4d
32cb
32cd
84a7
2798
2797
8342
66a0
3d73
3797
2c49
2c44
77fc
9c8d
a48d
0091
00de
3b21
1b25
1b22
1b1e
1b23
3f80
3421
6aa4
6af5
6aa8
6aa2
6aa7
0a25
48cc
38fa
389c
38ff
ea80
dae4
3968
15e1
157c
15f7
3cfa
3c60
3cb4
3c64
3cd2
3cee
8ba4
454b
454d
94da
941d
5f08
5f0a
4f80
4f86
cb42
cb37
cb47
cbfc
cb27
cb26
cbf9
3a12
3a99
3a57
3a53
3a59
5c07
4a53
57eb
55e4
47fe
4933
5ef3
1c14
6521
688d
25c3
bbd4
5bd2
758d
2bd8
2b1e
1fa4
b9ca
c442
22ed
14d2
36db
3d34
3d8d
32ca
8601
86d2
813c
1dc4
5de4
cbb5
2e48
1ef5
d980
6331
7280
078d
f980
9989
f401
4380
63b0
63b1
22a6
22ae
1efc
1efb
1efe
cb56
cb51
cb85
6011
c410
5768
22f4
22f2
391f
5c82
1397
2b64
7085
3d6d
63c0
678b
6786
4d67
3a4e
3688
275f
66f4
66f1
6907
04f7
7472
128c
2760
2761
2367
c8d2
134f
1414
308d
474d
5004
5c4c
5de3
6031
7001
8001
868d
82f0
ac49
b002
b48d
c08d
0171
1b21
1b53
91a4
3f3e
344c
342a
6a80
6aef
6a9c
6afb
6aaa
6af0
6af4
6aa3
0ae5
0aa7
4848
2f4d
2f0e
3898
3813
38a3
dad8
da88
4bcf
0d01
19f0
7680
1568
15ef
3c3f
3c68
3c63
3cd4
3ced
4541
454f
94db
9496
9413
944e
94f4
94a7
1873
8d73
5f9c
cbd5
cbd6
cb95
cbdb
cb1f
cb7d
cbe3
cbab
cbad
1a0b
4cc0
5cc3
5cb9
5c55
4a51
57af
5775
478d
3548
35fc
4996
5ed5
1c4b
9534
5836
2c11
68ec
25c2
0b01
b580
7a8d
bbdc
bb2e
##9bf
5b01
7501
2bd6
2b9c
2b1a
4248
420c
4235
1f13
1f4d
c41c
22e1
22af
36dc
3d70
4d8d
3248
243a
81e9
ed8c
618d
cbbd
cbb0
b101
7901
d901
2789
ef80
fe8d
9457
678d
5301
94b6
94b5
232b
232a
2327
2329
4301
63b2
63b7
232d
940d
940e
1ef6
d328
cb58
cb5d
cbcb
c42c
cb8b
6013
c418
1656
14f4
14fc
22f1
e42a
4420
4421
1395
4084
3d50
532c
4a4f
3d6b
3d6e
361d
5df0
6484
6486
22b2
275c
5443
42a3
bb85
2799
53ef
e2df
1e58
3d7d
fb5c
a620
ad6c
028d
1c8d
1d2b
2729
3604
6402
6333
740b
808d
ac8d
b09d
d08d
f604
01dc
3b61
3bb0
9101
3415
3435
347b
349c
0848
6aea
6aec
6aaf
6af6
6af7
6aae
6aab
6aa1
0a8d
0ac1
2fa8
3e01
3ecc
0c8d
dad1
4b17
19f6
1548
156a
15ec
1579
15f4
3c06
3c90
3c39
3cb6
3c9a
285e
454c
9415
94d9
94e6
9492
9467
94a5
94a6
b82a
2d34
2d20
cb74
cbd1
cbd0
cb78
cb75
cb24
cbee
cb16
cba2
cba7
858d
5682
1a34
1a11
1a1f
1a27
1a96
5ccb
4ae0
5701
4729
5e34
5e62
658d
0059
20af
5262
e842
426b
1f4f
eb01
516f
c415
c43e
c438
c435
227c
14d1
be02
418d
36da
3d79
4ddc
3160
54e4
54e2
543d
##fbf
7434
0f0c
6180
f201
1701
172a
2602
26d2
2ed0
8960
8930
1efa
fd8d
d180
9f0c
7e01
ff8d
5034
a448
7980
778d
e980
5380
948b
9601
20ac
20ae
236a
22ab
1ef9
1eff
cbce
20b0
cb84
c41f
165f
4ef4
4ef6
428a
5395
139a
1f53
1f55
5e1a
bbbb
538f
63ab
63ad
63a9
490b
3d6c
e4ac
22b3
390b
548f
64c5
4802
815c
128b
8624
038d
268d
3001
468d
5c8d
9fc
9001
980c
a40c
c68d
eb8d
fc8d
f08d
3b63
3bd2
1b1f
34b6
3437
3450
6ae9
6af1
6ab1
0a0c
0a64
2fa4
2f0b
2fad
3ed0
3815
38df
3884
38a2
daec
4bda
4bd4
4bf4
19fa
19fc
3920
39cf
f074
f1c4
1531
3cf7
4547
9414
946d
18cf
8d80
2d01
4fee
4f0e
4f85
cb3f
cb06
cb90
cbaf
cb7c
cb49
cb4c
cb7a
cb9c
cb13
cbfb
cb0e
168d
1a0e
3ae4
3a64
4c01
4c06
4c9c
4cf6
4a01
4a9c
552b
55b2
4992
9580
5838
5837
2c48
2c7e
6551
aa8d
25c5
7a80
bf8d
bb01
bb6a
a58d
00a6
d8a1
98f5
206a
2074
2280
1464
e4e7
3d7a
4d48
2442
c18d
54de
1d01
ed8d
8f80
af8d
df7e
3075
2e80
d10c
9f80
9e48
de8d
798d
a7d9
272d
2795
6338
66f5
9980
22a1
1ef4
cb54
cbc3
c425
f301
4654
4652
6015
3711
4425
2698
269d
6915
2b63
5fa9
537e
708a
7081
1426
22b1
3a4d
31a9
14be
bb8f
c052
500b
2ecf
26a4
40cd
eda8
bba6
1dc0
33c3
0fa8
236b
6341
dbbe
f2f2
bf27
248d
4ebd
6801
7c8d
70fb
968d
a38d
aff7
c42f
dc8d
004a
01f0
3bcb
918d
91f0
34db
0864
6aed
0a04
2f8d
3845
38bc
385c
4bea
4b09
19ee
f1c9
154b
154c
152c
15dd
15f8
15f1
3c3e
3cb5
3cf5
3c95
3cfc
3c6d
3ca3
4545
4592
18ce
187d
8d8d
2d8d
5f2a
5fc6
4f0b
4f0d
4fb1
4f8b
cbe4
cbfa
cbec
cb22
cb35
cbe5
cb04
cbe6
cb92
cb77
85ce
692d
1a20
1a26
4aa2
57b5
574c
57b4
5799
4789
03e6
4942
5e6f
5eff
1c01
5839
588c
583d
f501
bcea
6513
5a42
aaa4
8a76
8a04
2a08
7a34
005e
ba01
7f01
1f8d
b98d
eb44
119b
c408
14d9
14e0
373c
21e5
e434
3dd4
4d68
##fb7
1d2a
ed01
743c
5dd6
178d
f679
cbbb
cbb9
a96c
2662
878d
2e8d
1e64
1ee9
a180
a101
a17c
9f01
c901
d701
7701
d201
cd8d
5901
6601
6d4c
63bd
7380
cb5c
c42b
c420
4656
4651
4655
2653
1653
1651
4efd
4eff
14f6
4422
e450
269e
2697
391c
8d94
532b
c446
63c1
6785
4e46
3686
52ac
548e
bb8a
7d54
53f0
13d4
8ce0
59f4
73a3
3223
47cc
690c
a384
c914
f36c
0173
1b1a
3432
34c8
3413
088d
6a29
0af8
d548
d5e3
7b80
0802
381b
3848
3862
38d0
38d4
385e
ead1
dad6
da82
288d
2824
4be4
4b49
4be5
4bdf
4bff
1901
19f2
19f1
19f3
39d1
1806
f101
158d
15f5
1575
1577
3c09
3cfe
453f
458c
4550
9430
94f3
18af
1871
4f91
4f37
4f05
4fb0
4f88
4f87
cb15
cb3c
cb0a
cb2a
cbd8
cb30
cb7f
cbde
cb9a
cb9b
cb9f
cbdd
cbf0
b601
8501
5681
6934
1ae5
1a9d
1a0d
ec29
5780
5776
5501
4701
4908
499c
4998
4997
f5f6
2a14
b5a8
0054
9a80
e5a0
7f80
7f89
5b10
2b1b
2b1c
1f48
5132
11dc
fb01
2260
2267
14dd
4171
21e4
4e80
3d6a
4d2a
86c8
0081
8101
543f
543e
5490
54dd
##fb9
7467
c23a
164b
5dd7
0d59
f601
df89
2ed6
1eef
1234
7edc
e78d
d78d
278d
ef01
d214
cd74
b706
72a4
f780
6e63
c380
22ad
cb5b
cbc4
a301
c423
cb82
cb8f
4657
6017
2651
3718
1657
4958
cb6c
cb66
cb67
cb65
e455
4e7b
4e7a
428f
139b
4252
bbb3
538c
3614
4944
4e47
4d6f
84aa
c40d
c409
26a3
33c2
62f4
7254
a281
96f7
03dd
1eb0
21c0
368d
5b8d
628d
a001
a08d
b801
be22
dff
d7bf
eff
e402
f001
f68d
fe88
006f
00f3
3fd8
3f6c
3474
3452
0834
6a8a
6ab3
0adc
0a30
0a59
4855
2fc2
2f0d
2fa5
7b01
3e28
3e96
2860
2899
4b3f
4b3a
4bf9
19ef
1542
153a
1567
3cd3
4594
45e6
9491
943a
1820
185a
2d2c
5f1d
4f8c
cbeb
cb33
cb0f
cb98
cb9d
cb4d
cba5
0239
02fb
6948
6950
1a25
1a2a
1a6f
1a24
1a93
1a23
4ce5
5cc4
4abc
4aa0
5773
47f5
499e
49a2
5e80
a818
a814
1c13
f535
6580
651d
5a08
dc0e
aa0c
68e4
b501
7ad4
9a0c
5b80
5bd1
20e9
5247
e863
ab01
8e8d
4201
c439
c43a
14d8
4101
4ebc
361c
36dd
3d74
543c
8f2d
8f8d
44c4
0f8d
c275
1648
5dd1
5dd3
f680
a901
3076
8748
a18d
6201
c98d
50e8
a4e2
3301
b780
59af
dd8d
9d01
9d72
4014
f901
9488
f433
d06a
9680
4328
20ab
9362
b380
b301
730c
cb50
cbc7
c429
cb8c
465c
4653
4659
2654
265b
265f
4efc
4954
4952
4953
e420
e425
136d
e301
4fa0
494c
4941
68d8
5ec6
e4c0
368a
3687
3314
8426
842a
3dae
41f4
5495
3808
74f4
50a9
17c2
2e99
b2d2
71b2
afac
cd5c
a75c
2014
1d6f
1e7a
189b
1c4c
2002
236c
390c
460c
500c
5246
8612
b001
b38d
c414
c28d
ce2a
db8d
d382
e801
e74e
0064
00dd
3b80
3b8d
3b26
1b96
3f3c
342c
6ae0
6acd
0a47
0af7
48b2
8014
3e2d
3e98
3e27
3827
38bf
3888
ea01
eab0
dad5
4b74
19f4
15fa
15dc
1533
1570
15f6
3c32
3c41
3c8e
3c8f
454a
458f
186c
b88d
2d39
2d6b
5f54
4f20
4f9d
cb08
cb1b
cb09
cbd3
cbf8
cbf6
cb23
cbf4
cbf3
cba1
8580
8542
857c
85b2
9cc4
1a0a
1a74
1ad8
1a72
1a12
1aa8
3a52
4c02
4c52
4ab4
4aa5
57b0
5574
55b3
1022
46e2
464f
46fc
4643
7cb4
6ca4
2c45
6523
dc01
ca01
8ad4
6b0c
2b01
2b1d
5294
524c
4268
eb80
5101
518d
118d
c42d
c44b
c430
c433
2201
1462
14e9
14d7
378d
3680
3d7c
3d71
4d3c
329a
31dc
c101
008f
54e1
aff5
4448
4438
0f89
164a
1e63
fd01
9780
e0a4
6f80
6f89
6f7c
5038
e780
a789
d737
e18d
a20c
dd01
f78d
098d
136a
0380
c424
4658
465a
2655
c413
cb62
e429
2696
5c87
4288
328c
32a0
c449
63c5
e47d
42c3
68de
5d54
32c9
31a8
3386
41f0
44c0
3e70
64c6
3650
3df3
4805
b081
50a8
1286
1dc1
5627
56c7
2366
12fe
a91d
9354
21b3
b78a
9062
cd8a
26a2
2e67
340e
440c
4c49
4ded
64c3
638d
680c
728d
a68d
bc8d
b08d
c801
c60c
c70e
d68d
d456
e08d
e348
00c9
0109
0146
3ba8
1b01
1b94
1b8a
3fda
3fa6
3436
3466
6a48
0a20
0a5a
0a8f
4888
3ed2
3e97
38db
38f6
da01
dadc
daa8
da85
4b3c
0d80
19e6
19ff
15ea
1576
1565
15f2
15eb
159f
15ee
3cf3
4f02
4f04
4fef
4f8a
cb0b
9c94
698d
6954
1a22
1aca
1a6c
1a6e
4c60
4c05
4cf4
5cfc
5cfb
4a80
4a32
5789
5725
5720
57ad
c680
353c
4901
494b
5e84
464e
a822
8cca
58af
5850
bce2
ca8d
688c
2590
b5d5
b50c
7a01
7ad5
bf01
bbd0
5201
427c
1f80
226a
14e7
14d6
1463
14d0
14ef
14df
1466
4174
41ee
e468
36e0
36ee
4d01
5494
54e8
##fb3
74fa
74e1
60bc
1649
164c
5d01
173f
f641
df0c
6494
2680
8701
d101
1274
9f8d
9e01
7e0c
ff01
de01
bd80
a4d8
d608
d780
33c4
7789
d4a4
d4e4
b789
b78d
945d
7201
b295
ad7a
537c
5365
0e4b
0901
6d80
f98d
99d4
c30a
430c
b33a
d380
cbc9
2652
c41d
c412
1655
4efb
442a
4083
4085
e486
3023
c45b
bbbe
c441
708f
4909
6483
e4cc
7495
42a2
3381
41f1
6ca8
315d
2ecc
1fa1
5035
c37a
834c
b010
206b
6020
43cb
43dd
58dc
215b
40ac
52f6
3d77
deac
037e
dfa3
164d
1eb1
24b2
3221
648d
668d
600e
7801
9801
ab8d
b28d
e60c
00c8
0079
017b
014e
1bd2
3f89
3f3d
34d6
3431
34df
3414
34fe
3429
6ac8
6ae5
0a9f
48cb
d58a
3e90
3e2a
3e92
3e99
38a6
4b6a
4b51
0dd4
19eb
19fb
19f7
3970
3924
768d
f18d
153e
152a
1547
157b
1566
15fb
15f0
3c91
8b8d
4580
4590
45c3
45c2
4553
4585
b8ca
8d34
2dbb
2d63
cb68
cbe1
cb3a
cb2f
cbe9
cb18
cb14
cb73
cb96
9c72
6908
6928
1a02
1a09
1a10
1a1e
3a96
4c0a
4cce
4cd1
4c50
5c2b
5722
571f
57ac
57ae
57a5
c638
55e7
3580
353e
4945
5e37
5e6c
46ea
8c1c
1c73
5833
2c12
5a48
5aa0
68fd
ace2
a501
c832
ba80
e58d
e5bf
7f8d
5b9b
2bd5
2b9b
e88d
e8e2
9b80
4232
42af
1f89
5175
14d5
14e5
14dc
14db
14d3
3789
21e8
e4e2
4ef5
3d80
4d30
4d70
3201
54dc
8f96
7435
6115
1660
5de9
b4d5
cbb2
cbb3
b141
6415
8772
2e01
2ed4
8945
1e80
1e8d
9f89
7ec8
50e7
bdc4
d680
a701
27d4
ef8d
e928
707f
ee8d
43dc
2301
7301
cb55
cbcc
cbc2
f380
c417
4ef9
14f3
e453
136e
539c
5397
1399
e485
406e
4765
4a4c
63c7
63c9
249c
e4a6
462c
43ae
44b9
3a4c
615c
52ab
bb86
5009
c4b9
2ece
4806
c392
6894
589c
dcae
3dc3
22c7
a91c
b446
9bb6
148d
164e
208d
2c43
21ae
2667
2921
438d
640c
67f4
700c
83ba
80b3
9b8d
903a
b729
b184
b364
c38d
dc81
dd7d
e1aa
f28d
f38d
f7aa
01f8
0188
3bb4
3b7f
6abc
6ac2
4879
4886
2f89
d580
3ed1
3e50
38e9
38c9
388f
daa3
4b37
4b21
03ff
0d73
19ea
39ce
3963
3984
15e8
15ed
15e3
156d
3cef
3c96
8b80
8b0a
2859
45c4
4552
4588
4586
458e
1848
2d25
2d71
5f91
5f79
5f93
4fca
4f8f
cba4
cb28
cbbc
cb7e
cba9
5683
1a08
1a9c
3a90
3ab6
3ae3
ec5a
4ce2
4cdc
4cf5
4cd8
5c08
5cca
5c04
4a0b
4a0a
4a6c
5576
55e5
55ae
55ad
4667
8c01
8c3c
cc01
cc62
6c28
583c
588d
5871
5870
58ae
58ad
65b4
65c7
5a8d
aad0
68c8
68e8
6878
68fb
25fe
8adc
2a3e
2ac4
2ac7
bf89
bb48
bb71
bb26
7f37
6b3d
6b04
6b12
52f5
8e80
42c4
4236
427a
4230
c43f
c448
22bb
22ba
14e6
2101
e42d
e47c
4e34
4e06
361b
36e1
36de
3d75
4d62
4de8
4de9
e2ea
2401
54da
54e3
1d2c
4434
442d
4431
164f
cf01
df8d
b18d
3048
8789
2e65
a1ea
d18d
978d
e04b
9e0c
7e06
56c8
629c
c97a
c96b
de32
bde6
a434
e7c8
2948
d98d
9201
d23c
fe01
e9fa
e98d
ce0c
6301
a210
b2c4
f77a
07c4
e64c
d0e2
707d
20ad
2306
230b
a36a
a3c4
20b2
4650
2659
5769
4efe
4ef7
495b
4955
495f
14f1
e42c
4424
e45f
4e7d
269b
428b
691f
432a
32a5
476c
4766
c44d
5df8
4e5c
4e5a
4946
494e
6487
e41e
e419
4913
2d50
c471
52ad
3902
c406
c40a
c407
4df8
4df6
3dad
380a
1fa2
3df4
6024
a485
23a5
56c6
431f
3db0
7df4
4dcf
22c1
ae8b
894d
d44e
fead
f287
11f4
108d
17c3
1eee
2604
206c
222c
2e66
21ad
360c
3402
480c
4e50
4ebf
440b
422f
5001
540c
66a2
738d
848d
a404
a60a
c404
cc8d
d80c
e40c
00fa
0176
018a
3b01
3bca
3baa
3f01
3f42
3f0c
34b4
34e6
34e3
34fd
6aba
0a78
487d
2f80
2f06
2f0a
d58d
9e73
3ed5
3eca
3e2c
3e26
3894
38b5
382c
38de
38d3
386e
3873
eaf4
da48
dad3
da8a
28c3
19e7
198d
19e5
19fe
3991
399a
3988
3986
15e7
1538
1569
15e2
1541
154f
1571
15e9
157d
152e
1546
15bd
3c15
3c35
3cf9
285d
4544
4599
944d
183f
18e4
18b0
2d38
2d4b
2d1f
2d26
5f02
4f1c
4f50
cb94
cbdc
cb0d
0220
9c32
6906
6920
0534
1a71
1a0f
1a70
fa8d
3a45
3a66
3a10
3a50
ecfa
4c4b
4ce4
4c0c
4cd3
5cf9
5750
5785
55af
477c
4771
3541
49b3
49a0
5ed8
4660
a835
6c0c
58fd
2cd9
2c10
6568
651c
5a0a
5a0f
aac0
68e6
68f7
6884
250c
0bdc
8a8d
2a07
2ac9
bbe9
bb1d
88b5
a5d0
d8da
9a5a
c58d
e501
5b0d
5bf4
6b05
2bd7
5238
f88d
1f02
119a
c46a
c432
14e2
14de
14ee
1467
416f
21e9
e408
e43f
e4c8
e4fa
e4d1
e4d4
36eb
3d01
3d08
3d48
4d6a
4dd1
3274
c1dd
4442
4433
c280
16ce
1661
7da4
5d44
0415
cf80
4072
6434
64d1
2ed5
d14f
9734
c7e7
c78d
6260
296c
296f
3380
ae90
b77c
6680
a601
f938
e6ce
0391
1034
2380
cb5a
cbcd
cbc5
cb88
2658
265a
c411
495a
4951
cb6d
cb61
14f2
14f0
e422
4285
1396
6914
c458
406f
5383
c44c
c44a
c443
42c1
494d
68d6
43a8
1424
44ba
4d6d
7458
4915
3a46
e4be
528e
e447
378a
548c
5446
3daf
5493
44c2
c05a
4e2c
2ecd
8450
bbaa
1dc2
5037
5478
8066
8492
2e9a
2e77
844f
be92
82ac
d892
40b7
7e9c
81fb
a455
ed88
0377
befe
e2f6
f392
9da1
962c
2c8d
238d
2307
3224
442f
611a
828d
9e12
a314
be88
be14
c40e
c792
d673
e414
e40b
e7a2
f48d
00ca
00b4
0099
00fd
00f9
3b25
3bc8
3bbe
3b29
1b27
3468
34e8
3472
34f4
3454
34cf
6a74
6ab4
6a96
0abc
4837
488f
7b8d
3ec8
3e93
3ecf
3893
38a7
ead6
ead2
0c65
daba
daeb
da9f
da9d
dac1
0d45
0d0c
19e9
19ed
19f8
39d3
396e
3999
3982
153c
1535
1536
1537
1572
15a0
285f
4539
45d8
4593
450e
458b
94e4
2dd4
2d23
5f6a
5f3c
5f8c
5f04
4f22
4f43
4f82
cb48
cbe2
cb3d
cbe8
cbae
b680
9c68
6932
6965
1a07
1abf
3a28
3a76
3a70
3a14
3aa0
ec26
4ce1
4cde
4ccb
4ce3
5cfa
5c09
4ab0
4ab9
5786
55e6
5573
4737
4770
47f4
353a
35fd
493e
49d6
5ee1
4642
4662
46e8
7c01
9501
6c34
5842
6510
5a04
5a9e
dcf2
aa94
aa13
ca54
68ea
687e
68f3
acda
2534
258a
2a8d
2a0c
2aca
bb2d
bbe8
883c
8812
d88d
e584
98ba
6b9d
204c
2073
42a4
424c
4233
4272
5192
2261
14da
14fa
146c
e4dc
e4e0
4eec
4e8d
4e0c
4e05
4ee8
3608
3df5
4dfa
4dd2
3225
32b8
3298
8632
86d7
54e7
54e5
82ba
edc4
74af
##f07
af80
4439
4460
443c
443a
61d3
1680
5dda
5dd0
5deb
1789
40b8
407a
cbba
cbb7
2648
2661
2ee6
977a
9e04
ff89
ffd4
6f01
50e9
298d
d601
d7ea
9280
2734
d2e2
fe42
ce08
cd80
dd80
5368
f734
0980
0701
9901
7090
6e80
6e01
6e8d
a0ea
231c
b3da
cbca
1658
4959
cb60
14f7
14f9
4428
e451
1367
4286
e380
4088
e488
c456
3d58
5384
5388
4764
36f8
36f0
4947
68d4
68d3
462f
63f7
142e
44bc
44be
4d6e
e412
7450
68c7
68c9
e4b0
5e20
2d52
e44f
31a6
4df0
3dac
3382
3387
5496
54f8
66f0
315e
7e70
54b0
4d5c
84fd
503a
206e
6893
43db
5b58
5626
0e53
b495
8bb4
868c
4e8f
30ca
ed8e
ed9a
f65b
f41e
21b4
4d2b
6ea1
59b1
6d8f
dd92
138d
1d24
364e
3222
364d
4092
44c3
4c4c
4ebe
6456
646d
7344
a22a
b224
e46d
e12b
e409
f914
0069
00d4
00df
00b3
017a
3b48
3b28
3fd9
3fa4
3f0b
3434
341c
34d7
6a90
6abb
6aca
6adc
6ad7
6ae3
0ade
0a10
487b
48a6
2f4e
2fae
7bf2
3ed6
3ed3
3e29
3e5c
3814
ea8d
0c7c
dad2
daed
dae3
dac3
dabe
4b5c
396c
3978
3972
39ee
398e
157a
159d
1526
154e
3c33
450c
45ce
45d1
4598
4551
941c
188d
18fb
8d6a
8d1a
2d21
5f06
5f38
5fda
5fc8
5fd1
5f05
5f8e
4f15
4f42
4f39
4f74
4fcb
4f93
cb39
cb32
cbf5
cb71
cbef
cb1a
cb46
cb4e
b66e
85d2
8550
9ce8
6968
6921
1a8d
1a73
1a13
1a29
1a21
1ab3
3a62
3a36
3ab4
3a2f
3a9a
3a51
3a5d
4ca4
4c0b
4cd4
4ce0
4c70
4c16
5c0a
4ab8
4a9f
4a21
4aae
4aa7
4a59
5772
57f4
5755
c6d4
552c
550d
55ab
477a
49d5
49a4
4990
498e
4634
4628
46e4
a88d
1c1f
95cd
6c52
5834
5864
2c01
f580
6501
6595
5a06
6879
687d
68f9
688e
6887
25cd
258b
258f
2a01
2a05
2a8b
bfb0
bb94
bb92
883a
88b2
d8c8
d83a
bad5
c593
e576
988d
981a
5be2
2bd9
523f
5268
526c
f867
426a
4297
c4e2
22c8
2265
1465
14e8
14ed
14e3
370c
21e6
e494
e462
e43c
e43a
e464
e4de
e46e
4ed5
4ef2
364c
364f
36ef
3d7b
4d2d
4de7
4dea
4de2
4df2
4de0
326e
8162
54db
718d
1d8d
82ea
ed80
74a4
7432
af30
4436
4437
616e
1645
5dd8
17c4
407e
b1e2
64c4
2665
1eb6
fd80
9701
621b
6f8d
2971
296e
a270
ad01
ad8d
6dec
e680
e601
948f
145a
7048
707e
8337
104c
cb6f
14fb
14fe
e45c
4e7e
4e7f
3915
408c
425c
425d
691e
6917
e487
5358
c454
4323
4321
5fac
5fa0
32a6
4768
36f6
c447
63c6
63ca
63c2
4fac
361a
bbc9
4ec3
68dd
68df
e4f8
e4f1
5d56
43ab
63f5
1427
1425
e4cd
e411
e41f
68cd
e49c
c475
6158
c40b
c405
31a7
6944
33b3
315c
315f
3e74
7e7e
500d
500a
5007
647e
c4ba
26a1
64b8
bca0
acad
31bf
5a44
5036
13d2
14cf
4d9c
5063
5b59
b4f2
c3ad
12ff
d2a3
789c
8d5c
1014
1371
628f
e0a9
b1cb
b372
bd82
976c
090c
0383
17a0
222a
2229
2784
2727
2666
305c
4c88
42c2
422e
5224
5008
5402
641a
6b8d
6220
8747
ab52
a80c
a184
a750
a64d
a7a0
c1c0
c402
c24e
d1c6
e28d
e40e
e40a
e40d
f40c
fe11
3b5f
3fa7
3410
34ff
34b0
08c4
6ac4
6a95
6ad0
6ac3
6ab9
0ae0
0af6
0af1
0aa8
488c
487f
4878
487e
48cd
48a0
4856
d57b
3ece
3868
386c
389d
38fd
38f7
38bd
38ad
da91
da9c
da96
2874
2863
282b
4b0a
4b4a
39ea
39c4
3930
3998
39ed
39c2
395c
7601
f0b8
15db
15de
1524
156e
1543
1529
15f9
3c34
3c1a
453a
459a
45cf
2d1c
5f3f
5fc4
5f20
5f87
4f45
4f25
4f41
4f0f
4ff0
4fb7
cb91
cb45
cbda
cb79
cb7b
cbff
cb1d
6935
696c
695a
6957
05d3
1a2d
1a06
1ae2
1a18
1a97
1a86
0d9f
3a15
3a38
3abc
3a1c
3a22
3a13
3abe
3a8a
3aac
3aa5
ec42
eccb
ec93
4cd2
4ccf
5c34
5c6d
4a34
4a68
4a25
4a69
4a3d
4a09
4a9e
4a24
4a1f
4a9b
4a29
4aab
4aa6
4aa3
4aa9
4aa1
5734
571e
5716
5721
5754
55f5
55ac
499f
49a5
5e05
5e61
5ede
5e8b
466a
4669
a864
8cbc
7cd0
958d
2c7f
bc42
bcf1
5ad9
5ada
5ad7
5a10
5a0e
dcb8
68e7
68e5
68ee
68ff
68f0
6886
25fd
2a8a
bb28
bbe0
bbd3
90e5
d891
ba6a
e578
7f8c
6b17
2b80
2b48
2b9a
5244
8e0a
4234
429a
4277
1f64
c445
c4c4
14e1
3704
37d0
e44b
e4c4
e46c
e4ed
4ee4
4ee2
4edc
3d68
3d02
3d05
4d28
4de5
4ddf
329e
3292
31e4
5434
54ec
1d8c
8fb8
8f0a
7415
746f
af01
af89
443e
44e2
443d
610c
619e
f27b
##f1d
4090
4095
2660
1ed9
1280
5680
62e1
c975
de0c
ef89
d20c
e901
cd01
cdd0
598d
a280
b201
b232
b274
ad80
5330
f789
0780
0789
a680
f4d8
707c
ee3a
0334
5e5a
9301
cb5e
cb59
cbc6
265c
5760
495c
cb6b
cb6e
14f5
c0aa
4426
e454
e45b
4e78
4e76
3916
4284
5396
1394
139d
4253
6910
5354
5356
535e
5350
c450
32a3
32a7
538a
4763
36f1
5370
7088
4907
4fab
2499
361e
42c5
63ff
e4ce
68cb
e4b1
525c
5283
5341
5220
e44d
e44e
3905
31a5
6946
41f3
44c1
645c
6904
690a
6cac
647f
24f5
5a47
74b9
2762
6022
13d1
3623
215d
7418
33f8
53a9
8418
d89a
632f
a4ce
d065
2020
8764
025b
2059
f4f4
1d55
61b0
dcef
3d23
e3a8
61fc
048d
17cc
1c4a
1123
11a0
11ac
1c84
32b9
4c4d
422c
4de3
4d0e
4097
5414
5348
536c
5dee
524d
604d
7414
740c
8154
860c
8720
86b0
900c
ac8e
a2c0
a90d
ce71
ce0e
d28d
d38d
d801
d79a
d0bd
e38d
ec8f
e38a
00e6
00c2
018d
013d
0153
3b94
3bc9
3ba0
3f0a
34e4
34b5
3422
344e
34c5
3453
34ae
082a
08f3
6a94
6ace
6ad4
6a46
6ac9
6a8f
0af2
0aeb
0afb
0a6d
0acf
0aa3
489a
488a
4882
7b34
080c
3e91
3e8f
3834
386a
3872
38c3
388b
3883
0c15
dad0
dac2
dac9
4b42
4b4f
4b72
4b43
0dbc
3934
3928
397c
3974
392c
392a
3931
39d8
392b
397d
39cc
39fc
39c0
39f0
396d
39f9
3983
1807
1539
159c
159e
154d
3c1c
4501
45d6
4595
4556
4587
1827
8dfc
2dcc
5fa4
5f1c
5f95
5f9f
5f8a
5fb9
5f56
4fb5
4f7a
4f30
4f11
4f78
4f72
4f70
4f10
4f1e
4f56
cbea
cb25
cb05
cb70
cb10
cb43
85d1
6942
692c
692a
696b
6933
6924
6927
6926
1a94
1a95
1a92
1a19
1a6d
3ab8
3a02
3a60
3a8d
3a0b
3a30
3a20
3ac0
3a0e
3aaa
3a84
3aa3
ec2c
eceb
ec7d
ecc0
ec54
4cd6
4cca
4c6b
4cdf
4cc9
5ca4
4a22
4a20
4a26
4ab1
4a5c
4a55
4a5d
5748
575c
575e
5575
476a
4776
477d
4773
3564
498c
499d
49a6
5ee2
5edc
5ef0
5e86
46e7
4632
4641
463d
4664
46e6
466b
8c92
6c78
6c5a
6c51
5a9f
dcdc
dc52
aa80
687a
68eb
68ed
68f8
688a
2548
8adb
2a09
2ac3
bf8e
88a4
9a48
9a8d
9a70
9aa6
c57b
5b1a
6b1a
5276
527c
5263
521f
f84a
9b01
4290
4276
424f
4274
4270
426e
1108
c464
c46d
226b
3702
3705
414c
419c
213c
e41b
e448
e4ec
e463
4e38
4ec4
4e31
4e30
4edb
36b5
3664
4dd5
4d69
4d2c
4dd0
32a4
3290
32b5
32af
3278
318d
31db
c190
c1f2
c19a
81eb
8f89
74e8
443f
4435
44e6
0f01
6168
61d2
c2f5
1647
0d52
cf2a
4079
dfd9
b19e
643d
2e68
2e69
1e69
1e95
1e05
c0e9
1242
1263
1279
9fdc
7e80
5625
621a
5047
e701
2901
a7d2
ef32
ae80
130c
1374
998d
b0d0
ee01
432d
43af
cb53
c42a
465b
465e
601c
371a
576b
495e
cb69
405e
269f
391a
408a
425b
4250
5352
c459
4064
4060
4061
4065
1f5a
5e14
5fa8
5fae
32ad
476b
36f4
5323
5329
537f
4a44
5dfc
e47a
4e5b
4ecd
4eca
4ec2
4ece
4ec0
4949
68d0
4e44
4626
462e
4621
43a7
43a9
6485
e4ca
4d6b
e41d
e410
4911
68cc
68cf
625a
e492
e49e
e497
5e22
5e2f
3312
c472
c470
74a1
522a
e44a
390a
390e
7497
14b8
14bd
694d
694e
8ca0
1ea8
1eab
56ac
0f85
690d
500e
4e26
4804
3d82
4d5e
50aa
815d
53f1
5a43
13d3
84c6
6892
04a0
215e
a426
bb6d
32bd
8410
5081
3dbf
d482
0fae
795d
40b9
2ef8
d060
5807
31f9
775c
d912
b9a0
16cf
671d
89aa
ae5b
fda2
e34a
12ac
1d98
fd11
1e21
1729
1314
1db3
16b1
3404
3030
3d24
37f8
490c
4c4a
4e2b
4004
4c4e
4c4f
4096
604e
8c49
8407
812b
8406
82c7
92c2
92c7
a38b
b00c
be20
c79a
cebd
c10e
c2cc
e42f
e407
e036
00b1
016a
012c
3bbc
3bbb
3bc4
3b2a
3bc0
3bc2
3b54
3ba6
3bad
3f3f
34d4
3433
342e
34fb
3417
34be
0814
6a01
6ad5
6a0c
6adb
6a7b
6add
0a6a
0a90
0ac2
0ac7
4870
4883
4885
2fbc
38b6
38af
3851
0c9b
da81
2822
2898
4b45
4bf5
4b55
8902
19e8
19f9
392d
39d9
39da
39e4
398c
39f2
39de
397e
3993
392e
39fb
15e0
3c17
45d3
4555
18be
1829
8d0c
2d33
5f94
5f6c
5f30
5f7f
5f1e
5f26
5f4e
5f52
4fbc
4f69
4f4c
4f35
4f2c
4f2a
4f6c
4fba
4f7b
4f9e
4f27
4f96
4f13
4f29
4f21
4f84
cbd9
cbe7
cb20
cb99
cb07
85dc
85d8
85d4
9c3a
693a
6937
6930
692e
696d
695e
1a69
1a2c
1ad2
1a6b
1a2b
3a1b
3a34
3aa4
3a06
3a25
3a2c
3a09
3a18
3a9d
3a2e
3a97
3a26
3ab3
3a5e
3aab
3a81
3aa9
3a87
ec7f
4c34
4cd9
4ce6
4c51
5ccc
4a3e
4a39
4abb
4ab6
4aec
4a35
4a5a
4a52
4aac
4abd
576a
5778
575a
5756
5548
552d
55e9
55e3
47f2
4775
477e
47a0
35ec
49d7
4924
5e2d
5eea
5ec8
5e02
5ec4
5e8c
5e31
5ee0
5ee6
5e98
5e6e
5e67
5ef7
5e87
463f
464a
4637
4630
46eb
a845
8c1b
8c94
8c64
8c9a
8cfc
7cb8
7c14
7cb3
7cb9
1cc9
ccb8
9564
6c62
58da
5844
5830
5866
5852
5854
f5a4
f516
bcb4
bc16
5a80
5a02
5a07
dc5d
aa54
6891
68fa
ac2c
0b16
8aae
2a3d
b59b
b583
7a5c
fce2
bb3a
bbdb
8868
882f
a552
bae2
c5a4
e580
9834
986a
788d
5b15
6b9e
6b0e
6b0d
6b07
20ea
522d
5245
5228
5232
521c
523a
5264
5218
f8ea
422d
1fe1
db06
db9c
c437
c43d
c46f
2268
2266
1494
14eb
be60
41ec
e4da
e4d6
e4eb
e4df
e46f
e4ee
e4e3
4ebb
4e3c
4e36
4ed0
4eef
4ee6
4e33
3606
36ca
36f2
3d25
3d0c
3d0a
3d04
4de4
4d60
4df5
4deb
326a
326c
329b
329d
3297
326d
e24a
3134
861c
8670
5491
54df
1d48
8215
8f4a
8f1a
74dc
604c
af0c
612d
6174
6161
6170
c215
c297
16d0
5d80
5df5
5df2
cf3c
1780
17bb
4091
4094
4073
b176
647c
64de
262d
2e64
2ed2
120c
1212
c789
7e95
5628
6234
6290
621c
626c
626b
de3a
296b
a774
921e
2748
27de
d242
e9e2
ce04
7204
7298
a2bc
6701
9d6a
532d
533e
5338
5362
533c
533a
5331
1301
d30c
cbc1
cbcf
c426
6018
601d
601a
601e
265e
3719
5764
165b
4ef0
14f8
442e
4423
4e72
4e79
269a
3914
3913
3910
408b
408e
4081
408f
4258
4256
425a
4257
691d
691a
6913
6919
e481
3022
5359
4069
3d54
3d56
3d5d
4320
4329
5fa5
5382
538e
5385
476f
36fc
36fd
36f7
5326
537a
5373
3d67
3d61
3d6f
249a
3616
3610
e47e
e473
e471
e479
4e51
4ecb
4ec9
e4f9
e4ff
e4a8
e4a3
4627
43a5
63f8
63f6
63fd
63f9
4d66
4d65
5ea9
68c6
68ce
6254
5258
525d
e498
32c0
5e27
5288
2d54
8424
8428
37c0
42a6
694c
1eaa
5492
7e7f
74f6
3654
64aa
bcac
7ca6
31bb
5a41
5ca9
8485
84bc
c25b
14c6
54c6
4029
744d
83b9
17c5
332c
2e98
5366
5d94
5d9c
a4b5
8281
d067
2026
2027
c1fb
2050
5dcf
4d2e
af8a
6754
b412
d286
13a3
93c0
e6ae
a44d
039b
1646
22c2
240c
2c8c
2c47
2120
296d
3801
3793
3d4e
3d07
3d4d
3d0d
4e71
42b9
4098
4ee3
574e
5129
6154
61a0
6126
6f23
8382
838e
a28d
bc4a
cfb0
d40c
d0b2
ddee
d60d
e404
e944
006a
00ff
3bd5
3bb6
3b9c
3b4d
3bc5
3b8a
3bf4
3bbd
3bc7
3bab
3ba5
1be4
3fa5
34d9
34a4
34c4
34ec
3420
34ab
6ab8
6ad8
6a9b
6a7d
6a97
6aff
6ac1
6a8e
0a74
0a13
0aa0
4894
487c
9e7c
3e80
3e02
3ecb
3ec9
3e5b
38ce
38d2
386f
38cf
ea88
0ccc
dadb
daa2
2861
4b65
4b6c
4b5a
0d3d
3906
39bc
3925
39c8
3935
39ca
397a
39d4
39eb
3975
39d7
39cb
39c1
39f3
3958
3981
3985
76bc
7699
f0f2
1549
15fc
8b28
45ca
45d7
4596
45cd
185b
b8bc
8d28
2d4c
2d37
2d4d
2d4e
5f68
5f74
5f2c
5fb4
5f78
5f33
5f75
5f7b
5f9a
5f7d
5f92
5f97
5fb0
5f99
5f29
5f77
5fb3
5f88
5f59
5f5f
4fd5
4f4b
4fe2
4fdc
4f95
4fd8
4fd0
4f61
4fd2
4f66
4f9a
4f1f
4fed
4fbe
4fcd
4f5e
cb9e
85ec
85b4
691b
693e
6925
6922
6966
6951
0501
1a1b
1a15
1a1c
1ae1
1a98
1a1a
1a8f
fa34
3a08
3a39
3a68
3ac4
3a3c
3a0a
3a74
3a37
3a04
3a6c
3a6b
3a33
3a2b
3a6e
3ab0
3ac2
3a0d
3aa8
3a58
3a82
3aa6
3a85
ecc4
ec7c
ec22
4c08
4cda
4cd0
5c05
5cdf
5c66
5c5e
4aa4
4a3c
4a61
4aba
4a1e
4ab2
4a54
4a5b
57a4
574a
57b2
5777
5723
57b1
5759
575f
5524
4774
4772
477b
353d
35f2
35f8
35f6
492c
49a1
5e1b
5e92
5e97
5ef1
462d
4638
4668
46ec
46ed
46e3
a8b4
8c48
8ca4
8c90
8cd6
8c2a
8c20
7c38
7c92
1c50
6c72
6cbd
5868
5860
5862
584a
5865
585c
5856
bcf2
bc7a
bc5a
681b
68d5
68f2
687b
6885
acec
acb1
25a3
8a94
2ac8
b5a4
b57f
b59a
bf11
bbea
bb9b
907a
d842
9a15
c8a6
c580
7f34
98ac
78e2
5bd0
5b11
5b18
7580
6b1b
6b0a
6b11
6b18
6b9f
6b13
2b2c
5242
5269
523c
5231
527a
5278
5270
527b
529c
5273
e886
e881
9bd4
42c8
4269
42e2
4264
4266
4267
eb02
1104
c462
c465
c4e5
c4e0
fb02
2269
14ec
3774
e491
e442
e476
e469
e4e8
e4d3
4e3f
4eea
4e28
4e3a
4ee5
3615
3647
36ed
3d60
3d4f
3dd7
4dec
4dde
32b6
327f
327d
329f
3293
3115
310c
8615
8148
54e6
71e8
1d28
741c
74e2
74df
74d3
6025
afea
afdf
4432
6165
616f
f218
7d3c
5ddc
5dd4
5de6
0490
0464
17c8
17ba
17d2
4076
407c
4074
407f
b408
b4e2
6448
64a4
64da
a9a4
3079
873a
898d
1eb5
1e65
a192
d190
c028
c0da
c0fa
3afd
9e90
9e3d
7e28
7e35
6266
c906
7925
e7df
e7ee
2970
d6fa
d2ea
80e2
b7c4
a2ca
6780
5332
f70a
a63c
a6e2
a6d4
ee48
0330
43a4
8380
5e5c
7365
265d
2657
5766
1654
e421
442b
e456
e45a
e457
4e73
8d92
4082
4087
425e
e48f
535a
5353
c457
c451
406c
4066
4062
4063
5e1e
5e13
4327
4325
bbb9
5fab
32ac
32a8
32a1
32a9
5381
476d
36f9
5327
4a4b
4a46
4a4a
3d64
3d65
63c3
4fad
5dfb
e478
e477
bbc6
bbce
4e58
e4f7
e4ae
e4a0
462b
5d57
63fc
63fe
5ec7
1428
44b8
e4c2
e416
745e
5eac
5ea0
3a4a
3a4f
e4bd
e4bf
e495
5e24
5e29
c47e
534d
5347
84a9
6157
522c
3909
7492
c40f
37cb
14b4
42a0
6943
4454
4450
690e
6905
3d9a
380b
380f
74fb
c4ca
4e2a
64f4
54bd
742c
1fa5
c4aa
c4a2
c4a9
3d84
3d81
6428
815b
40c0
74c1
aca0
6114
5a49
c482
7f50
c399
045d
045f
0ba2
8c85
3624
52f4
3324
4441
32b2
32b1
6419
3db2
4187
1416
1411
360f
80a2
4e81
5d8a
3d10
9282
ae72
11b3
d8cd
dcee
9d56
13b4
d75c
8ef0
1ecf
902c
a34a
b3fa
140c
1dbe
2b8d
2946
3724
3035
3d0e
3646
370d
4093
5746
574d
5333
64b2
6c4d
7036
7d7e
a4b2
ac8a
be10
b317
dc88
d1c0
d043
f456
f70e
00d8
0178
01dd
0143
3b3a
3bd6
3bba
3bd4
3b20
3bd3
3b1e
1be2
3fe2
3f98
3f18
3469
3465
34dc
34e0
346f
349e
349a
3424
3418
342b
3467
341e
34b1
345b
34a7
3459
0832
0830
082e
6ae4
6a41
6ad6
6ad3
6a4d
6afe
6abd
6a82
0a9a
0a24
0a14
4890
487a
488e
2f19
2f8e
d504
7be0
3e9a
38c8
3831
389f
3850
38b1
3881
38a9
ea2d
eae4
ea50
eaa7
0c0a
289a
4b25
4b64
4b75
4b5e
0d02
19f5
39d5
39e7
3990
3976
39fa
39e2
39d6
396b
39f8
3926
39fe
39be
39c5
39c6
39c9
39f4
398b
395e
398f
76e4
760a
f0d4
f092
153f
1525
153d
4515
453e
453d
459b
450d
94f9
2d32
2de2
2d4f
2d36
2d30
5f1b
5f3e
5f90
5fb5
5f3a
5f22
5f61
5f70
5f9d
5fcc
5fdd
5fbe
5f5d
4f34
4fa4
4fbb
4f3a
4f65
4f79
4f9c
4f98
4f24
4f18
4f9f
4fcc
4f92
4f67
4f97
4f73
4f17
4fc1
4fbd
4f83
cbf2
cbdf
cbac
85d6
027c
9c34
0bca
6962
693c
6923
6952
6955
1ae4
1ac4
1ad0
1ad4
1ae6
1a75
1a9a
1a17
fa82
3a2d
3a35
3a65
3a05
3a63
3aba
3a9b
3a7d
3a73
3ac5
3ac1
3a88
3a86
3aa2
ec25
ec0e
ec50
4c68
4cc8
4c09
4ce9
4ccc
4c29
4ccd
5ce0
5c70
5c2e
5c0d
4a3f
4a45
4a28
4a3a
4a9d
4a67
4aaa
4a56
4aad
5742
57a0
5758
55b5
4779
4777
470d
47f3
35ef
35f0
35f4
35f3
493f
496e
49a8
49a3
5e15
5e25
5eb6
5e69
5e36
5e64
5ee8
5eee
5ee3
5eb3
5eb9
5eb1
5ef9
4625
463c
4661
4633
8cd2
7c70
7c9a
7ccc
1c48
1c0c
1c96
cc08
95a4
6c48
6c42
6c5c
6c5e
583f
5861
585f
2c68
2ccb
f5df
f597
f55c
f58f
bc35
5ad8
5a09
dcdf
dcc2
aa10
aab2
cae2
6877
6883
acdf
25e4
25b4
25f1
25bf
8a48
8aa0
b522
b5a2
b5a6
7a82
fc62
fc0c
fcfc
bf1a
bb1c
bbd6
bb14
005f
90e2
d8fc
c852
bae5
988b
5b31
5b14
5b17
750c
6b06
6bda
6b0b
2028
5235
523d
526e
5267
521d
ab80
9b68
4260
4244
4263
426c
4271
427f
4298
426f
427e
426d
5104
110c
c4d5
c4d6
c474
c463
c461
fb22
2262
2295
143e
3708
3706
37c8
371c
370b
418c
e4d0
e4dd
4e2d
4ed6
4e37
4ed4
4eeb
4ede
3602
36fa
3de2
3291
32bc
32fa
3269
329c
3296
3299
2434
24e7
2462
246e
c14b
81d6
816c
8130
54c4
54e0
821a
8f31
7462
44e7
0fc4
0f9c
0f12
0f9d
6128
612a
6172
f2c8
1662
5d0c
0436
0d50
cf89
4071
4078
f6d0
dfe8
dfcc
cbb4
cbb6
b1e0
6468
643c
64e2
64d4
2664
2ed1
8962
1e48
a1c8
a1e2
a1dc
fd02
c0de
84c4
8474
e0b6
ff0c
6f90
bdd1
79b4
e738
e789
a72f
d789
330a
92bb
9214
d491
cedc
63dc
b701
b70c
e13c
5934
678c
66b4
5376
5335
13d6
145d
5e70
5e71
ee28
031c
c3a4
5e5b
7334
c427
f30a
cb83
601f
371f
5762
405f
e423
442c
4429
e458
e452
e45e
3918
428e
8d90
4254
6918
6912
535c
5355
c455
406d
5e17
5e19
3d5b
3d52
3d57
328b
3287
4322
5faa
32a2
532e
5378
708e
7087
6350
3d66
4faa
4fae
4fa1
3611
361f
5df6
bbcb
4e54
494f
68d2
e4fd
e4ad
e4a1
4e41
4622
5d55
43a6
43ad
63fb
5ecd
5ec0
5ec5
5ecf
44bd
44b5
44bf
e413
745c
4914
6258
6253
5e2c
5e2a
5282
5287
c47d
534a
5349
24b4
d0a0
615d
74a8
74a7
52a0
522e
5227
7498
7496
c4f4
c4f8
c4f6
c4f1
14ba
4df4
4df9
6941
8ca1
56a4
6455
6ca5
315a
3805
74f9
4e27
4e2f
64fe
64f0
26a0
3651
3d86
845c
4d5f
84f8
44fb
9e54
4412
4158
4155
1285
24fe
6110
4496
4492
6026
54cc
5054
0450
849a
6496
649a
43de
eca5
58c0
4443
32b3
536d
5363
0424
0425
36c9
431d
4dce
a4b4
0fa2
36ac
e2d3
3607
3605
3609
c0cc
c0c0
4ea3
a4cc
3d7e
5619
8321
83aa
5bbd
7ce3
f1b2
f412
ce70
337d
861e
ae85
b05a
57c0
99f0
79c9
6394
b768
adc2
f252
16fb
8e9c
ad9a
034b
9d64
ce9e
11c3
1348
17b2
23a0
209c
2032
211f
340d
3720
309d
3723
4ea2
4120
4eee
590c
5154
509c
524e
5243
5ded
6344
61ac
6129
636e
7af0
7c4a
740a
840d
86e3
9310
ae88
a982
b40f
cc4a
c318
e4b2
e4c3
e7f6
f00c
f80c
fc8c
fe67
00e1
00cc
00b9
0168
01ef
015a
3bb5
3b0c
3b95
3b9f
3bc6
3b83
3ba9
3ba1
1bd4
1b9c
9182
3f15
3f36
3f0d
3f5c
34c0
3477
34c1
6a91
6a42
6a76
6ab6
6a4f
6a8c
6adf
6acc
6a93
6a99
0a48
0a4b
0aca
4834
483c
4850
488b
48a3
4887
2f14
7b30
7b9c
9e72
3efd
382d
3876
3832
383a
3835
38f2
386b
38f8
38c5
eace
0c34
0c2c
0cd0
0c18
0cab
da3a
dae5
da84
2890
4b62
4b0f
4b67
0d24
396a
39b5
3960
39e1
3969
3962
3995
39e8
397f
3933
39df
397b
3992
39dd
39f1
39fd
3921
39c7
395d
1805
f02d
f0e2
f162
1580
1545
1532
152f
1530
8b3a
285c
45d5
b8d0
8dea
2d22
2d35
2d2f
2dbf
5fbb
5f7c
5f2f
5fd8
5f64
5f63
5fdf
5f98
5f6e
5fc2
5f50
5fb7
5f53
5f5c
4f3e
4f28
4f44
4fd6
4f4a
4f63
4f6b
4f12
4f9b
4f14
4f7e
4f1d
4f52
4fbf
4f5c
4f55
4f51
4f5b
4f81
cb2d
cb76
85d9
85d5
85df
85d7
85d3
8573
9c24
694b
6939
695c
695b
6959
bb56
0580
05b0
1a48
1a6a
1ab8
1a99
fa48
3a94
3a69
3a2a
3a71
3adf
3a6f
3a27
3ab1
3abf
3aa7
3aa1
ec68
ec3a
ece5
ec2a
ecf2
ecb1
ecbd
ecb7
4c91
4cd5
4c62
4c30
4cd7
4c07
4c53
5cd6
5c18
5c14
5cb0
5cfd
5cf4
4a6a
4a37
4a2a
4a6b
4a27
4a58
4a5e
574b
57b6
5744
5741
5752
5753
55b1
47e2
4704
47b0
3542
3539
35ee
35ff
35fb
35f1
35f7
35f9
49c8
49ec
498a
5e91
5eda
5e32
5eec
5ed6
5e65
5e95
5ed1
5e63
5ed0
5edb
5ef8
5efb
5ef4
5eb7
5e8f
4680
463e
463a
46e5
4636
4663
46e9
a8a4
8c62
8c04
8cd0
8c6f
8cd3
8c99
8cb2
8c5c
7ce5
7c64
7cba
7cc9
7cbd
1cce
1cf8
6cc8
6c31
6cba
6c7e
6cf6
5815
583e
584b
587c
5849
5835
5847
58eb
584d
584e
5853
585b
585d
2c35
2c70
2c20
f5d2
f581
bca4
bc74
bc2e
654d
5adc
5a20
dc42
dc22
dcf1
aa12
68f5
687f
68e3
68fe
68f1
6881
ac13
acfb
acfe
2554
0b26
8a0c
2a3f
2a04
2acb
2a10
b5b0
7a28
7a0c
fc02
fc3a
fc66
bb15
bb37
bbd8
bb7a
bbde
9042
881f
8858
88a7
a548
a5aa
a5ac
9a7e
c82d
7f18
5b16
6b80
2b0c
20e5
526a
5265
5236
5237
5230
5233
5279
521a
521e
5216
5219
5277
f848
f850
e814
e853
4238
423c
4261
4278
db72
db12
5168
517c
c468
c466
2278
1408
1432
1460
3739
3722
4102
21e7
218d
e415
e445
e438
e431
e461
e4e6
e4d2
4e08
4ec8
4ee1
4e3d
4ed8
4ee9
4eed
3634
36b8
36e8
3d06
3df2
3d7f
4def
3276
3294
32bb
327c
32b4
3194
3144
c1d4
81e2
541c
5474
7148
8290
##177
741b
7490
7465
7464
746e
44d4
61d5
6164
616b
c2e2
c298
16e9
7d7c
7d78
5de0
5dde
04e8
172c
4075
b415
b43c
f6e8
b178
3034
2663
2eea
1ea4
1ee4
3af6
8445
8476
841c
84d8
8430
9f0b
9e42
5615
567e
6264
5049
bd74
bdf2
a463
e7e1
a74c
cebc
6380
533f
5328
5369
5337
0e80
0934
b0fa
b074
43da
431c
830a
a04a
d3d6
a33e
cb81
465d
371e
c087
5763
4ef1
495d
cb63
e424
391d
3917
4282
4255
6911
302f
535d
5351
535f
c45a
c453
c45f
4068
406b
3288
3281
328f
432b
4326
bbb6
5fa3
32aa
32ae
36fe
5320
5377
708c
708b
4fa6
4fa2
3618
5dff
4e56
4e52
4e53
4e55
4e59
494a
e4fb
e4f0
4e4d
4e4f
4629
5ecc
5ec2
648a
142a
1353
4d64
4d63
4d61
e418
7457
4912
68c5
625e
3a4b
3a47
e4bc
e4b9
525b
525a
525f
e493
5e26
5284
5285
c479
534b
5346
5342
6373
615f
74ac
74a0
522b
5222
e44c
e446
e449
390d
31aa
37c5
8cab
8ca2
4452
1ea6
549e
54f7
4350
6457
3d9d
c058
4e2e
64ca
7423
1fa3
c3b3
3d87
3d85
04f8
64a3
14ab
441e
4411
eda7
149a
747e
7475
acac
1dc5
6021
7da6
c499
547d
84cc
84ce
8c86
8c8e
4d9d
3620
32fb
43fe
215c
741f
82d8
1620
53a7
52f7
17c6
17c7
bb61
748e
32b0
33a7
36c0
4688
6d54
cca8
24ca
3ea7
8652
c150
d481
802c
360d
6342
30a8
8760
1443
225f
818e
7ec9
d428
d422
f499
60cb
bea8
d47f
739c
df58
af83
b9aa
8944
a283
bd5b
1ca0
d65a
2cee
88c0
1370
88d8
bce8
13bc
a8c2
b2a8
734c
2350
8eaa
9faa
995d
fbb0
0fb3
0414
0724
0314
1e20
1098
1e66
12c6
222b
21e3
3002
340b
3120
370e
30b4
3277
3d0f
42f0
4220
4e10
4033
4ed3
460d
4edd
541a
53a0
5747
5743
50b4
504e
5ddd
6c88
6113
6221
6724
6c8e
6099
62cb
6127
742f
74b2
7793
7c8e
7750
726d
8c4a
8c4e
8c4d
81a0
8c4f
8e11
8726
90ba
ac88
a344
a226
be12
ce0f
cd77
d667
d1a2
e41a
e405
f348
fe18
f72e
00d6
00d2
009a
01b7
3ba4
3b4b
3b6c
3b9e
3bb2
3b50
3bb9
3bb1
3ba2
3b5b
3ba3
3fe4
3f60
3fb4
3fef
3fd4
3f1a
3f14
3f85
3438
3428
34bc
3461
3430
3478
349f
349d
3473
345c
345d
082d
0869
082c
0853
6ada
6ae1
6a7c
6a30
6a9a
6ac6
6a52
6ac7
6acf
6a88
6a83
6a87
0a08
0aaf
0adf
0aa9
4881
2fa3
d5d8
d530
7b06
7bf7
3e94
3e4c
3e95
3e3d
3e2b
3eed
3e0e
3e54
38d8
3871
38e0
3866
3885
ead8
0cbc
0cdc
0c82
daaf
daa9
2884
4b2c
4b61
4b7d
4b4d
4b4e
4b58
4b5f
03fc
0ddc
0d11
0d6b
0ddf
3932
3994
39ec
39dc
39e0
3979
39e9
396f
3927
3973
39ff
39c3
39cd
3923
39bd
3954
39bf
7642
f0ae
f1d3
15fd
3c18
8bd8
45d0
9435
94ef
1822
18e6
b84a
8d22
2dda
2dc8
2d77
5f34
5f76
5fbc
5f32
5fe4
5f25
5fb8
5fb6
5f31
5fe0
5f24
5f2b
5f67
5f5a
5f96
5fc0
5f6d
5f23
5f07
4f1b
4fd9
4f76
4f68
4f62
4f7c
4f49
4f4f
4f36
4fdb
4fe0
4f1a
4fd7
4ff6
4f46
4f23
4fcf
4f5f
cb4b
cb12
cb2b
cbfd
cba6
b679
8534
85ea
85dd
85fb
85a3
9c71
9cd2
5685
6960
696e
6958
bb53
1a2e
1ae3
1a1d
fa76
3a6a
3a32
3abb
3ab5
3a7c
3a31
3a61
3a72
3a0f
3a9c
3a24
3a1f
3a9f
3a7e
3a93
3a1e
3a16
3a19
3a6d
3ab2
3a23
3a07
3a5f
ec76
ec0a
ec7a
eccc
ec27
ec10
ecb0
ecb2
ecc6
ecbf
4c32
4c6c
4cdb
4c20
4cdd
4c55
5c3d
5c9a
5c20
4a38
4aaf
4a23
4ab3
4ab7
4aa8
4a5f
5749
5779
5757
55ea
556c
5598
5513
55c6
555c
55a0
472d
4790
4794
470c
478a
35f5
35eb
35ed
35fe
355b
5e6a
5e28
5ee4
5e1c
5eba
5eef
5e9f
5efe
5e6d
5ebe
5ebd
5e83
5e8e
4639
4666
4612
46cc
a85c
8c91
8c15
8c42
8c3e
8c32
8cc4
8c74
8cf2
8c09
8cde
8c1a
8c12
8cd7
8c7d
8cf0
8c52
7c15
7c90
7ce4
7cc8
7c7d
7cc7
1c1e
cc72
9542
95a5
6cb6
6c35
6c9c
6c18
6c5b
5848
5845
58e2
5841
582f
5863
585a
5810
5858
5855
5851
585e
5859
2c0c
f588
bc0b
bc1e
5a96
5a0d
dc39
ca80
688b
ac3c
ac3a
ac04
25d1
25f4
0bfa
0b7c
0b7b
0b0e
2ab4
b57c
7ac8
7a7c
7a83
bf80
bfd1
bb31
bbd2
bbf0
8862
883d
8810
8846
a5e7
a50c
d850
c827
ba8f
7f02
7f44
7f4c
7f88
7815
7818
78fc
5b0f
5b13
5b0e
0406
0409
6b0f
6b19
2b08
2070
5215
5260
520c
5241
5274
5271
5272
527e
f834
abe8
9b21
4265
4275
427d
4273
b96a
eb28
1169
110b
11d4
116d
c4d4
c4d3
2263
143f
1468
1430
be94
be61
370a
3709
4104
e43e
e460
e435
e4d8
e433
4eda
4e4b
4e39
4ee0
4ed2
4ed7
3625
36ec
36f5
3d22
4d8c
4db4
4de6
327a
32ba
326b
3275
3270
327e
2490
24d0
24e0
3122
c1e4
817a
81e0
8196
5415
5432
546c
82ca
826f
8f90
8f61
74d5
74ea
7460
747c
746b
7466
afdb
afed
44da
44e4
441c
44af
447c
4465
446c
4461
44e0
0f95
616a
612c
6163
61d4
6175
c278
7d48
7dec
7de2
7d79
5de2
5d8c
5de8
5d78
04ea
046c
cfec
17da
406a
4070
b4da
df66
6408
64ea
64fa
64d2
a9ce
3074
30d2
87e2
87d0
8778
a17e
d138
c04b
c095
8494
8460
84e2
846c
84e8
84e6
846f
1248
127e
9789
9e6a
c922
de4b
ded2
5091
793c
7920
e702
e7f2
2972
337c
7734
d228
d27c
fe80
5014
e934
d438
ce80
63c8
e1d2
a236
a27a
a26f
9da4
5360
5374
5336
533d
5304
f770
4017
13d5
1368
1369
e662
1458
c315
96e2
43c8
1044
5e5f
2305
22a0
7308
cb8e
601b
5761
5765
4058
e42e
4427
4e74
3911
4283
4287
e48e
5357
4067
5e18
5e16
3d5a
3d5e
3d53
3d59
5fa2
5fa1
538b
476e
4769
5372
5375
c44e
4a47
4a41
4a49
3d63
4fa3
4fa7
4fa5
2497
3612
5df4
5df7
bbca
4e57
4ec6
68d1
e4fc
e4f6
4e4a
4e49
43ac
6482
1420
e4c7
1350
5ea2
5ea1
625d
3a49
5256
525e
e496
e49d
5e23
c478
534e
84a0
6156
74a3
5223
522f
3907
390f
5482
5441
5449
42a9
4df7
bb82
542a
54f0
6450
6ca0
c4ce
c4c5
c4cf
4e24
4e23
64fc
c4b4
26a5
7426
c4a8
3d8a
44f8
64ae
642c
14a7
bca3
0498
5026
7ca8
7ca1
2da2
415a
149b
375c
7470
31b0
6117
5a4a
81bc
44ac
5ca5
4471
c3fe
7da7
14ce
c016
8c84
689f
4026
3622
32f1
7444
7446
744e
5062
4cac
4ca5
741d
ecad
58c7
33f5
83b0
5150
17c1
8479
8f50
748c
5361
23ab
6441
8ce6
8ce9
33a6
8444
8449
b457
be9a
be9f
2e5b
4af2
4afe
43b9
1475
431e
24c6
77ac
418e
8684
b427
360b
3054
1e4c
7768
c3e0
b250
044c
4d10
4d20
60ce
f088
7019
2484
51cd
53d4
6ce9
d8c6
d8ce
780d
8952
88c2
bdf8
628e
0355
132b
c910
0286
b188
a8c3
ee76
0f54
8ef4
6050
1110
62ad
71ff
790a
b0a2
8f86
0714
e892
d62a
23e0
d3c6
a7cf
96cc
0e88
0750
0e13
1224
1c81
1e86
2004
246d
2e2a
37a0
3dee
3046
44b2
4604
40fc
4c47
4e11
4e1a
409f
5093
509d
6c4a
62f0
6c43
610e
67b0
626d
6b4d
74c3
741a
740d
7120
7e10
7d0e
7e0f
82c2
8348
841a
97c3
a724
a40a
b1a0
b7aa
bb4d
c2b9
c222
c030
d70e
d3d2
d79c
e06c
f008
00ea
0128
0102
012f
0177
0123
3b02
3baf
3b7c
3b9d
3b27
3b97
3b96
3bb3
3bbf
3bb7
3b5c
3b8e
1b48
1b66
1b98
1b9d
1bbf
9168
3f41
3f2c
3f9c
3fee
3f2e
3faa
3f99
3f57
3fa1
346a
34d5
34d2
34e9
3427
3426
3419
34c2
34a6
0831
6ad9
6ae2
6a49
6ad1
6a75
6ac0
6a4e
6abe
6ab7
6a55
0a98
0aee
0acc
0a51
0a5e
48d8
484e
4877
2f02
2f9c
d51f
d5f8
d55c
7b19
7b88
9e7f
3e38
3e3c
3e20
3e13
3e59
38dc
3879
3892
38a0
385d
0cb8
0c14
0c07
da0c
da83
da8f
2891
28d8
4b31
4b7a
4b54
0d6c
19bb
391b
39e5
3936
39f5
392f
3961
39f6
39e3
398a
39f7
3956
3987
7608
76e2
7672
1802
f0c2
f136
1006
3c1b
3ce5
3c98
3c97
3cff
3c16
8b68
8b60
45ea
45b4
45d2
45cc
458a
45b1
9465
9419
188c
b815
b86c
2d04
2d29
5f69
5f62
5f35
5f36
5f37
5f7a
5f71
5f1f
5f2e
5f27
5fb2
5f57
5fbf
5f5b
4f3f
4f6a
4f32
4fc4
4f3c
4f3d
4f47
4f31
4fd1
4f71
4fd4
4fe6
4f2b
4f7d
4f2e
4f5a
4f4d
4f26
4f99
4f19
4fc2
4f77
4f57
4f53
cbf7
85db
8577
8553
0278
9cb6
9c35
692b
bb5a
8250
1a05
1ae0
1ab0
1a50
fa15
fa02
fab7
3a7f
3a75
3a9e
3a1a
3a92
3a67
3a1d
3a21
3ab9
3abd
3ab7
3a8b
3a83
ec0c
ecca
ecba
ec70
ec24
ec9f
ec20
ec52
4c39
4c25
4cec
4c3c
4c3a
4c35
4cfc
5c02
5c65
5c7a
5c30
5cfe
4ab5
4a95
4a7a
4ad2
4a98
4a99
4a57
4abf
5745
57ea
5702
5798
575b
c601
5580
5534
55ed
5550
472c
4753
35ea
3594
35fa
351e
4991
49cc
498f
5ee7
5ea4
5e94
5efa
5ef5
5e6b
5e33
5edf
5e93
5edd
5efc
5eb0
5eb2
5e82
5e81
5e85
4665
46e0
464d
a8e8
8ce7
8c69
8c65
8cd8
8c70
8c7b
8c14
8c17
7c60
7c0c
7c0a
7c6c
7c93
7cdd
7cf0
7c29
7c56
1c95
1cc7
cc5f
954a
6c32
6cb5
6c60
6ce2
6c71
6c66
6ccc
6cff
6cb2
6c50
5832
5831
586f
5867
5816
2c28
2c56
2c58
f53c
f522
f565
f5d4
f5fc
f577
f58b
bcc8
bc64
bc6c
bc92
bc67
bc6d
5a0b
5a24
dc9d
dcd3
aafa
aa96
aab1
cad0
6834
6890
6828
6876
ac48
ac0e
2502
25fc
2519
2aa4
2ae0
2a54
b5e6
b558
7a5d
fc68
bb45
90de
88ba
8888
a502
d8ed
d886
c882
bad2
ba79
bae9
baaa
e5d8
7f4a
7f78
987e
98fc
6b15
6b10
2b49
2038
20e2
207b
5239
5225
5261
526b
5275
5266
5298
527d
f815
f828
f8fa
8efa
4262
429d
1fce
1f9b
1f87
b9ec
eb7f
ebf6
510c
1134
1166
116e
c469
c4dc
c46c
c4df
c46e
2248
2264
1445
be8c
be64
bef2
372a
4108
4168
4135
414a
416c
4170
e4d5
e4a4
e4e4
e465
e436
e437
e43d
e430
e467
4ed9
4ee7
4e32
4e25
4edf
3d38
3d62
3d3c
3d0b
3d8c
3d09
3dd0
3271
e2e2
24ea
2432
2460
31ec
31dd
8642
8645
86c4
c108
c10c
c17c
810c
7164
1dd9
829d
ed1b
edc8
8f60
7408
7438
7494
7436
74d4
74e0
74d2
7433
60d4
af90
afb6
44a4
4490
4494
44ec
44ed
0fca
619f
f20a
f272
c268
7d44
5dea
0474
407d
4077
b4e4
b460
f635
df4b
641b
64e5
64db
6433
64d3
64e3
a98d
a930
30a4
3077
87b8
2e1c
2ee2
89ba
1e04
a13a
a17f
fd28
d174
d16f
c048
c0e2
8491
8490
8468
8432
84d6
8461
84de
12ed
9fe5
9e62
9e36
7e48
56e2
62a4
6261
626e
6f34
6f12
de90
ded8
50e5
50db
a4fa
a430
d97a
a704
927e
77e4
2780
fe48
ceed
cd42
cdb8
7261
7210
dd42
67b4
9d7f
5306
5339
0e35
401a
1362
e674
99ba
f4e2
1454
1457
1451
6e90
eef5
a04f
1042
1028
5e5e
245c
93a4
933c
f308
465f
6019
371d
3710
c088
576c
165a
4956
4950
4957
c0a3
e427
4e70
4e77
4e75
3912
4281
4259
e483
2082
3d5c
3d55
3286
4324
bbb5
5fa6
5fa7
5386
4767
36fb
36ff
4faf
3613
3619
5dfd
5dfe
e47f
4ecc
4ec5
4ecf
e4f4
e4aa
e4a9
5458
4e4c
4e43
4624
462a
4623
4620
43aa
5ecb
5eca
5ec3
5ec1
5ec9
648e
1429
44b6
e4c9
e417
7455
7459
5ea6
5eae
e4b3
32c1
5e2e
528c
528a
2d5b
2d53
2d5f
534c
534f
24b8
84a5
615b
615e
74ad
74a5
74a9
8423
5226
e444
5484
5447
c4fd
c4f5
694a
445b
5422
54fc
54f5
690f
6ca3
3d94
3802
c4c2
c4c1
c4c9
4e29
54b5
54bf
7424
7427
1fa8
365d
3d83
8452
4d5d
4d51
04f5
44f4
64a8
6425
14a0
14a9
9e5c
9e58
9e5b
4410
40cc
bcaa
8358
2dac
2dad
74ca
1498
149d
1492
24f6
44ab
447b
4472
4477
c372
c3fb
6023
848f
54c5
5479
5050
84cd
c010
8c8f
4d9b
3621
32f4
32f2
43d4
43df
506e
5894
54a0
52f9
5b5a
3326
4444
847d
a422
a420
a48e
8f52
dca1
32b7
5364
536b
2e70
8ceb
2e52
6d50
6417
1472
b496
b4b8
b4b3
3db3
301a
d89c
4183
4185
868a
9e46
7956
360e
3057
fca9
1e41
5413
7e96
c326
5d8b
f062
7ea0
1e55
4da9
8398
afa0
29ae
29a3
29a9
580e
f428
5dae
7ce8
f1ba
0447
4d11
83c9
d3e2
80cc
2ca6
1d50
d450
f49e
d91e
ff5c
bdad
b787
b9f8
37a6
04cb
369c
f4be
fb50
73e2
03b7
16c9
af5c
be74
280d
f4c0
96f6
c116
2bc0
2470
a055
cd98
a34e
26cf
9a43
e024
d32c
21cb
21c7
6f58
cf84
0fbf
c688
1df8
b7ce
8fcf
aff4
0e50
07b3
13cf
1c87
1e17
131d
1dbf
2e12
280c
3184
3124
3363
3707
37f9
403c
4154
4c8c
4402
4c46
4e66
4409
4dee
4c85
4031
400e
4126
42be
436b
5404
580c
5406
50fb
50fe
530e
56b0
530d
52b0
642f
6123
630e
6e6d
610d
740e
740f
7c4f
7edd
798e
87c3
836c
8402
8c4c
8c46
8222
8246
87c2
89ee
860b
9ec2
979d
a60c
ae1a
a72e
ad20
bc8c
b093
bc8e
beb0
b984
bb4e
be8f
c002
ce50
c064
cc43
c120
c220
c124
c38c
c0f9
c367
d154
dc4d
ddb0
d00b
e90c
e6b9
ec44
ec81
ee14
ec85
ec87
e00f
e7f7
f006
f2b1
009f
00f4
0125
01c8
01fd
018e
0181
3b42
3bfe
3bf0
3bc3
3b53
3bae
3ba7
1b06
9190
91fa
9174
912c
9173
918e
3f2d
3fbc
3fe1
3fd6
3f47
3f31
3f1e
3f0e
3f29
3f8b
34ea
344b
34ca
34e5
34f5
3464
34ba
3498
349b
34aa
34cd
34c6
3423
34c7
3451
0835
082f
6a47
6a73
6a43
6a50
6a84
6a53
6a86
0aa1
4810
2fea
2fe0
2f0f
d51a
d57d
d5b9
7b22
7b4e
7b50
3e34
3ebc
3e6e
3ef8
3e5a
3e1e
3ef4
3828
3833
38e3
3826
38c1
ea9e
eac6
0cc8
0c36
0c20
0c16
0c54
0c58
dacc
dab9
daad
282c
2878
2818
28a6
4b71
4b7f
4b78
4b7e
0d15
19d0
196c
3922
3971
39ef
39db
39e6
3977
3950
395f
76b8
761c
760b
766c
f042
f0fa
f022
f070
f09a
f0f4
f055
f05e
1005
15df
152b
1527
3c31
8be2
8b65
8b6c
8b33
8b43
8bf0
8bac
4576
456e
4510
4577
8dfa
8df3
2dd9
2d28
2d60
2db4
2d31
2dd1
5f65
5fce
5fd0
5f66
5f9e
5fc1
5f58
5f55
4f2d
4f38
4f94
4fb8
4f60
4fce
4f2f
4f7f
4f33
4f6f
4fc0
4fc3
4fc9
cb38
b6ea
b652
853d
8575
85de
8512
85c0
0215
026c
02c9
9c78
9c70
9cde
9c14
9ca0
5684
6945
6967
695f
0569
059c
05f0
0553
1a9b
1a14
fa65
fa29
3a3a
3a95
3ad8
3ad7
3a17
3ac3
3a29
3aae
3a8f
ec3f
ec15
ec06
ec94
ecc8
ec60
ec3c
ece2
ecf5
ec04
ec64
ecdb
ec75
ec73
ec77
ecb3
ecc1
eccf
4cea
4cb6
4cfa
4c2c
4c3d
4c7f
4c14
4c1e
4c96
4c0e
4cc2
4c54
5c15
5ce2
5cf6
5c5c
5c5b
4a0c
4adc
4a78
4a33
4a70
4a66
4a86
5794
57e4
574f
5705
57be
5751
575d
c6f2
5515
5564
55d4
55d2
5556
4738
4778
35b0
3558
4906
4932
4935
49b0
49fd
49c7
49a7
5e68
5ed4
5e9e
5ed7
5e9a
5eed
5e96
5efd
5ebf
5e88
4694
46e1
46c5
8c2d
8c7c
8c33
8c66
8c18
8ccb
8c9d
8ccc
8c23
8cb1
8c59
7c02
7c65
7c6f
7cd3
7cc3
7c58
1c05
1c52
cc2a
ccd0
cc6f
9594
954e
9558
6cbc
6cb8
6cd0
6c30
6cd4
6cdf
6c70
6cde
6c9e
6cfc
6cc0
6c29
6c77
58e4
584c
58e5
5872
5846
5857
2c39
2ce5
2c9a
2c2b
2c7d
f52c
f5d1
f564
f5f2
f5e0
f5b0
f5b1
bcb9
bc59
6534
654a
6507
5ae4
5ad0
dc02
dcd8
dc6c
dc9e
dcfc
aa3c
aacb
aab0
aa77
aaac
aab9
aac9
aaa2
aa59
caca
68e0
685d
688f
ac90
acfa
ac74
ac67
0be8
0bee
8a2e
b59c
b592
b55a
7a2a
7a7e
fc2d
fc2a
fc70
fc50
fc54
bb91
bb38
bb41
bbe5
bb0f
bb96
bb21
90d0
90d4
9070
90e3
8848
a512
a521
a55c
d8f2
d8e0
9ab0
9a86
c8e2
c850
badf
ba5a
c58c
c533
c55e
e508
e532
7f90
7fdc
7fd8
98f8
786c
78fe
78a8
5b48
75cc
7558
6b02
6b49
6b09
6b16
20f2
527f
526d
ab3a
4215
4294
42e4
4279
427b
4292
1fb8
1f18
db80
eb38
eb11
eb92
512a
51e0
5167
c62e
1139
1168
11e2
1109
1167
c4a4
c476
c4db
c4d2
fb08
227b
1442
14c4
14af
be08
be30
371b
37da
374a
370f
41e1
4144
412c
410f
419d
214b
2102
e439
e4af
e474
4e3e
4e68
4e95
4e04
4eba
36c4
3dc8
4d34
4d15
4d25
4de1
3261
246c
24e8
3142
31ef
867c
c1c4
c195
8191
8106
8176
81c8
811c
8122
546a
5439
5468
5460
54eb
546b
8248
822d
827a
8230
826b
ed2c
8f76
8f74
7445
7468
74e4
74c4
743d
7461
7430
74db
6034
afe2
4408
4476
4462
44d1
0f8c
6125
611c
6169
610f
c271
c270
16db
7d0c
7dd0
5de7
5dfa
5def
5ddf
04d4
046f
046e
171b
1735
1733
404c
40e8
407b
b46a
f638
f6e4
df45
643e
644b
64e0
a962
a98c
30d6
8734
2e63
2e6c
1edc
a1a4
a1da
a1e4
a14c
c06a
c025
c070
843e
84e4
843a
84dc
8437
84e9
9fd6
9e38
c738
c7e2
7eec
7e04
7e30
56e5
6215
626a
62b5
620c
c9d8
6fdb
de02
5045
50ea
50e2
79d0
e73a
e749
29af
d639
a706
a7d8
9242
92b4
7731
ef34
d239
501c
aeb4
aeba
aee0
e932
e9e4
e931
80e9
5970
7248
67d9
6648
9d69
b27f
b21d
536a
5302
53dc
f708
f7e2
f70c
0e34
0e30
4010
0734
6d91
6d48
f9d0
948e
99e0
f468
f431
d0e1
1455
70e2
b090
c360
83d5
8390
8304
5e5d
5e59
23c4
b3c8
a390
a304
f305
c08c
165c
22ff
c0a6
c0ae
3919
e48a
3024
c45c
5e1d
3d51
3d5f
328e
432e
5faf
5387
5325
537b
5371
5379
4fa8
3617
e475
bbcc
e4a5
5d52
43a3
63fa
135c
4918
5ead
5ea3
5ea7
6252
e4b6
e4ba
5255
e49f
5e21
528b
5286
5281
c47f
84a2
6155
52a6
52a3
e443
5486
749f
c4f7
04b9
4df3
4df1
6947
694f
41fd
8ca8
8ca6
8cae
8ca7
445c
4458
44c5
645a
6caa
3d9c
3d96
500f
c4c6
64c1
c4bc
c4b8
c4b1
742b
7d56
7d59
1fa6
3655
3df0
c4ac
c4a3
8458
64bf
642a
14aa
9e56
9e57
441d
8158
40c6
049b
502b
7cab
7ca0
2dae
2da0
74c5
74c9
74cf
1493
aca2
1284
24f8
5a46
434b
44a9
5caa
447d
5033
5039
449c
c48a
c48e
c487
c481
9e9e
7da5
8484
8486
84b0
c49c
505a
8c8a
8499
fd88
402a
58d2
58df
7441
744f
506d
5060
4ca0
7411
82d2
82d0
82df
eca3
eca9
54ac
54a9
58cc
5b54
5b57
5b5f
5622
444c
847e
a428
43ec
8f5e
7488
7481
a4f6
32be
32bf
2e74
2e78
6444
6446
644d
6443
8ce8
c1b8
4486
0420
325d
36cc
6418
6410
b498
41b8
5082
2423
7afc
7958
22c0
fcaa
c32a
6324
a4c0
b4a9
ed8a
cd50
7a47
5614
2250
83a6
c1f0
c34b
7ec0
8d50
d3ec
5dce
8086
2950
7d10
ce72
60cc
889a
a4aa
e68e
e685
739a
78d0
78df
925d
d4fc
53d8
6ce0
d4a7
9015
9398
a35c
73e4
03b9
041d
af58
2ce6
2cef
f4a9
2808
241e
90c0
7d6c
70ab
a150
d76c
72a0
d39e
dbb2
bdc1
2b50
ebba
ebb9
c6a6
f6f0
d3b8
76a0
71f6
cce8
7710
d35f
e3e2
b95c
669a
93ac
a782
bfac
6650
b3ec
9619
c713
f378
8a4a
b39e
f8d8
1a46
8fff
d6cd
c757
9dc2
e9c6
d1cd
67c7
0ff4
07cc
07ff
1af0
10fc
1612
112e
1c4e
1120
10b4
240e
27f4
2914
21ac
264d
20f4
2e0e
2e17
2e1e
23df
300c
360a
33a0
340a
3032
3ded
4344
40f3
4e18
4333
4405
4030
4364
436d
41a1
41e3
51c6
5002
5e2b
50f3
640e
6c8c
640f
6c8a
6096
6097
63d0
61a1
6121
7402
7318
703a
7319
7db1
8414
80b2
822a
8032
872b
82c0
8e86
866d
9ea2
9720
9096
a03c
a40e
a36f
a60e
afbe
b60c
b00d
b720
bdb0
c382
c184
c22a
c035
c0f6
c00a
ceb3
d03c
d41a
d40a
d1ac
dc8a
d60e
d3d0
e3a0
ec83
f798
00da
00e4
0165
0174
0137
01d0
016b
017d
0167
010d
01f4
01c1
0186
0187
3be7
3be1
3b4a
3b8c
3bdd
3bfc
3bff
3b07
3bc1
3b87
1bb1
1b56
9134
9194
9178
918b
3f28
3ffa
3f1c
3f44
3f63
3f11
3feb
3f96
3f4d
3f19
3fac
3fc9
3f5e
3fab
3fad
34fa
342f
34ed
34cc
346e
3497
34c3
3457
34b3
3456
082b
0854
6a45
6ab5
6a4c
6a7a
6abf
6a56
0a2c
0ad8
0a50
4828
48c8
48ba
4824
48fc
48aa
48f0
48b1
4853
2fe4
2fc4
2f60
2fca
d5d0
7b15
7be5
7b54
7bad
9e7a
0804
3e15
3e42
3eec
3e64
3ed4
3e16
3e17
3822
3863
389b
385a
38c7
3855
ead3
eacf
eaa0
ea83
eaae
0c94
0cb4
0c61
0c78
0cf0
0c23
0cae
dab5
da8c
da5c
da87
28b5
281c
281a
2820
4b69
4b2f
4b73
4b6d
4b77
4b59
0da4
0d30
0d85
19bc
19e1
1993
39b4
399e
3996
3929
39a8
395b
39a1
7634
7668
7660
f034
f0d5
f04b
f07c
f099
f052
f053
f0a3
f168
f112
156f
1573
15fe
8b08
8b42
8b62
8b6e
4591
4534
456a
45f2
4561
455a
4557
45f7
9084
18b5
1870
b8c8
b884
8d74
2d1b
2d62
2dd0
2d66
2d7e
2dc2
2db2
2dc6
5f60
5fe1
5f4f
5fca
5fdc
5f3d
5fba
5f6f
5fcb
5f73
5fcd
5f21
5fc9
5fbd
5fc7
5fcf
4f75
4fd3
4f6e
4fdd
4ff8
4f16
4fb9
4f5d
b670
8545
8590
8536
8520
8546
8588
0260
0298
02f7
9c6a
9cec
9c63
693f
6990
69e2
693d
6931
692f
6963
69c5
6956
695d
bb55
0594
050f
055d
1a90
1a7a
1a54
fa58
0d92
3ad6
3acc
3ac7
ec90
ec38
ec28
ec1c
ecec
ecaf
ec74
ecd0
ece8
ece0
ec67
ecc5
ecc2
4ce7
4cc4
4c69
4cb4
4cef
4c33
4c98
4c18
4c6e
4c10
4c26
4cb2
4c56
5cec
5c3a
5cb4
5c6c
5cc5
5c50
4a11
4a12
4a18
4abe
4a8e
57ba
5719
551c
4722
472f
477f
4712
47d3
47dd
4797
470e
47aa
4723
47a2
353f
3590
3560
3510
3543
497c
49d4
497d
49ed
49fc
49be
4984
49f9
5ebb
5e60
5e35
5e30
5e66
5e99
4691
46bc
46c4
461c
4672
467b
46f0
a884
8c68
8cfa
8cd4
8c72
8c98
8cf8
8cc2
8c0d
7cca
7c04
7cd8
7c71
7c66
7c9e
7cd7
7c20
7c2e
7cf6
7c96
7c16
7c99
7cfd
7c5c
1cd8
1c30
1c98
1c92
1cff
1cc2
1c58
cc6a
cc70
cc20
cc10
ccbf
95da
959a
6c91
6c06
6c90
6c94
6c25
6c0a
6c04
6c7a
6c33
6c6f
6c9a
6c14
6c9f
6c9d
6c10
6c07
6cf3
6c58
58e7
5869
584f
5814
58b3
58b9
2c60
2ce2
2c24
2c5d
f548
f5e4
f54a
f537
f52a
f52f
f5ba
f5ee
f55a
f556
bc1b
bc0a
bc37
bc9f
bc0d
bc5c
bc5b
650c
6558
5a34
5a3a
5ad6
dcec
dc65
dc2a
dc31
dc1a
dc9f
dc96
dcc7
dc5e
aa38
aab8
aadc
aa2c
aad8
aa27
caba
68a4
6888
acd9
ac6c
ac78
ac20
ac92
ac2e
ac21
ac50
ac53
25b8
25df
0b15
0be4
0b44
0b9c
0b18
8a90
8a64
8a52
2a31
2aac
2a85
b52d
b595
b59e
b58e
7a48
7ab6
7a04
7aad
fce7
fcec
fce5
fc6b
fc12
fcfb
bfc0
bbaf
bbf8
9028
90e4
904c
884b
884a
a580
a54a
a510
d8ec
d8e5
d8ae
d8ad
9a34
9a6f
9add
c8c4
c826
ba8d
ba0c
ba1a
ba58
c512
e542
e538
e5b5
e5b8
7f66
7f19
9815
78c8
7822
7864
7870
5b02
75bb
75b0
7554
040d
6b42
2bec
2bd4
2b0d
2091
523e
5290
52b8
52c8
526f
5292
f8b4
ab68
ab18
8e6a
8ea4
8edc
8e30
9b92
4228
4239
4204
1f28
1fc4
b93c
b930
b96f
db15
db2b
db19
eb04
eb19
5134
5115
5136
5164
1115
111c
110a
c491
c4da
c4c8
c46b
c4d7
c4ee
fb80
221b
143c
be80
bee1
378c
37ee
4138
41da
4160
412f
41d0
2130
e4e1
4e15
4ed1
36c8
36e2
36ce
36ba
36d2
3da4
3d2c
3d2a
4d4a
4dd4
3268
32c8
321c
3211
3279
327b
e230
2468
24dc
2464
2433
31ea
318c
3105
319e
863e
86e2
86dc
c14a
c1d8
c1d2
8104
5408
54ea
5476
54fa
54ef
546e
714b
71c8
714a
ed34
ed3a
ed4c
edef
8f48
8f28
8f22
8ff2
8f1f
8fcc
7442
7469
743a
74d1
74d8
74de
6070
af95
affc
44ea
44c8
44e1
4474
0fd0
611b
613f
f241
c20c
c24a
16e5
1663
7d08
7dc4
7d49
7d04
7de8
7de6
5dec
5de1
5d7c
5d05
5d7a
5ddb
0434
0438
0460
04e2
043d
4042
40e2
4049
40dc
b476
b4ed
f634
f61c
f6e2
f649
df01
cbb1
b14a
b17b
646a
64ec
6437
6431
64dd
302d
3090
3028
3044
30e2
30e3
872d
872a
2e34
2e38
2ec4
2ed7
89e0
1ed5
1e61
a10c
fdf2
d1fa
d1dc
d1d8
c03e
c0d6
3af8
8448
84fa
8469
8466
84ed
84e3
1269
12ca
e094
9e91
9e68
9ee2
9e65
9e37
c7dc
7ede
5634
563a
563d
624c
62e6
6270
621f
621d
c948
c92a
ff80
6fb8
6f3a
6fe6
5090
50da
504b
50c8
50e1
bd08
a415
a4e0
d6e2
d72c
92c4
92af
92ca
9272
7715
77e8
2790
2794
2770
ef0c
d2ec
d2af
d2ba
e9bc
8028
8070
807e
d4da
d4e2
d4e9
cec8
ce69
e101
e128
e1fa
592c
72e8
a217
9d34
9d7c
b280
b21b
ad06
ad30
add2
0eec
0e6c
09d4
6d37
a642
a6d6
f448
d0c4
1450
7034
706a
b0f2
6e3c
ee15
0360
c390
963a
a0dc
936a
93c4
a3a4
f309
c0a5
e45d
2699
535b
c45d
c452
bbb0
bbb7
5fad
32ab
5324
532f
2498
4ec7
e4f5
e4ab
43a0
6481
44b1
3346
e4cb
e4c1
e4cf
5eab
5eaa
5ea5
5eaf
625b
6250
6257
6251
625f
5254
5257
e49b
e499
2d56
2d5a
2d51
c473
615a
74aa
74a2
5229
3904
749b
7499
c4fc
04bd
14b6
3383
338f
8caa
8ca3
54f4
54fe
44c9
4356
645e
6902
3d9b
3e7c
3e7d
3e7f
7e7c
7e7d
c050
380e
3809
6470
6475
64cb
64f8
64fd
64f3
64f5
54b4
54b1
7d5e
3dfd
3768
c3b1
c4a1
84fc
84fe
84f0
44f6
64b4
64bd
64be
64ac
64a0
6424
642b
b085
14ac
14a2
50ac
53fe
bca7
5024
2daa
2da7
74c7
c2d0
4159
1496
3758
3752
7471
aca6
aca9
128a
74b4
81be
44ae
44a7
4478
4498
449d
449e
c486
c37d
9e98
9e99
c3f6
13d0
8487
84b8
84b7
c496
c492
c497
c49f
c250
14ca
54c2
54c0
5472
5056
84c0
0459
8c87
32d9
649c
649b
04a8
4d9e
4d90
402b
43f9
58dd
744c
7447
215a
3088
4ca7
7416
7412
54a6
54a7
58cd
53a8
4446
4447
43e4
a488
a48b
bb6c
bb67
46ac
46aa
748f
a4f3
644a
8cef
33a2
33a5
51b4
51b9
be9b
0e54
4488
36c6
43b8
468b
7d94
841d
6d5a
1478
ccaa
53bd
b492
b4bc
c3ac
3eac
3ea8
3dbd
8bbe
239a
77a9
7faa
242b
83e0
c2f4
1418
8026
9e4e
b428
22cc
40b4
fcae
1e4d
1e47
12f6
5416
d2a7
2ef1
a4c5
a45e
1447
cd54
c02c
c020
f421
86f4
86f0
b915
437b
5da8
b4ca
0250
51f0
83a8
8182
818f
9650
50cc
50c2
31f0
5bcf
e08b
f41d
2eac
2ea6
9e82
cda9
791c
7d86
928c
d3e9
869c
869b
d918
f082
fd52
72d7
7efe
bda0
7394
8bc4
9250
048b
63ea
93f4
b48a
4118
675a
16cb
7806
101e
2ced
aa44
dceb
f48a
41cf
2bb0
02d8
1af4
a49f
bced
bce9
5112
dd9a
79cc
79c3
93e4
cdce
cdc5
2e4c
1111
adc0
77c0
7f2e
7f23
ce58
161f
6df4
937d
bf5a
bf50
26c0
a418
23b5
a1cc
1150
9e2c
9e23
d25a
e324
0fb9
16a6
ee92
26f0
ad19
f9f1
e80d
d9fc
6b82
2610
668b
036c
0313
07f8
07a8
07a1
126d
12c9
2404
2e2b
2402
2046
2e24
27b0
3729
3220
300d
304d
30ba
3727
30fd
36e3
3d43
3721
441a
4456
40b2
4c43
411f
438a
4c83
460f
4db1
4e07
5064
5612
540d
5314
5307
504d
52b1
50ba
509e
5d20
6414
6c4c
600d
6c82
6c83
7224
7348
7e71
7c81
7405
7c87
7388
7e6e
779b
8456
8c47
840a
80b4
830e
831a
8eb2
80b0
86bd
8799
9222
9c85
90f0
92c3
9312
9316
90b7
aaf0
ac81
a409
a0f4
a388
a31d
a98f
b7cc
b402
b064
b74d
bc8a
bd24
be11
bd07
b2bf
c344
c2f0
c04d
c0fe
c22e
c1ae
c00e
cc8b
c26d
c0f8
c0b9
c387
dc8c
dec2
de17
de8a
ec46
ec43
e64e
ec4d
ec84
ec82
f03c
00f8
00fc
016c
01fc
01ff
01aa
01bd
0182
3b39
3be4
3b49
3b35
3b0a
3b2c
3b04
3b7a
3b33
3b70
3bd7
3b6e
3b93
3bf1
3b84
3b88
3b55
1b44
1bdd
1bf0
1ba9
3f38
3fb5
3fc4
3fec
3f4c
3ff2
3fd0
3fba
3fdb
3f70
3f7b
3fde
3f6e
3f46
3f73
3fff
3f16
3ffe
3f1d
3fc6
3f84
3f53
3fa8
3fae
3f8e
34e7
34da
3425
34e1
3462
3463
34d3
3499
34a2
0833
0846
084d
08b7
0883
6ad2
6a79
6a0f
6ade
6a16
0a3f
0a22
0ad0
0a0d
0a58
0a8e
4815
48bc
4849
4835
48ca
48b4
486c
48e8
4811
4866
4898
4846
4826
48f4
4858
2fe2
2fd6
2f9a
2f77
2f5c
d54c
d5e0
d50d
7b3a
7b98
7b24
7bf8
7b1e
9e78
9e7e
9e77
2d90
801c
3e08
3ed9
3ebb
3e60
3e3a
3e4f
3e05
3e09
3e1a
3ed7
3e9d
3e19
3ecd
3e57
3eb3
384b
3825
38ca
3836
3847
3875
3810
3816
38be
3853
38a8
385b
388e
3887
eafe
0c2d
0ca4
0c1c
0c3c
0cf5
0c7a
0c11
0ce6
0cf8
0cfc
0cb0
0c4e
0ca3
daea
da1c
28e4
28c4
287e
28b3
4b7c
0de0
0d7e
0d26
197a
196e
19ac
1986
3942
762a
7678
765a
7681
f038
f028
f0ec
f0d6
f0dc
f09b
f05a
f0b0
f0fe
f058
f05b
f0a9
f122
152d
15da
15cc
3c65
3c19
8b63
8b9a
8b92
8bf6
8baa
45da
45ec
457c
4535
4564
45e8
45d4
456b
4512
452e
45f8
45e3
1861
18c0
b8e2
b812
b885
8d60
8d30
8d6d
2d68
2d7f
2d2e
2d84
5fd9
5f28
5f39
5f6b
5fde
5f9b
5f4d
5fc3
5fc5
5fb1
5f51
4fea
4fc8
4ff1
4f58
cbd7
cba3
b602
8515
85e2
858c
8565
85ca
8578
857d
0274
9c08
9ca4
9c2a
9c2f
9cd0
9c1a
9c0d
9c5e
6936
69f1
bb50
825c
8258
168c
1688
051b
0591
faa9
3a91
3afa
3a8c
3a3d
3ad3
3ac6
ec2f
ec09
ec61
ecd4
ec6b
ecde
ecee
ec1e
ecf1
ec57
ecb9
ec55
4c2d
4c7c
4c61
4ce8
4c78
4c24
4c67
4cff
4cfe
4cf0
4c19
4c6d
4cc3
4cc6
4c0d
5c1b
5cd5
5c1c
5c62
5c0b
5c74
5ce5
5cf5
5c31
5cd1
5cf2
5c12
5c92
5ccf
4a2d
4ac4
4a74
4a31
4a64
4ad4
4a14
4a8a
4a85
57b8
57fa
5735
57e5
57f2
57ed
5727
c6fa
c6ba
5508
55a4
553e
5538
5560
5562
55d6
5547
559c
55de
55cb
552e
55be
55c5
5559
47c8
47c4
47ec
47d8
472b
471d
4752
4784
4783
4751
357a
359b
359d
3516
35a0
35a2
355d
4934
4925
49c4
493c
49dc
49e6
496d
49c1
4985
5e90
5eb5
5eb8
5ee5
5e04
5ef2
5e9b
5ed3
5e8a
4615
46b6
46fa
4635
4675
466f
4610
461d
a8e2
a820
a877
a8f4
8cd5
8c0b
8c31
8c05
8c6c
8c7f
8c78
8c0f
8c67
8c1e
8c19
8cc5
8c77
8cc6
8c50
8c54
8cf3
8cf9
8c56
7c34
7cea
7c69
7c62
7c3a
7ce2
7cdc
7c3d
7cd1
7c7f
7c33
7c72
7c18
7c97
7c26
7cb0
7cc2
7ccd
1cfa
1c1c
1c60
1cca
1cd4
1c6f
1c12
1c24
1c18
1cc6
cc48
cc15
cc4b
ccec
ccd1
cc61
ccba
cc18
cc57
cc23
cc50
950b
958c
6c15
6c68
6cd6
6cb4
6cd8
6c7f
6c98
6c2b
6c92
6cf8
6c26
6c0e
6c99
6cf0
6c53
58d5
58a4
58b8
5812
58e3
5884
2c38
2c95
2cd8
2c13
f590
f51c
f5d6
f5dc
f570
f51e
f513
f5fe
f5ac
f5c7
f586
f558
f551
f585
bcd9
bc38
bc32
bc0c
bcf5
bcce
bcba
bc78
bc0f
bc9a
bc99
bcb2
bcc9
bcf4
bc51
65fc
654e
6553
5abe
5a50
dc2d
dc60
dc0a
dc2c
dcd0
dc12
dc16
dcb9
aa02
aa64
aa09
aa6c
aa70
aa5a
aaa6
ca6a
ca24
ca20
cac0
6874
68fc
6882
aca4
ac65
ace5
acdc
acd0
ac7f
acd7
ac14
acfc
acc0
2580
0b70
8a38
8a20
2a32
2ac2
b591
b594
b57a
b510
b58f
7ae4
7ab8
7ad8
7a71
7a7f
7ac0
7abe
7a50
7a51
fcd5
fc4b
fcb6
fc3d
fcdd
fcb7
bb80
bb90
bbda
bb98
bb9a
9076
90e1
90d8
8872
881a
888e
a5fa
a59a
a5f4
a553
a55e
d8e7
d8bc
d81c
d83c
d8a0
d8a5
d8a6
9a28
9a25
9a04
9ad0
9a9e
c88c
c84e
c85d
bad8
c50c
c514
c57e
c58e
e522
e516
7f48
7f28
7f3c
7f9c
7f1a
7ffc
7f1e
7fb2
7fb3
7fb9
78b4
7814
5b1b
5bfa
5b9f
5bd3
7548
75e2
7512
040a
6b08
2b2f
2b20
2048
52b6
f824
f8f8
e854
e85c
abdc
ab9a
8ec8
8e37
8ee0
4291
424b
424a
42b4
4205
42e0
1f15
1fdf
b9b4
b9e0
db42
eb15
eb1a
5162
51e2
5166
116f
119f
1199
c460
c467
c4e3
ed50
141b
1438
141c
1433
be62
37b6
3735
37e0
4142
41e2
4122
412a
417f
41ed
2144
e46a
e4ef
e4db
e4e9
e466
e4d7
4eb6
4e0a
3645
36d1
3d4b
3d39
3dfa
3d69
3de8
ceca
326f
32ee
e265
24da
2465
2461
313e
3176
31e1
310b
8648
86b8
8644
8672
c1da
c13c
c1d3
8134
81d4
816b
8177
541b
54a4
54c8
54d6
5436
54d4
5467
1de5
1d7a
1dd2
8268
82c8
8260
82e2
820b
8296
ed28
ed7a
8f68
7491
7448
742d
743e
7476
74d6
746c
74ef
af76
afe9
4415
44db
44df
44e3
0f38
0f0b
0fe8
6134
6162
6122
616c
6171
6167
c248
c20a
c274
c236
c230
c27f
c2e0
c272
c266
c21d
1615
1628
7d25
7dd4
7d33
5dd9
5de5
0432
04c8
04e1
0469
04d8
0463
04d0
04e3
cf48
cf63
cf7e
1728
40e7
40d4
40e0
b41b
b43e
b437
b4d0
b4ef
b4e0
f602
f6ba
f6dd
dfe2
df65
df2c
dfe0
df6e
dff8
dffc
642d
6462
64dc
64d0
64e8
6430
6466
a96a
a9b8
a970
a966
30ec
30d0
87e5
87ba
8773
8906
89d6
8970
899c
a132
a1c4
a1af
fdb8
fde0
d102
d1ec
d162
d14c
c02d
c0e4
c078
3afe
3af1
842d
8442
84a4
84ec
847c
84e5
84ef
84d4
84e0
84ee
1245
1290
127c
9f62
9f70
9e60
c73d
c7ee
56b5
56fa
5635
56dc
56e8
5672
5670
567d
0bbb
6268
6262
6265
6271
621e
6fe2
6f78
de3c
de36
5048
507c
50d2
bdb8
bdfa
a4d1
a46c
e71c
e7e2
29ce
2996
d991
d92c
d9db
d690
d6ec
a7e2
a7d0
d748
92e8
771b
7790
772a
77b4
77d4
777d
2709
d280
d262
d24a
feeb
aefa
aee2
80d5
803e
80ec
d442
d4ee
d4d3
d4e3
cd68
cd0c
63da
63c4
6360
7244
dd25
dd8c
67a4
67e2
6637
b2b8
b244
ad48
5308
530c
5305
f772
401e
4015
0960
0964
07e1
07d4
6dbc
a648
a64c
a670
e6bc
99da
f4a4
f432
f4ed
d0e7
1459
b0d8
6e0c
0305
c332
c33c
4339
8339
831c
a02d
a0e7
a0d4
10a4
9334
b376
d33a
a30a
f335
c08a
c0a0
c0a7
e459
136f
539e
e3da
691c
6916
e482
302c
5e1f
2b62
bbb1
5322
c44f
3117
249b
5df1
5df9
e470
13ec
bbc4
e4fe
5d5b
5d53
5ece
142c
1422
3341
e4c6
1358
1351
7454
7456
7451
5ea8
9b50
9b55
368f
5259
2750
2d5d
c47a
24b6
637a
84a8
84a1
52a9
5221
3784
5488
5485
544c
544e
544f
749c
749d
749a
7493
c4f2
c4fe
c4ff
04ba
04b0
4dfb
33b6
338b
338a
41fc
41f9
445d
4451
bb81
1eac
56ad
549d
542c
44cc
0f84
3d98
3e78
3e73
7e74
7e77
c05f
6471
74f3
c4cd
c4c0
64cc
64ce
c4b0
54b8
54b6
7422
7420
7d5c
7d50
3df7
3df1
3df9
376e
c3b2
84fb
84f7
84f1
04f3
04f9
44fc
44f7
44f1
64b0
64b5
64a7
78ce
6426
6422
642e
6423
6420
14a6
4418
4413
bca6
bca1
0496
8356
7caa
74cc
74c2
74ce
c2d6
3754
aca5
31b6
611d
74be
74b0
74b5
81b6
44a1
44a5
5ca6
5cad
1dc6
447f
4495
8346
c3f2
c3ff
2067
7f56
53ee
7daa
848b
84be
84b9
c49e
c25c
c252
5473
5470
84c2
c015
c394
c397
045c
32dd
6495
6499
04ac
04a6
04a1
33c5
402c
4020
32fe
32f3
43cc
43c3
7417
54a8
58ce
162a
40a6
40a2
53a3
52fb
83be
515c
5152
847a
847f
bb6f
46a4
7487
a4f8
a4f5
dca2
536e
5367
23ac
644f
3352
3350
51bd
b450
2e54
2e5d
4487
4687
7d92
7d90
6412
641e
52dc
52d8
83f8
83fa
83f0
cca2
cca0
53be
53b3
41ba
4318
c3a3
3398
339a
3397
3399
8658
77ab
c152
d89d
4dc0
868e
a4bc
c2fc
c2f8
c2f6
c2ff
1417
802e
802f
9e44
9e4a
9e43
9e49
7af2
7e56
59f6
59f1
40b0
c0c2
c0ce
541e
5411
8286
4e82
5d88
5d85
f01c
a4c6
2029
3d14
3d18
3d1e
7ea6
b4ac
ed8b
30a0
839e
144c
29aa
5804
580a
53ce
53c3
f422
7a41
90a0
4373
5618
832c
b4c7
b4cf
51f4
a754
a75f
5bb5
7ce9
92da
c34a
7dc9
aaf7
e08e
83c5
871a
9e8e
cda2
1481
148f
2010
2058
56f8
7d81
c3d2
379f
82fc
82f7
b35a
d49a
f4fc
33ec
7050
c3ce
4d29
60cd
228c
72d8
ae8e
d472
8894
8370
a252
b9fc
e68c
e686
f68f
78dc
78d8
0481
04ce
3698
c28a
51ca
b48c
ef52
4116
411e
bd50
b417
041e
42f6
aa49
d28f
280f
2bb8
6712
23f6
7d61
70a7
1320
c95e
7020
befc
e2f8
0284
fe72
2714
8e53
bdc9
13f5
79a0
e692
c898
b767
e624
e62a
1112
c185
3d2e
6df0
9da2
9377
c9f8
0eff
f3e2
125c
a1c2
0b6c
21f7
9915
bfa8
bd19
b3e0
1ce3
2688
29f0
b060
b2fc
a0c0
a471
ddac
62da
9e29
9e2f
1e9c
8a4c
cfa6
0ec9
a698
2ba5
b1f4
f9a8
178e
dbca
e350
8ec5
9ec6
afc1
2785
9710
ddcc
fe41
04b2
046d
0914
070e
0943
0987
1c88
1c8c
1c43
140d
1720
1792
1db0
11a5
17ac
2344
2e50
2743
2098
27a0
203a
27d3
2ee3
2b4e
26b7
29b0
2977
37cc
3004
306c
3407
3405
3364
336e
37b2
300b
37bf
30b1
4af0
405c
440e
41c0
440a
4314
4407
41ac
4384
4c8a
4d24
4046
40f0
410e
41a8
4009
42b3
4ddd
4121
4e1f
40f9
4dbd
53ba
5092
54c3
52b9
5c43
5098
51ac
5405
5409
50f4
51ae
509f
560e
50fd
5319
51a5
52c1
5902
6314
6120
6098
6364
6046
6310
6124
670d
60b9
6c86
67b7
7002
71c0
7e2b
7c46
7407
770e
7dee
7eee
7c8f
7c84
70ba
7e6d
7c83
71a1
7d20
792e
8c88
84b2
83cf
8750
8c41
8e10
822e
80f0
81ad
8381
83d0
8385
83d2
8366
87e3
831f
8367
8fb1
9012
92f0
9e88
9c82
922e
9e67
922f
9d7e
9796
90bf
979b
a123
ac8c
a2f0
a382
a243
a2b0
a904
a7a8
a6be
afb2
a9b9
b03c
b41a
be50
b22a
b7c2
be1a
bc8b
beb3
b904
b7bd
c6a2
c06c
c0b2
cea2
cc8e
c333
c2c0
c097
c31e
c0ff
c385
c2b2
c0b7
ce82
de20
d750
d40f
d312
d946
e2c2
e80c
e22a
ec4e
e40f
ec41
e36e
fc46
f2f0
f46d
fc4e
f307
f035
f031
f923
00e7
00ec
0138
010c
017c
01f3
01a9
3b06
3bea
3bda
3b68
3b1c
3b69
3b41
3b4c
3b64
3bef
3b79
3be9
3b1a
3b9a
3b18
3bf6
3b10
3b46
3b86
3b8f
1b83
1b5d
91d0
91e0
3f68
3f32
3f4f
3f4a
3f74
3f04
3f05
3fe8
3f7f
3fdf
3f79
3fd7
3f24
3f9d
3fdd
3f27
3f43
3ff0
3ff1
3f21
3ff4
3fb1
3fcf
3f55
3476
3460
34d0
346b
34f8
34a8
3458
3455
34a5
084c
0898
08a3
6a3e
6a33
6acb
6a17
6ac5
6a77
6a81
0a06
0a68
0ac4
0a1c
0a0f
0ac0
0a8a
0af9
48d5
48ea
4865
48dc
4836
4871
48d4
482e
4867
481d
48b9
48c1
485b
2f2c
2f7a
2f6b
2f1f
2fcc
2fff
2fc0
2f13
2f07
2fbd
2fa1
d522
d56c
d5cc
d50e
d51d
d5ae
7be7
7b0a
7bdc
7bf0
7b84
7ba0
9e70
9e75
9e79
3ee2
3e4a
3ef2
3ee0
3e12
3e24
3e18
3e2e
3e46
3eb0
3ef0
3ebe
3ec6
3e52
3e8b
3839
3849
3824
3820
38fb
eaca
ea3d
ea8b
eaad
0c28
0cec
0ce5
0c2a
0cd8
0c17
0c6d
0ccd
0c0d
0c50
0c56
0c59
dabc
da86
2894
28c8
28cc
28c9
0d0a
0d05
0d33
0d0f
0d2b
0d10
19c4
197e
1988
3938
399b
39ae
7648
76ce
f03f
f0a4
f020
f0dd
f0f8
f029
f0c7
f054
f05c
f059
f1d2
15be
15f3
15a9
3c66
8bda
8b95
8b8a
285b
4528
4532
45e4
450a
4511
4578
4524
4518
457d
45c0
4513
45b2
451d
45b9
4584
455c
18d8
18cb
18ab
b832
b882
2db5
2d2a
2dba
2ddb
2d75
5fe5
5fee
5fe3
5f5e
4ff4
4ff9
b668
b64f
b64a
85bb
8574
85d0
85e8
856f
8524
8584
0248
0228
023d
026b
9c45
9c60
9c65
9c98
9c2e
9cf8
9cc3
9cae
0bc8
6938
6964
6988
bb52
059a
050d
1a38
1a8c
1adb
1ab1
1aa2
fa6c
fac2
fa5c
0d98
3aaf
3aca
3ace
3ae0
3ae6
ec91
ec34
ec2d
ecd5
ecda
ec39
ec02
ec62
ecce
ec78
ecdf
ec7b
ec9c
ecd7
ecd3
ec7e
ec16
eccd
ec23
ecc7
4c1b
4c28
4cb8
4c36
4c95
4cba
4c0f
4c1a
4c9f
4c7e
4c13
4cfd
4c23
4cb9
4cf3
4cf9
4c5e
4c5f
5cc8
5c35
5c64
5c71
5c1f
5c9b
5c67
5cff
5c96
5ce3
5c17
5c99
5cf0
5cf1
5cb2
5cc6
5c5f
4a90
4aea
4ae4
4a1c
4a7c
4aca
4add
4a0e
4a77
4a07
4a83
4a82
4a81
57c8
577c
5795
577a
577f
57e0
57d2
579a
5710
570e
578e
c6d8
c6de
c6ed
5528
55bc
55b8
553a
5536
552f
55e8
5572
550f
55ee
555a
55c0
5552
55a8
4708
47b5
47dc
4795
4731
47de
47e3
47f1
4707
4756
4782
3534
3538
350c
354c
358c
3504
3578
352b
3526
351d
3557
3521
350d
49da
4976
49e4
49e2
4961
49ba
4970
4966
49dd
49ac
4986
498b
49ae
49a9
5eeb
5ed2
5ee9
5ef6
46d5
4631
46f2
4671
46d2
46de
4618
467d
46f8
4617
46b0
4677
46b9
46bf
a82a
a8ed
a850
a8bf
8cda
8ce2
8c95
8cce
8c7a
8cdf
8c93
8c10
8cc0
8cc3
8cbe
8cfd
8ccd
8c57
8c21
8c07
8cb9
8cc9
8ccf
8c53
8c51
8c5e
7c48
7c42
7cda
7c7c
7c36
7c7a
7c11
7c78
7c75
7c98
7c9b
7c67
7cc0
7cfe
7cb2
7cc6
7c50
7c54
1c2d
1c28
1c25
1c2c
1cd0
1c0f
1c2b
1cf6
1cb0
1cfe
1cb2
cc91
cc45
ccea
cc60
cc69
cce2
cc7c
cc65
cc33
cc66
cc2b
cc92
ccc1
953c
9536
6c08
6c6a
6c7c
6c22
6c64
6c6c
6c75
6c79
6c16
6c17
6cfd
6c59
586a
582d
582c
5878
5875
582b
5843
2c34
2c76
2ce4
2cec
2c69
2c62
2c63
2c6c
2cd2
2c0f
2c5a
2c96
f568
f504
f5db
f572
f517
f5b2
f550
f553
f5ab
f5a5
bc48
bcd5
bcbc
bcb8
bcb6
bc98
bc6f
bc9e
bcf6
bc17
bcfd
bcb7
bc55
bc5f
6594
6560
653c
6574
656c
652e
65a0
5aa4
5a60
5a13
5aa1
dc6a
dca4
dcea
dc74
dc04
dcd2
dc97
dc13
aa2d
aa90
aa25
aaec
aae2
aa65
aa36
aa63
aa7a
aae8
aa79
aa98
aa9e
aa1f
aa14
aaee
aa2e
aa26
aaae
aa82
ca0c
68b5
68b8
68f6
6852
68a2
68a6
ac15
ac06
ac32
acc8
acc4
ac7c
acca
ac95
ac2a
ac64
ac72
acde
ac1a
ac9d
acff
acc2
ac5f
2515
2578
2518
2514
25f0
0b94
0b02
0b4c
0bde
0bed
0b1d
8a28
8a22
8a78
8a24
8a92
2aaf
2a9e
2ac0
2a16
2a19
b515
b5af
b59d
b5ac
b554
b588
b5a7
7ae7
7a68
7afa
7a3a
7a22
7a74
7a64
7aef
7a7d
7a9f
7aaa
7a29
7a53
fc1b
fca4
fc76
fc04
fc6f
fc24
fc9b
fc9d
fc19
fc6d
fcc3
fcf1
fc0d
fc5f
bfd5
bffa
bf62
bf95
bf85
bb3f
bbd5
bbe4
bbfa
bb35
bb7f
bb1f
bbfc
bb17
9034
90dc
8815
886a
8828
88ec
8854
a539
a54c
a5b4
a5f2
a58f
d890
d844
d878
d88a
d856
9a08
9afa
9ac1
9aa2
c83e
c84b
ba48
ba62
ba30
bac2
c56a
c542
c57d
c546
c5f1
c55c
c5a9
e5e4
e53c
e5e2
e5b7
7fb6
7f0c
7fb4
7f6c
7fe0
7f33
7ffe
7f8a
7fcd
7f8f
9890
98c4
7834
781c
7844
784c
7863
7817
78fd
7853
5b3a
5b22
5bf6
5b21
7584
7583
6be2
6b78
6b98
6be3
2be2
2b04
2b70
2b9e
2090
20d4
5208
52e4
5202
52e2
52ca
5295
52ba
52e0
529d
e848
e878
e8fe
ab15
abea
abe1
ab49
ab7a
abd2
ab70
8ef5
8eba
8edb
9be2
9bf0
4242
423e
42b8
4247
4231
421a
429f
421e
1fb4
1fd0
1f79
1f9f
1f88
b928
b9bc
dbbc
eb1b
eb1c
ebaf
eb3d
5122
510a
5137
51d8
517f
51d3
1164
11e0
c4d9
c490
c4e4
c4ec
c47c
c4d1
c4d0
c4ef
c4ed
c4dd
fb90
fbe9
fb17
2234
2206
224a
226c
2298
2216
1491
14a4
14c8
143a
1436
1437
1431
146e
146d
be3c
bee9
373a
374f
3737
37f2
3770
4191
4145
41ea
4125
411c
410c
41e5
4131
41e8
41df
419b
416e
4192
4197
4196
2148
21d5
2170
e4d9
e41c
e4e5
4e42
4eb5
4e02
4e69
4e35
4e6c
3668
36b6
36d7
3d91
3d15
3d28
3d49
3dd6
3dd2
4d1b
4d06
4d38
4d4b
4d44
4d0c
4dca
4d3d
4d78
4dd3
3215
3238
323d
3218
3210
3216
2af5
2415
246a
2436
2431
2463
24ee
24dd
312d
31da
31e2
31d6
312a
3198
3197
86bc
86e4
8635
86f2
867b
867d
c1a4
c106
c194
c1e2
c10b
c18c
c12c
c130
c172
c199
81d5
8141
81d2
81d7
5462
547c
5465
5430
54d2
54e9
54d7
7138
71ea
7139
7171
7196
1d0b
1d4a
1d75
8208
826a
82bc
8225
82fa
82e5
82e8
82e0
82eb
ed6a
ed4a
ed04
ed70
8fe4
8fb6
8f30
8fe9
8f10
8f4e
74da
744b
74c8
7474
7431
60fa
af15
446a
444b
44d8
44e8
44ef
44d2
44d7
44ee
0fd5
6148
619a
c242
c206
c2bc
c232
c24c
c237
c292
163a
7d1b
7d28
7db8
7dc8
7d62
7d74
7de5
7d2c
5d08
5db5
5d74
0491
0448
042d
043a
047c
cfea
cfdc
cfe6
cf9a
1748
1772
403e
40da
40ec
40e5
40f2
40db
40de
40ee
40d3
b474
b430
b4d2
b4ee
f668
f64a
f671
b106
b132
b104
b192
6442
6438
6439
64e4
643a
646c
a9c4
a92c
a998
3072
30d7
266c
874a
878c
87e6
2e15
2e6a
2eec
2e8c
89bb
8937
8931
8998
8924
1e6c
1ed7
a12a
a1df
a175
c0d5
c074
c075
c0dd
c0e3
3af2
841b
846a
84c8
843c
8431
846b
846e
12e2
1204
12ef
126e
9f19
9e3f
9e34
9ea4
9e3a
9e8c
9e31
9e33
c795
7e42
7ea4
7e94
7e1c
7ee1
7ed8
7eba
7ee0
562d
5664
56f2
0bb0
62e4
6267
ff06
ffec
6fe4
deba
5042
5094
5044
504c
50f2
50d4
bd32
bd30
bde9
a491
a43e
a460
a435
a46f
7934
7978
e715
e7e8
2928
2994
d938
d962
a744
a7d7
d744
3339
333c
3374
9218
9210
7748
7794
27c8
27dc
d208
d2c8
fe35
fee8
501a
aee4
aec8
ae36
e97a
e9df
80da
80c8
80d4
d4e7
d494
d4d4
d4e6
ce1c
cd2d
cd3a
cd2c
636a
6302
6309
b7da
b7d0
e142
e1ec
5966
5992
72e2
7205
a276
dd1c
dde2
6738
6634
66e7
9d04
9d78
ad42
5315
53d6
f7fa
0e39
0e25
0e0a
4011
09b4
0978
6d28
6d60
6de5
13c4
130b
1331
a6b6
a6d1
a6f2
a6d0
f9e2
e67f
9942
f439
d0d8
70f2
b0d6
6ee0
0302
c368
c3c8
c33a
96da
9602
963c
4315
4360
437c
831b
833f
833e
8368
8332
8331
a090
6ba0
937c
2336
2330
b30a
7390
7339
733a
a360
f328
165e
4056
4050
4051
4055
e3dc
e33d
1f51
3285
63a6
3110
6356
2492
e47b
42ce
bbcd
6784
e4f2
e4a7
545c
5456
545a
5452
5451
648b
745a
68ca
6259
e4b8
e49a
2d55
331f
c47b
5343
24bc
24ba
24be
84ad
52aa
52a2
842c
842b
8422
8427
8425
e441
548a
544a
37ca
14b3
42ac
3da3
33b8
33b2
33be
3388
8ca5
4457
4459
1ea2
549c
5426
5427
5425
54fd
54f1
44cb
44cd
44ce
44cf
6454
6458
645b
6452
690b
6ca2
6cae
6ca9
3d9e
3d95
3d9f
279d
5006
74ff
c4cc
c4cb
64c9
c4be
26a8
7428
7425
7d5a
3dfb
3dfe
3764
c4a0
8454
8459
84f4
04ff
44fe
44f5
64b6
64b7
64b1
64ab
64a6
64a1
78c6
b08b
14a8
9e51
4416
40c9
53f8
bcad
0497
049f
7ca2
7ca3
2da6
74cb
74c0
4156
4150
1495
1499
3756
3753
3755
7478
acae
bbab
bba3
24f7
31bd
6116
6112
611e
74b7
74bf
4345
4349
5cab
5ca0
5ca7
447e
4470
5030
4493
4499
c484
c48b
c485
c48f
c373
9e9c
9e96
7f54
7f5c
7f57
7f59
8481
c49d
c495
c254
c256
c257
14c1
54ce
54c7
54c9
547b
5475
505e
84c1
84c9
c013
c017
c019
c39a
c393
8c81
8496
849e
32dc
32da
32d0
6497
04a3
04a9
33cc
33cb
4d94
32fd
43f2
43f3
43c6
43ce
43c7
43c5
58d8
58d6
5066
5069
5899
589f
ecac
eca6
33f1
40a7
53a5
83b1
5158
5156
3322
3323
444d
a483
bb69
46ad
a4f4
a4fd
a4f2
dca6
8cee
33a3
335d
335e
51ba
51bf
8443
8441
b451
c1bd
2e5c
2e55
4482
4481
448f
42dc
42d0
42d5
042b
0421
325a
3253
36cb
43bb
4681
7d98
8416
8412
6416
641d
0dab
147e
147f
52d0
5d97
82aa
cca9
53b9
5087
5085
b4b4
b4b0
b4f0
b4f7
b4ff
c3a1
24ce
8bb2
3dcc
3dcd
77ad
77a5
7df8
7df0
862a
8620
c156
7fa8
7fa1
d898
2422
2420
2429
83ef
c356
d487
c2fb
1410
8020
9e41
36ae
7afd
7af1
7e54
7e5d
59f7
5412
7e92
8288
d2a5
4ead
4eaa
4e8b
81fe
f061
f065
30c2
6320
b4a5
ed82
1e53
1e59
71ba
86aa
86ae
4da2
1446
144a
1441
1449
29a0
5802
53c9
86f6
90ad
90a2
90a3
92a8
5da0
62fc
b4ce
c060
0253
225d
8188
50c9
7ce6
7ced
7cee
7cef
6fad
6fa1
7252
5bc5
aafc
aaf2
f418
f410
8710
cda0
c2ae
deab
4698
469a
7917
7d8a
ae70
8084
8056
7d16
c3c0
f492
861a
bda5
b44e
22d9
7017
8fa0
a258
a4ac
b9f6
37ad
81ca
81c5
0482
61bb
61bd
63e2
b1b2
c286
c283
248e
53db
6cee
6cef
fb56
31c5
31c9
9394
9393
a356
b48f
6da0
6758
73e0
0417
16c7
a2d2
a2d0
a2d5
af5d
f47e
9050
d28c
f488
2410
47cd
47c1
57cb
1af7
a498
d76f
88d7
bce3
c954
a3b4
aeac
a650
c118
511e
a1b9
b185
dd98
fe78
a8ca
2718
d758
0f5c
5693
5d18
734b
e342
e69b
4d82
a054
639c
91b4
91b0
f6a0
73fc
73fb
811d
a3e9
f2f4
3d21
318b
706f
77cb
7f24
ce5b
d6ac
d4b9
1618
6df6
e014
e01a
eea8
62a0
a410
cce0
0efc
7902
a808
a80d
a80a
cd84
d8d2
d4ce
e3e6
f2a2
89c7
b470
0755
21f0
6f84
6f8e
9af8
93ad
995a
bd13
6bb7
70cf
0719
9618
fbc2
b024
e1be
e950
1050
edf4
6f50
d62e
d158
d150
e32c
e719
e754
f15d
f444
f44c
f614
aec1
ef88
ef8f
b1f8
e9aa
aceb
718a
b695
ed17
a322
dd1f
f915
975a
ea47
1d82
a18a
97c1
ee43
9dfd
e9f4
0e4a
171a
d11e
e281
f80a
d1fc
6e4a
cff1
ffc0
e1cc
9ffd
f7c5
038f
0f26
140a
1e14
122c
1c85
1643
17f8
1ed3
1eb2
1ebe
1db9
1d29
241a
260a
2612
2e21
2220
2c41
2eee
231e
2e16
2723
2009
290e
2e2e
2e8b
32c2
36a2
3e71
37f4
322a
3098
3307
3096
336f
30f4
304e
3097
324d
37dd
30f1
3143
4002
474e
4406
404d
4c41
4c84
4c87
40fe
4243
4eb2
420d
4383
420e
438e
4381
4d4e
4e16
414e
4607
4eb7
403d
42b7
503c
56a2
5c44
5318
5310
50f8
51a2
52b3
56e3
56b2
603c
6348
640a
640d
6c44
6c4e
6750
6222
6032
6c4f
6388
6e1e
6fb0
6b4e
679f
6d73
6f0d
7404
7e12
7e50
7c8c
73a0
7c47
7e20
7220
7032
7e14
7c85
7e22
7d07
7e86
7944
7d26
7db7
7d2e
8004
812e
8184
846d
8220
840f
8409
80fe
8388
8386
860e
8eb9
83dd
8005
8fb0
8361
8988
82c1
879b
9092
9c8c
9c47
90f3
9e66
9006
9e2a
9318
97c2
931a
9e6d
9e24
9009
9798
9e6b
9227
92c6
9e6f
97a5
a3ba
ae20
aea2
a220
ac8f
ac85
ac84
ae0e
a7c2
a24d
a22b
a1a8
a7ab
b4b2
b40c
be71
bec2
b384
b405
b7a0
b0f0
b00a
b22b
b0be
b1a6
c80c
cc8c
c3a0
c314
c09c
c1ac
c12b
c22c
c313
cc8a
c0f4
cc85
c0fb
c310
c388
c30d
c20e
c146
c366
c363
cdb2
cd46
c039
c2cb
c007
c037
c92e
c9ed
c94f
c1a9
c777
d348
dc44
d407
d914
dc41
d9ed
ec88
e3cf
ec8c
e382
e750
e307
e406
e784
e946
e982
eb4e
e630
fc88
f064
fc4d
f72b
fc82
0148
01e2
0164
01eb
01ed
01f1
01b3
0154
015e
01ab
3b08
3b6a
3bd9
3b38
3b76
3b3c
3b22
3be5
3b3d
3b09
3b71
3be8
3b78
3b72
3b1f
3b13
3b1d
1b2c
1b6b
1b33
1bd3
1bc6
9142
91dc
9170
918f
3f1b
3f4b
3fc8
3f35
3fca
3fe5
3f33
3f72
3f75
3f20
3f67
3ffc
3f5a
3f10
3f26
3f4e
3fc3
3f52
3fb9
3f54
3f88
3f86
3f8f
3f59
3fa9
3f87
34b8
34de
34cb
3496
341d
34f3
34a0
34a1
08e2
08d1
089a
08d3
0858
6a4b
6a54
0a80
0afa
0a62
0a31
0afe
0ac3
4838
484b
4868
48b6
48fa
48ec
4860
48e1
4822
4831
482f
4864
48f2
4863
4830
48e9
482b
4814
4820
48ee
4857
48ac
48f7
48c7
48f3
485c
48a8
48a2
2f6a
2f28
2f32
2f94
2f1c
2fec
2f7c
2fdc
2f71
2fe8
2fdf
2fe9
2f12
2f18
2ff8
2f5a
2ff3
2f5d
2f8f
2f87
d508
d528
d5bc
d59a
d592
d5dd
d582
d5ad
d559
7b91
7b42
7b3e
7b94
7be4
7bb8
7b44
7b4c
7be8
7bde
7b1a
7bfc
7bfe
7bf4
7b53
7b5b
7b8f
9e74
2d9b
0806
801a
8015
8019
3e1b
3e3f
3eda
3ee4
3eb8
3e0c
3e36
3ef5
3e47
3e2f
3ed8
3e61
3eeb
3e33
3ede
3e9b
3e14
3efc
3e10
3e4d
3efe
3ef1
3ec2
3eb2
3eb9
3ebd
3e84
3e58
3e82
3e8e
3e85
3842
3830
3811
3870
387b
381a
3818
3846
38c0
388a
3856
3858
38ab
ea6a
ead5
eab6
ea7a
ea6c
ead4
0cd5
0ce7
0c90
0cda
0cc4
0c3a
0c0c
0cf2
0c6b
0c70
0cee
0c13
0caa
0cbe
0c8a
0c57
0c84
0c5f
dafa
dae0
da72
daff
dab3
dabf
da8b
daa6
281b
28ea
28dc
28f2
287b
28b0
2829
28ac
28a2
4b7b
4b6f
4b1a
0dd5
0d0b
0d70
0d21
0d83
19e4
199d
19aa
19a0
1983
39a4
394b
39b6
3944
3943
39a6
39a7
766a
76ea
76eb
7698
7614
76ee
7657
f0bc
f0e1
f04c
f0ef
f0e6
f0d2
f07b
f0c3
f144
f170
f126
1515
1554
8b6a
8b69
8b0c
8b64
8b61
8b7f
8b72
8b66
8bf4
8b5e
8b59
4538
45b6
450b
45dc
452f
45eb
4572
45e9
4570
459e
451f
4514
45fe
45a2
45a9
9434
9432
9418
18b6
1844
18e2
18e8
1826
18a0
18a6
b850
8d3f
8d64
8d6c
2d6a
2da4
2dea
2d76
2db8
2df8
2d19
2d83
5fdb
5f8b
4fe7
4fda
4fec
4f54
b644
b6fe
b6f4
8508
853f
8568
8594
85e4
85b5
8562
856c
85ba
851f
8567
85b0
85c5
85c6
85bf
855e
85ae
020b
029d
02a1
9c3f
9c28
9cc8
9c62
9c05
9c11
9c33
9c75
9c20
9c6e
9c27
9c26
9c19
9cb1
9cf9
9ca8
9c5d
0bcd
0bc2
568a
6961
6929
8259
0590
0514
05bd
0558
1ad5
1aa4
1a79
1ac6
1aad
fa0a
3ae1
3ae8
3ae9
3aed
3aee
ec08
ece7
eca4
ec3e
ecea
ec4b
ece4
ec36
ec6c
ece6
ec79
ec12
eced
ec9d
ec2e
ecc9
ec56
ec5b
4c3f
4c15
4c42
4c3e
4c76
4cbc
4cb5
4caf
4c65
4c74
4c2f
4c11
4ceb
4c79
4c9a
4c2b
4cee
4c93
4c5a
4cb0
4cbd
5c38
5c32
5c25
5cb8
5c22
5c2c
5c2f
5c33
5ce9
5c7b
5c9e
5c1a
5c9d
5c16
5ccd
5c57
5c21
5c23
5cb1
5cf3
4a08
4ad9
4a94
4ac8
4a65
4a2c
4ad1
4ad8
4ae8
4aef
4ae6
4a6f
4a9a
4acb
4acc
571c
573a
57dc
573d
57d4
579b
579d
57ee
8e41
8806
c636
c6d1
c61e
c6c5
553f
5506
5590
55b6
5544
55e2
553d
5530
55eb
5578
5518
5520
5519
551d
55f7
55bd
5554
55bf
4728
4739
47bc
4732
47b6
471c
473a
470a
474f
4724
479f
4720
472e
4796
47f0
4758
47a6
3525
3569
354a
3574
35e5
3536
3530
3575
35cb
357e
356e
3546
350e
355c
3556
49bb
49ca
49b4
49ce
49e3
49c0
49c2
4988
5ed9
5ebc
5eb4
5e9d
4676
46ca
466c
46ba
4678
46df
4670
461a
4614
46f6
46c0
4616
466d
46b2
46f7
46f4
46bd
a848
a8a0
8c34
8ce4
8c35
8c0a
8c36
8cf5
8c37
8c63
8c6b
8c9c
8c24
8c2e
8cdd
8c5a
8c97
8c73
8c16
8cf7
8cb3
8c5b
8c5f
7c25
7cb5
7cfa
7ce1
7c22
7cf5
7c37
7c2c
7c31
7cf2
7c30
7cd2
7cde
7c24
7c10
7c1e
7cfb
7c0e
7c17
7c6d
7cc5
7c21
7cc1
7cf3
7c5b
7c5e
1c06
1c3e
1cbc
1c3c
1c65
1cd2
1c1a
1c9a
1cd3
1c10
1cc0
1cfb
1c6d
1cc3
1cc1
1c53
cc1b
cc90
cce4
cc3a
cc35
ccca
cc7a
cc6c
ccde
cc6e
ccb0
cc6d
ccb1
cccf
cc56
cc58
cc55
9537
952c
95f2
956c
9520
9592
9557
95a2
6c45
6cd5
6cea
6c02
6cc4
6cfa
6c1c
6cec
6c74
6c37
6c63
6c11
6c7b
6c20
6cdd
6c1d
6cc6
6cb3
6cf4
6cb1
6cc7
6c56
581b
5825
58b4
587d
5820
5826
5877
5881
2c08
2c15
2cc4
2cce
2c05
2cd0
2c75
2c1e
2c26
2c19
f534
f515
f545
f54b
f576
f560
f54f
f5ce
f511
f5e9
f5ed
f573
f529
f5f4
f554
f583
f559
f5a3
f587
bc15
bc76
bc1c
bcec
bc69
bcd6
bcca
bcd0
bc66
bc14
bc10
bc0e
bcbe
bcc6
bc50
bc07
6538
6504
6530
6526
650d
6550
65c9
6588
5a45
5ac8
5aee
5aaa
5a51
dc28
dc3a
dc36
dc09
dc78
dc70
dc6e
dc93
dc92
dc5a
dcb0
dc6d
dc1d
dcc1
aa15
aa06
aa68
aae4
aa3a
aa05
aad2
aa9c
aa9b
aa7e
aa92
aa16
aac5
aac2
aa51
ca48
ca02
caec
ca52
ca50
caa8
ca5e
684b
68e2
684c
6866
681a
68aa
686d
68ab
ac6a
acbc
acb8
acb6
ac02
ac60
ac0c
ac7a
ac33
ac70
ac12
ac9f
acb7
2508
256c
255c
0b34
0b25
0b3c
0bd4
0b2b
8aea
8a36
8a95
8ace
8a26
8ac2
8ab9
8a84
2a74
2ad8
2a64
b5e2
b52c
b575
b5f8
7a08
7a02
7a3c
7ae2
7aca
7a95
7a09
7a61
7ae9
7a9c
7a18
7aee
7a6e
7a67
7a16
7a54
7aa8
7aab
7aa6
7aa1
fc48
fc38
fc7c
fc65
fc7f
fc33
fc9e
fc1e
fcc0
fcb2
fcc6
bf15
bfea
bf28
bfe4
bf44
bff5
bf64
bfe0
bfeb
bfdd
bffc
bfff
bff0
bb08
bb02
bb0a
bb75
bb79
bb24
bbfb
bbf4
904a
9047
9072
90ed
8838
88ea
88e4
88c8
88b6
8844
884f
88e0
8811
8820
88f8
881e
8850
88b7
88a6
a515
a5d4
a524
d822
d84c
d874
d82c
d81a
d8b0
9a45
9a06
9aea
9a98
9aaa
9a23
9a56
c8b6
c8ec
c8e1
c863
c870
c824
c8ac
c888
c8a0
c883
ba28
baa3
c53e
c595
c5f2
c59b
c5ee
c5f0
c5b2
e51c
e5ec
e574
e5ca
e5e6
e5c2
e51d
7f42
7f45
7fc4
7fec
7f62
7f95
7f2a
7f05
7fd0
7fd4
7fd2
7fd3
7f92
7f10
7f46
7f16
7ff4
7fb1
98fa
98e8
985c
78ec
78f5
78b0
784e
5b74
5b9e
5b92
5b19
7538
7528
757c
759c
751f
75f0
7551
6bd4
2bfa
2b3c
2b4c
52bc
524f
529b
5214
52ee
5296
f8da
f8e6
f82b
f8fc
f826
e834
e83e
e8aa
ab44
ab4f
abde
8e34
4245
4202
4241
42ca
42e8
42eb
4210
4216
4299
1f44
1fca
1f7d
b948
b9e2
b937
b9f2
db38
db1c
dbec
db7c
db20
eb49
ebd4
eb75
5148
513e
51ea
5128
5144
51d6
514f
51f2
51e8
51e6
51d2
517e
5196
510e
5199
1102
c4ea
c4d8
2232
2297
ed57
1415
1439
1435
1474
be48
bebc
3734
376a
372d
373e
37e4
377c
374c
3736
372f
3771
3772
377b
4134
4115
412d
41a4
4190
4194
41c4
4162
41f5
4137
4164
41e0
416b
4166
419a
41dd
21d0
2198
e4ea
e432
4e1b
4e91
4e8c
363f
367c
363d
3672
3db8
3dc4
3dca
3de5
3ddc
3d31
3dd8
3dde
4d08
4d3e
4db8
4db6
4d02
4d41
4d7c
4d35
4d36
4d2f
4d05
4d7a
4ddb
32e7
32e1
32e5
3230
32e0
3272
321d
2af9
2430
24d2
24e9
3138
31c8
317c
314c
312c
31d0
31eb
319c
319d
317e
3192
8608
863f
86e7
86ea
86da
8639
8676
8602
863a
8674
86ba
86e6
c1ea
c176
c1fa
c1d6
c14c
c14f
c164
c17e
8115
813e
8190
8174
81dc
812f
81de
81ed
817e
54d5
544b
5469
54d8
54ed
54d3
7115
1d70
8265
82f5
82e6
829a
8299
ed3e
8f4c
8f70
8f6e
8f19
8f77
74d9
7439
74ec
74eb
74e3
6073
af22
af74
af78
af12
af4e
4445
44d9
4468
4469
4463
44dd
0f2d
0fbc
0fc8
0f9b
0f97
6194
61d0
f279
f26f
c238
c2e4
c2bb
c2c4
c2ec
c260
c27c
c235
c264
c29e
c2ee
16c8
16e2
167c
16ba
7de7
7d76
7dfa
7d22
7dd6
7d4a
7df2
7d7a
7de0
5d48
5d2d
041b
04a4
0468
0465
04dc
0431
04e0
0466
04ee
cf15
cf68
cf62
cf7c
cf93
cf46
17e2
177f
1775
402d
40a4
40ea
4028
40bc
40b6
40c4
40af
4044
4047
40e6
b442
b4a4
b43a
b431
b4de
f66a
f628
f662
f63a
f678
dfbc
df1c
df9c
cbbf
b174
b195
b16c
b171
643f
6445
6490
6432
6460
6469
64d6
6435
6436
6463
64ef
a969
a92a
3091
3042
3038
3025
30af
30e8
26e2
264c
26de
8742
87d5
8728
8722
87b4
8709
8730
87e9
87ed
2ed9
2ea4
2e90
2e32
2ee8
8939
89e4
89e2
898c
892a
89f2
89d4
1e25
1ec4
1eb4
a1f2
a170
fd2d
fd33
fd7b
c0d9
c072
3af3
843f
8415
84ea
84e1
84af
8464
84d0
84df
84dd
12b4
127b
9732
9722
e04c
e04f
e04a
e078
9f48
9ff2
9f66
9f7d
9fe3
9e2d
9e45
9e3e
9e39
9e25
9e3c
9eba
9ed2
7e1b
7e3f
7ec4
7efa
7e60
7e3a
7ee2
7e09
7edb
7eeb
56d5
56da
564b
5694
5674
566c
566b
62b8
62e8
626f
629e
629d
6219
c990
c9ea
c9b5
c9af
c9b4
c964
c961
c9e8
ff1b
ff96
6f44
6f8c
6fd4
6f10
de28
deb8
deec
de60
50d5
503e
5076
50bc
50e4
5041
504f
5074
5072
5079
50d3
5073
bde0
bd33
bd75
a4da
a494
a4c4
a41c
a4ec
a4e5
a4ef
a4d4
a4d2
7948
7960
79ba
79e0
79eb
e7c4
e7dc
2934
2990
29c4
d948
d96c
d668
d663
a728
a795
d790
d749
d7e0
3315
332d
333e
3328
3365
3304
924b
9232
9244
9264
9292
77d6
778c
7705
7730
27eb
ef2c
ef95
ef04
ef46
ef77
d21a
d292
feda
fed2
5012
501f
ae39
aebb
ae1c
ae62
ae95
e9da
e93c
e9b4
8094
80d6
804c
d4e0
ce48
ce6a
cd39
cdc4
cd41
cde0
63d9
b715
b74c
b78c
e1d9
e11c
e14c
e19a
59e0
7234
7238
72e4
7214
729f
a26c
a21e
dd15
dde4
dd7c
6734
67c8
6749
6704
6778
6770
677b
66b5
6662
6649
b21c
ad15
ad4b
adbc
ad02
ad78
adde
531c
530b
f77e
0e1b
0eb4
4012
401f
0908
0730
6de0
a6ea
a6e8
a6d2
e642
e63e
e6ec
f490
f4e4
f437
d0de
1456
1453
7028
0b88
b0c4
b0ec
2320
6e94
6e60
6ed8
eec4
eee2
c338
c31c
c30c
c3dc
436a
4365
4336
4305
8338
833d
a074
a0f2
a07d
1094
245e
b37c
d33e
a315
a328
a376
f306
f33c
f336
2656
14ff
22fd
22f9
c0a8
5c8f
4251
302a
c45e
1f57
3116
6355
4905
4a43
42c0
4e5d
4ec1
e4f3
545d
545e
5459
648f
22bf
44b4
44b3
334d
e4c5
7453
745f
491d
368c
e4b7
79b9
32c3
528f
331e
5345
24b5
637b
637d
74ab
74ae
8420
5481
c4fb
14b0
14b7
42ab
42aa
3da8
3da2
445e
445f
bb87
1ea3
56aa
5498
5497
5499
542b
5423
44c6
44ca
0f88
0f86
0f8a
6451
6459
645f
66f9
3152
3153
7e7a
c056
c053
c059
5005
647b
6473
74fd
74f1
64cd
64f2
64f7
64f9
c4bf
54b3
54b9
7421
1fa0
365c
365e
3653
3df6
480b
3767
c3b6
c3bf
c4ab
c4a6
c4ad
3d8e
845b
845d
845a
4d50
84ff
04fc
04fe
44ff
64a9
6429
14a3
50ab
50a7
8152
815e
8155
8159
40c2
40c5
53fc
53fa
53f3
53f7
bca8
8352
502c
c2d2
149e
149f
3750
3751
3759
7477
747f
aca7
24fc
24f3
24f9
31b3
31b5
74b6
74b3
74b1
81b4
81b0
4343
44ad
5ca1
4473
8349
c3fc
c3fd
2068
2062
7f55
13df
53e0
7da2
7da0
7da9
848c
8488
8483
84b6
84bd
84b1
c493
c258
c253
14cb
14c2
14c5
14c9
54cf
505b
5057
5059
c01d
c01a
c011
0455
8c8b
8498
8495
32db
32d3
689c
6498
04a7
33c6
4024
4022
4023
32f6
43c0
43d8
43d2
5895
308e
3083
4caa
741e
7413
7419
54ae
33fc
40a8
40a0
53ac
53ae
83b8
83b6
10c6
10ca
10c9
515a
5157
562a
5629
17cb
3320
444e
8478
8470
8477
43e9
a48f
bb64
46ab
8f5d
8f53
dcad
dcaa
dca5
536f
2e7a
644c
8ced
33a8
3358
335f
844e
8447
b452
be9c
be96
c1ba
c1b5
42da
42d3
42d1
4af5
4af9
4aff
36c3
36c1
36c5
4684
468a
4685
56cc
7d95
8413
841f
6d58
52de
5d92
5d90
83ff
ccad
ccae
53b6
53b7
53bf
41b3
431a
5084
508a
c3aa
c3ae
24c7
24c5
3eaf
339e
3395
8bb1
3dc0
77aa
7dfc
7dfd
7df3
c15a
301c
3013
7fa6
7fa0
242e
4188
4181
83e8
83e5
c35b
c35a
c350
d48b
4dcb
8681
b3b2
c2f9
9e47
36aa
7950
b422
b429
3056
305d
40b1
fca6
12fc
5418
5417
5419
7e9e
8282
80ac
4ea6
4ea0
5d8e
5d87
81f8
81f0
b2dc
f06b
2efb
30c3
d062
2023
3d17
7eab
7eae
b4a0
71b3
71b0
86ab
86a1
ed9c
ed92
30a1
30a9
4da6
839c
53c5
c02a
c021
f650
7a44
7a4c
7a43
92ad
92a3
92a0
4375
b4c0
c062
c067
c069
2258
51f1
83ae
5bb2
7ce0
92de
c1f6
6fa2
6fa9
c347
0444
31f6
5656
5652
7ec5
7dcc
7dc0
7753
2eae
4d19
83c7
8712
9e84
9e86
9e85
9e8f
201c
4693
56f0
7d88
9283
379c
5dc2
82f2
b358
b357
d496
d499
1d5b
295c
295a
33e8
7d14
7d12
7d19
7056
705a
4d27
abc4
abc8
abc5
7ef6
7ef0
8618
bdac
bda8
b447
b050
d47e
22d0
889e
8fad
a250
a4a0
b78e
e68a
f68a
8bcc
8bc1
81ce
d4f8
d4fe
8918
8916
891a
af86
b1b9
c284
53d2
6ce6
6ce3
d4ac
f4b5
9396
4110
6da8
bd56
b41d
0412
7804
7e41
f472
42fc
42f8
42fb
42fe
aa4d
be7a
d28a
f484
f486
f4a2
2418
2417
41cc
735a
735e
6711
6719
0b5c
0b53
1afc
1afb
23fc
23fb
7d66
a156
adae
a9ab
d760
e0a8
fea6
88d6
88d0
99f4
99fe
c91e
f453
f45f
4e98
4e96
4e92
6dc0
aeae
a392
a39e
a652
c11e
c110
e6a4
e6a6
b186
b187
dbba
d057
a444
b2a7
e3fc
5d10
5ba2
e34c
1ec0
4d88
c6a0
c1c2
c1ce
f6fd
1117
73f8
86cb
86cf
811e
8117
9024
f258
12a8
318f
59aa
5182
a345
d6a6
f394
c9fe
d1bc
e8cc
e8cb
26cc
6808
680a
680f
a41e
5950
9fac
a806
a807
aef6
beca
bec7
cd8e
89c9
bafc
f698
0b6d
21f6
669b
669f
cea0
e6fc
e6f6
e6fe
6d9a
665c
eb86
0713
1152
1ced
268f
9614
a02e
b06d
b2f8
fbca
a9c7
a6f3
d018
d2dc
d418
e1b9
105e
a893
e25c
89f4
d258
5b64
a6aa
e714
f354
fce8
fceb
fcee
f61a
032a
98db
9d6f
bf2e
f898
291c
2915
b282
dba1
a3c2
e808
a2fc
c8c0
de9e
e76c
03a8
1695
9627
b32a
b322
dd12
d617
9ec5
f3cd
fdf8
0ea3
96ae
afc5
fdc5
59cc
e371
fec0
6610
d9c3
fb8c
98c2
aba0
d1c2
e783
10a0
affe
bd6e
118a
0fff
cd6c
c788
6e44
6d16
b119
f783
9ff0
03ba
041a
07f4
0e14
0384
07f0
0784
0b4d
0902
094c
0e85
09e3
0f6d
142f
1404
14b2
10b2
1382
1c44
1750
1220
112b
1406
172b
11a1
12b3
179c
12ce
240b
240f
2e14
2b46
2386
2646
2e6b
2e19
2909
298e
2e26
2e2c
27fd
2777
29b7
303c
33ba
3113
3008
3012
30fc
3ea2
374d
3406
324e
3de3
36b0
3099
3009
3ddd
30b9
30f9
3127
36b2
37bd
366e
43ba
4404
4113
4008
47c3
412e
440d
4382
4c44
4c8e
4c81
4222
440f
4032
4eb0
424e
404e
41ae
400f
47c2
41aa
430d
424d
4099
4e1e
4eb9
4385
41a2
42b2
4005
4227
4037
460b
4207
542f
540e
560a
540b
56b9
53de
50b0
5317
531f
5d43
5311
560f
594e
56bd
594a
5999
606c
6747
6c47
640b
6184
6406
6e66
6c8f
6c87
636d
6798
638f
67f3
6d77
63d1
7c49
7747
7c43
7382
746d
774e
7307
7c8a
7e0e
7c82
70f6
70b3
7381
7e16
70b9
7363
7e13
73d8
7e6f
794e
7e27
8404
8c43
8c44
8314
8098
8333
804d
822c
8030
836f
8633
8643
87f8
8035
804e
8e1a
8eb1
810e
836d
82b1
836e
8e1e
831e
8312
830f
8792
81a8
8009
814e
87d3
8673
8984
83d8
86b2
82bf
81a6
89ed
81a3
8e2f
81a9
87ab
89be
93ba
9002
9e50
90b2
9e21
922a
9914
9c41
9035
9e0e
92c0
9243
9eb2
9273
9946
9e6e
9666
97b3
979f
a41a
a064
ac4e
a1a0
a222
a40f
a04d
aec2
ac82
a31a
a60d
a36d
a00a
a784
ad4e
a385
a2b2
a14e
ac86
a605
a311
ab4d
adb7
a943
a677
a90b
b4c3
be2b
b2f0
bea2
b098
b3de
b24e
bc8f
bc82
bd0e
b7fc
b31a
beb2
b90e
b909
b7ae
b2b7
c03c
c05c
c348
cc49
c0fc
c3cf
c38b
cc44
c74d
c750
ce18
cc81
c3de
cd24
c036
c03a
c386
c36d
c36e
c0b3
c381
c223
c1a2
c982
c984
ce1d
c0b1
c988
ce26
c905
cf2e
c9b0
d414
d012
dc4c
d38b
dc4e
deee
d246
d0b4
d2e3
d38c
d9ee
d7a5
d2cd
df26
dd27
e79a
e012
e0fc
ec4c
ec47
e1ac
e3de
ec4f
e0fe
e3d0
ee8a
e03d
ee84
e98a
fe50
f032
f6b0
f7f0
f223
f26d
f7d3
f007
f707
fd26
fe23
0094
00b6
00c7
00cf
0191
013c
01e8
01ba
0170
01ee
017e
010e
3b34
3bec
3b44
3b74
3bdc
3b47
3bf2
3b30
3b75
3b0f
3b66
3b16
3b43
3b4e
3b57
3b85
1b38
1bec
1b64
1bef
1b0d
1b8b
9144
910a
91f5
917a
919e
9124
9118
91cb
915a
91c6
9152
91f4
3f34
3fe7
3fea
3f39
3f76
3f94
3fb6
3f62
3f7c
3f64
3f71
3f30
3f78
3f66
3f12
3f1f
3fcb
3f92
3f97
3f13
3fb2
3f50
3f07
3f56
3fa2
3f82
342d
34f2
345a
34ad
34a3
345f
081c
0844
0836
08b4
08f2
081a
0824
08b0
08b2
6a62
6a7e
6a8b
6a58
0a05
0a70
0a1f
0a18
0ad3
0a2e
0a17
0a54
0a53
486a
4845
48e7
4876
4862
4844
484c
4874
48f5
4895
482a
483d
4847
48e6
48d2
48de
481f
48dd
48f8
4896
48c0
484d
48c3
48bf
2f34
2f45
2f25
2fb5
2fb6
2f3c
2f49
2f4f
2f3d
2fd8
2ff2
2f63
2fd0
2f30
2f75
2fd3
2f2e
2f67
2ffc
2f73
2ffd
2ff7
2fb3
2fc1
2fb7
2f8b
d52c
d56b
d52b
d5d3
d57e
7b28
7b69
7b3c
7b8c
7bca
7bdd
7bff
7bc0
7b16
7b13
7b0e
7b6d
7b56
7b8e
9e71
2d94
2d9d
0807
3e45
3ee7
3ea4
3e4b
3e69
3e62
3e44
3e41
3e0b
3e22
3e49
3e0a
3ee5
3edc
3e31
3eba
3e0f
3ef6
3ee3
3ec0
3e23
3e0d
3e07
3ec7
3e88
3e83
3e81
3e87
383d
3864
38ba
381f
387e
3867
384d
3899
3877
38c6
3821
38f4
38b7
ea38
ea2c
eaeb
ea52
ea85
0c08
0c1b
0c06
0c39
0c32
0ce4
0cb6
0c4c
0c4f
0c74
0c3d
0c64
0c71
0ce8
0c30
0cef
0c6f
0c9e
0c9a
0c24
0c1f
0ccb
0c6e
0cff
0c4d
0ca2
0ca6
0cad
0c87
da68
da74
daca
daf5
dae8
da98
da9a
dafc
da10
dac7
daab
28b8
2862
287c
28f5
2895
2864
28d4
28e0
28de
28be
281d
28c7
28a0
28a9
2887
0d34
0d48
0d62
0d44
0d2a
0db0
198e
1985
1987
3945
39ba
39aa
39b0
39a0
39a2
7625
7662
7674
76ca
7661
76ba
76e0
76e9
769a
76dd
7646
7626
76fe
7650
76f4
765c
7682
768f
f0ea
f076
f0e4
f0c8
f0ca
f0d8
f07a
f072
f0de
f046
f0ff
f0fd
f0cd
f057
f0c9
f05d
f1e4
f135
f164
f17b
f118
f1fe
f16d
f10d
151b
15e6
15d2
150e
3c99
8b3e
8b02
8bd6
8b31
8beb
8b9b
8b7e
8b5c
8ba0
8b8f
8ba7
452d
45d9
45a4
4506
45fa
451c
45e1
4522
4565
45db
4566
452b
45ed
4520
45fb
4526
45aa
45b0
4507
45f3
45f9
45ab
4581
9082
1910
183a
18d7
188b
b84f
b8b0
b8c3
b8bf
8d15
8da4
8d25
8dec
8d4a
8d61
8df0
8d82
2d91
2db6
2d64
2d6c
2deb
2d7d
2dfc
2d73
2dc0
2dfe
2df0
2d6d
2dcd
2d86
2d82
2d87
5fe2
5f8f
4fdf
4ffc
4fff
4f59
b676
85a4
8532
851c
85e1
85af
8544
854a
8561
859a
8592
850e
85aa
85c2
851d
8557
8586
85a8
858e
858f
0238
024b
0294
020c
020a
026f
0218
0297
0273
0226
02a6
9c0c
9c0b
9c22
9c37
9c2c
9c04
9c6c
9c30
9ce0
9ce9
9ced
9c93
9c0e
9cb9
9cf4
9c56
9ca2
0bc4
69c4
697a
69c0
69c3
69f9
825d
8253
0598
059d
0599
1a3a
1a9e
1aed
fa7c
fab4
fa78
3a42
3a3e
3ae5
3ad4
3aeb
3ad2
3ade
3add
3a77
3acf
ec6a
ecbc
ec0b
ecd1
ec05
ec71
ecd2
ec98
ec2b
ecf8
ecf6
ec96
4c45
4c90
4c64
4cf2
4c63
4c7a
4c12
4c92
4cf8
4cfb
4cbe
4c1d
4c58
4c5d
5c2d
5c90
5cea
5c68
5c94
5ce4
5c3c
5c2a
5cce
5cd2
5c9f
5cee
5cf8
5c1e
5c73
5c52
5cb7
5c56
5c5d
4a15
4ad5
4ae2
4ae5
4a7f
4aed
4a97
4a13
4a19
4ac6
4a0d
4a84
5791
57d5
5738
5728
57e2
578c
572c
5709
570f
572e
57dd
57fc
5797
5796
57e3
5726
5717
57aa
57f0
5707
57a2
578f
57a7
c662
c637
c67b
c618
c67d
c6f0
55c8
55c4
55ec
554c
554a
55ce
557a
5561
5571
55e0
55cc
557e
5593
5527
5516
554d
554e
5521
55f4
55f9
558f
4791
4734
47d9
47e7
47b8
4735
478c
47d0
47e8
4730
4733
479c
471a
47d7
47ee
471e
4726
47b2
4757
4721
47b3
475c
47a1
03e0
3506
3532
35e2
3549
352c
3571
35df
3598
3524
3518
3520
3592
35aa
3550
3588
35a3
492d
4928
49b8
4962
4922
4974
492a
4963
49ef
49d3
492e
49f8
4926
49c6
4921
4923
49c9
461b
4606
46da
46c8
46d6
46dc
46ce
46d8
46db
46d4
4679
466e
46fb
46c3
46be
46fd
46f9
a815
a8b6
a8e0
a8aa
a8a8
a883
8c6a
8c45
8c38
8c28
8c76
8c02
8ce1
8caf
8c0c
8cb4
8c61
8c11
8c9b
8cff
8c0e
8c6d
8cf1
8c29
8c1d
8cc1
8cbf
8cb7
8c55
7c08
7c6a
7ce7
7c4b
7c94
7c1c
7cec
7c3c
7caf
7c0b
7c35
7c63
7c61
7cd4
7c7b
7c12
7c1f
7c9d
7c6e
7cff
7c23
7c0d
7c52
7cb7
7cf9
7c51
1ca4
1c94
1cec
1cd6
1c0a
1ce5
1c36
1c2a
1c2f
1cf2
1c33
1c9c
1c9e
1c9f
1c97
1cb3
1c54
1c5e
cc38
cc02
ccc4
ccf5
cc64
cc9c
cc9a
cc9d
cc67
cc5a
ccc0
cc17
ccfe
ccb9
ccc9
ccb7
cc5b
95ea
9569
95e5
9578
956b
9551
6c2d
6c4b
6c3c
6cca
6cf2
6c61
6c6b
6c1a
6c9b
6c7d
6c6e
6c97
6cfb
6cb0
6c19
6c6d
6cbe
6cb9
6cc1
6cf9
6c5d
581c
587a
587f
58e0
5811
58e6
587b
5824
582e
5813
5886
58a0
588e
58a6
2c1b
2c42
2cd5
2cb6
2c02
2cfa
2c22
2cd6
2c31
2c9c
2c16
2c99
2cc3
2cc5
2c52
2c54
2cb7
2c5b
f53f
f542
f506
f528
f5da
f5bb
f5b5
f5e1
f562
f5af
f58c
f5ca
f5d8
f57a
f5e8
f5ef
f59e
f524
f514
f520
f5f8
f596
f54e
f58a
f58e
f5ad
bc06
bc3e
bcda
bc39
bc3c
bc2a
bc30
bcde
bc1a
bc7d
bc27
bcfe
bccd
bcc7
bccf
bc58
65a4
654b
650a
6531
65ba
6524
655a
6599
6577
6556
6581
65a5
5aea
5abc
5ac4
5a2c
5adb
5ae0
5a78
5ac7
dc08
dc91
dc68
dc94
dcc8
dcc4
dcfa
dcd6
dcca
dc3d
dc64
dc33
dc79
dc98
dc18
dcf8
dc1e
dcff
dcc0
dcb2
dcc6
dc54
dc58
dc5b
aa3f
aa91
aa28
aada
aa22
aa0a
aa8c
aa37
aa04
aaba
aadb
aa6b
aa33
aadf
aade
aa67
aa1e
aa0e
aa99
aa19
aabe
aa50
aa58
aaa5
aaa7
aa87
ca15
ca62
ca7c
ca9b
ca73
6848
6842
6868
68b6
68e1
6862
6864
68ef
6820
6816
ac3f
ac42
ac38
acb5
ac22
ac63
acdb
ac98
ac9b
acf8
ac17
ac99
ac6d
acc5
ac07
acb3
acb9
25cf
0ba4
0bec
0bf2
0b75
0b20
8ad9
8abc
8a1c
8a70
8a9a
8a58
8a5d
2a28
2abb
2ab5
2a02
2a62
2ae2
2a36
2ad1
2a63
2ad0
2a11
2a66
b5d9
b5da
b576
b5bb
b502
b578
b566
b57e
b5c0
7a1b
7a3f
7a91
7a15
7a42
7a39
7abc
7a94
7a1c
7ae1
7a35
7a30
7a12
7a17
7a8a
7a52
7ab1
7abd
7a84
7a88
7a86
7a55
7aa2
7a8e
7aa3
fc42
fc28
fc39
fc94
fcc4
fce1
fcd6
fc35
fcf5
fc95
fc31
fc2f
fcd8
fcf2
fc63
fc7a
fc71
fc75
fc1a
fc20
fcf6
fc26
fcf0
fc1d
fcf9
bfda
bf4a
bfd8
bff2
bf14
bf9d
bff7
bbbc
bb44
bb70
bb7e
bbf6
bb73
bbfe
9090
88d9
8832
88b8
88f5
887a
8861
8870
886f
88fe
888a
88ac
88f4
88a2
a506
a53e
a594
a5c4
a50b
a50a
a52a
a570
a514
a520
a5c0
a5b0
a54e
a529
a523
a5b9
a55b
d815
d83e
d8ea
d869
d841
d820
d816
d8b3
9a6a
9a60
9a3a
9a0a
9a71
9a9a
9ac0
9ac6
9a50
c8da
c868
c8fc
c853
c858
c8a2
bafa
ba04
ba64
ba9c
ba1f
ba10
bac6
ba5e
c5e4
c562
c5b4
c5cd
c550
c586
c5a7
c587
e548
e568
e530
e54e
e5be
e553
e588
7f15
7f38
7f32
7fb5
7fb8
7ffa
7f22
7f49
7fce
7f63
7f09
7f7a
7fdf
7f0f
7f12
7f9b
7f7d
7f93
7f43
7fc2
7fc1
7874
7836
782c
7820
7810
7846
78f0
78ac
7850
788b
7858
785e
5bd5
5b32
5b0b
5bdb
5be6
5b70
5b9c
5bfe
751b
7591
7515
7594
7502
752c
75f2
75f7
0404
6b3f
6b34
6b45
6bd9
6bd5
6b90
6bd0
6b2b
6b29
2be7
2ba4
2be4
2b92
2b10
2b17
2bf7
2bf4
20d2
52a4
52b5
52b4
5204
52e8
5211
52e9
52ed
5299
f8d5
f8e0
f820
f8f0
f8a0
f8a2
e8e0
e85e
abda
ab02
abfa
abd0
ab78
ab98
ab2e
8e90
8eb6
8e02
8ec4
8ee2
8e65
8ed4
9b48
9b3e
9b28
42ea
42bc
42b5
42ec
42e1
4212
429b
4293
4296
4213
4217
1f08
1f62
1f7c
1f04
1f30
1f72
1f70
1fd7
1f9d
1f93
1ffc
1f1e
1f1d
b922
b9f5
b96b
dbd9
dbea
dbe6
db16
db21
eb94
eb3a
5108
5142
5106
5139
51c8
5102
51ec
514c
5165
51de
1148
11ec
11d0
116c
119e
c4e7
c494
c4fa
c4af
fb34
fbdc
fbe8
fb1f
22c4
227a
2272
146a
1469
be91
be68
be25
be63
373f
3738
37ea
3728
3732
3794
37b5
37e2
37d6
373d
3731
3730
377d
41e4
41fa
413c
4149
410a
414f
4130
41db
41eb
41d2
4133
4172
419e
417e
21e0
e46b
36d5
36e7
36ea
3628
3676
3694
36e4
3660
363c
3665
36e5
3636
36b4
36df
367d
3dd5
3d3e
3dbc
3de4
3db5
3dec
3d44
3d41
3d4a
3d36
3d3d
3d47
3d2f
3def
3de6
4dda
4dbb
4dc8
4d75
4d7b
3242
3244
3295
3204
3205
321a
32ed
3219
e2ec
e2b4
e264
e29a
2438
24eb
24df
3108
31d9
31a4
3168
3125
31c4
311c
31f5
313d
31f2
31e8
3130
3133
3172
866a
86b5
86fa
86ca
8661
c115
c16a
c1e7
c13e
c102
c144
c1e5
c137
c12a
c12f
c179
c170
c19f
c19d
c1ee
8142
8132
81e4
8125
81f5
81ef
8178
817d
81d3
8192
543a
54d0
5466
712d
713a
71d0
7170
71dd
1db5
1dca
1deb
8276
82b6
8269
823a
8261
8278
829c
8298
8218
8214
821d
ed08
ed15
ed74
8f94
8f02
8f1c
8fe2
8fdc
8f66
8fd7
8ffc
8f16
74e5
7463
74d0
74e6
74ee
60ec
60d6
af38
af64
afd4
afd2
af70
af1f
441b
44e5
44dc
44d0
44e9
44de
446f
44d3
446e
0f34
0f4c
0f30
61dc
619b
f202
f20c
f29c
c2b6
c262
c241
c249
c24f
c2e5
c27b
c26f
c210
16e4
1602
1644
7d3f
7d6a
7d42
7db6
7de1
7d0b
7d8c
7dd1
7dd8
7def
7deb
7dde
5d15
5d6a
5db6
5d36
5d7b
0445
04da
0439
0430
04ef
04eb
04e6
046b
0467
0d5b
cfa4
cf60
cf7a
cf12
17d9
178c
17d8
17eb
1778
4045
4038
40c8
40d6
40f5
40d1
40d8
40d0
40e9
40dd
b43f
b491
b4ea
b468
b432
b4c8
b435
b4db
b4eb
b4df
b46f
b4d7
b4dd
f691
f645
f6d5
f690
f6bc
f6f2
f6e0
dfa4
df04
dfdb
b115
b12a
64e7
641c
64af
6464
64ed
64ee
a991
a9d5
a93a
a931
a933
a996
30ea
30b8
30b6
30c4
30fa
3049
3095
30d1
264a
8708
8745
8732
87b5
87ec
8744
8704
87de
2e39
2e02
2ee1
2e31
8942
8938
89b5
89ce
1ebc
1e8c
1ed8
1e30
a142
a162
a1e5
a19d
a173
fd48
fd15
fd1c
fdd3
d142
d1f2
c045
c0ea
c0c8
c044
c07c
c0e5
c0dc
c0d0
c0db
c0eb
c0e6
c0d2
c07d
c0ed
c0d3
c073
3af0
3af7
8434
84d9
84e7
8438
8435
843d
8463
84eb
1206
123c
1247
1292
1217
9715
9794
97c8
97d0
97d4
97e0
e038
9f08
9f94
9f3c
9f4a
9f95
9f75
9f93
9e28
9e32
9e69
9e63
9e6c
9e30
c736
c7e8
c77f
7e08
7e34
7e25
7eb5
7e0a
7ee5
7e36
7ed7
5642
56e7
5690
56ea
5639
5641
567c
5665
56ca
56ce
56e0
56d2
56dd
6278
c93e
c9d2
c972
ff32
ff1c
ff0a
ff3d
ff0f
fff6
ff10
ff1e
6f62
6f22
6fba
6fcc
6ff8
de62
dee2
506a
5025
50d6
504a
50f5
50d0
bde4
bd62
bde2
bd2c
bd05
bdd4
bdd2
a4d5
a44b
a439
a432
a462
a431
a464
a4d0
a4e9
a466
793f
796a
7906
7990
79e4
797a
e776
e744
e7d6
e74a
e7f5
2968
29d8
2961
2992
d93f
d9fa
d9ec
d995
d64b
d662
d63c
d6dc
d66c
a7d5
a790
a78c
a770
d73a
d7e2
d7f2
d77d
3362
9234
9268
92c8
9202
9236
92ba
92eb
9270
9216
7742
77ea
77bc
77b5
77ec
772c
7795
77e0
77e6
270c
278c
2774
27b4
ef44
ef7c
efd0
ef78
d2fa
d218
fe34
fe3e
feba
ae60
aed0
ae6c
e9b5
e9e8
e972
8091
8090
8038
804b
8044
80d1
8078
8075
807b
807d
80d3
8077
d448
d46a
d4d9
d460
d4e5
d4de
d467
ce62
ce8c
ced2
cd6a
cd45
cd7c
cdba
6306
6368
6374
b748
b728
b739
b725
b71c
b772
e1e2
e198
59e8
5975
599c
5996
7278
729e
a2b6
a2e2
dd2d
dd4c
dde5
dd30
673e
6790
67b6
67e5
67dc
66e2
6664
9d48
9d3e
9d28
9d1c
9de1
9d0b
9d22
9d7a
b268
ad41
add6
5391
53c4
f7d0
0e15
0e8c
0edf
4018
401b
4019
093d
0794
07b8
07fa
077c
074f
074a
6d7c
6df5
1390
1338
a678
f908
f9e5
f9d4
e608
e6d9
e668
e6e4
e63a
e6dd
99fa
9936
f415
f442
f494
f4fa
f43a
f47c
f4d1
f464
f4d0
f46c
d042
d079
1452
70a4
70b5
70c4
7044
704c
5e72
b0bc
eed8
03d9
0328
0376
03dc
c308
c33f
c3d5
c328
c3da
c376
c369
964b
43e7
4338
4376
430b
4335
430a
4304
8308
83d9
83c4
8362
8330
a095
1048
10f2
245b
9390
9328
9336
b368
b30c
d332
73a4
7328
7362
7304
7330
a368
a31c
a362
f330
4052
4053
c0a1
c0a9
e42b
5394
e3d5
e30c
e365
3026
302e
1f5c
1f5d
bbba
4762
4760
63a2
635d
4904
63ce
4e5e
5453
43a1
63f3
1354
745b
745d
7452
491c
4916
68c2
6255
3683
e4b4
e4b5
2758
275a
32c6
2d5c
2d58
3318
24b9
84ac
84a3
6152
52a5
8429
5483
749e
c4f0
c4f9
04be
04b1
31ad
14b5
42a8
42a5
3daa
41fe
8cad
445a
1ea9
56ae
5428
54fb
54f2
54f3
54f9
435b
435d
435a
435e
4357
4359
66f6
6909
6cad
3d92
3d97
3d99
3e7b
3e76
3e7e
3e77
3e75
7e72
7e75
c05d
3806
380d
6478
74fc
74f7
c4c7
c4b6
c4bd
c4b3
54bc
54ba
54be
7429
7d53
7d51
1faa
365a
eb64
3dfc
3df8
480d
480e
480f
376d
3765
c3b9
c4a7
3d88
845e
845f
4d54
4d5b
4d52
04f4
44f3
44f0
44f9
64bc
64ba
64b3
64b9
b088
14a1
9e5a
9e52
9e5e
9e55
9e5f
8153
40ca
40ce
53f2
0492
0495
8350
502a
5022
7cae
7ca9
2da8
2da5
2daf
74c6
c2dc
c2d8
c2d1
415c
415b
415e
4153
375a
aca8
24f1
611f
74ba
434c
4346
44a8
44a2
44a3
5cac
5ca8
1dcc
1dc3
447a
4479
449b
449f
c48c
c377
834e
8341
8345
9e9a
9e93
c3f8
c3fa
c3f7
2069
7f51
53e4
53e8
53eb
53e6
53e2
7dae
7da3
848a
84b4
84b3
c49b
14c0
547a
5471
84ca
c01c
c018
c39c
8063
8c82
8c83
849c
849d
849f
fd82
32d6
32d2
32df
689a
6493
649f
04ad
4d95
402f
3629
32ff
43fc
43fb
43f6
43ca
58d4
7443
5061
5065
5898
589d
5892
589e
308c
308a
3082
4ca6
4ca2
4ca1
82d1
82d5
ecaa
eca2
ecae
eca0
54a1
58c6
58ca
58c5
33f4
40a3
53a2
53a1
83b5
515e
444a
4449
8472
8475
a42e
a427
43e8
43e6
43ee
43e0
43e1
43e5
a48a
a482
46ae
46a0
8f5a
8f5f
7486
7482
a4fe
2e97
2e9f
23a8
23aa
644e
6449
51b8
51b1
8446
844d
b454
b458
b459
c1b2
c1b3
c1bf
0e5a
2e58
448c
448b
4485
42d8
42de
4af4
0428
0426
3255
43b4
43b1
43b5
4686
56c3
56c9
56cf
841e
8417
8411
6d5b
0da6
1473
1477
52d4
52dd
52d2
83f4
83fd
82ae
82a0
82a9
b49e
b497
41b4
5088
508e
b4ba
b4b7
b4b5
b4f3
c3a6
c3a2
24cd
24c9
3ea6
3ea0
3392
3dbe
3db1
8bb0
865a
3dce
77a8
862b
8626
c158
2424
2426
418f
83e6
c355
d486
4dc6
a4be
a4b1
b3b6
c2f2
0fac
141f
8024
8023
36a8
36ad
7afe
7af7
7e5c
7e5a
b424
b425
22ce
2b88
40bf
eb5f
541d
7e9a
80a5
c322
c323
c325
d2ab
d2a9
4ea8
4e84
4e85
f01a
f017
f019
f068
f060
f06f
2ef0
30c6
632c
262e
3d16
6346
a91e
a450
b4a8
1e56
86a4
86a9
ed90
4da8
4dab
4da7
7760
8392
afa8
afa7
afa1
1444
cd5a
f658
7a4b
7a4a
86fb
86f3
90ac
92aa
437d
4370
5da6
5da3
561e
5610
5611
8320
c06d
c3e6
025c
5d64
5d63
51f6
51f3
818a
9654
a75a
5bbb
50cb
92d3
c1f4
b25d
b25e
c34c
f1bc
0446
044d
044e
044f
5bc8
5654
7893
7ecd
7dcd
7dc2
8d5d
d424
d42c
d42e
d423
2ea1
4d14
4d12
8719
9e8a
9e87
b3ca
b3c0
b3c5
c2a6
c2a5
1484
1488
148a
205e
4695
56f4
791d
7919
7d82
7d8e
d3e8
869d
869a
80cb
80c6
80ce
80cf
ae7c
2cac
2ca5
8054
805d
8055
805f
b354
b35c
d49c
d492
33ee
7d1e
7057
c3c7
d45d
d45e
f493
3372
3370
6ea8
6eab
6ea6
beaa
beae
bea0
bea5
d916
f08b
f086
fd58
ff5d
ff50
0373
2283
7ef1
8616
b44a
b054
b052
11b9
22d4
22d1
7010
8892
8faa
837b
a254
a25a
b788
f688
37a7
6e58
739b
81cc
81cd
81c7
925c
9253
0485
04c0
369a
8911
b1bc
51cc
53d3
6ced
d4a0
f4b8
f4b6
31ce
9010
9019
ef56
59b2
6da3
6da5
8947
8941
9068
b41e
03b4
1ca5
16c0
7e4c
7e4d
7e43
af5a
d656
d985
f471
bdf6
bdfe
d284
dced
f48f
f4ac
f4a8
0473
41c2
47c6
47ce
47c7
6d8a
90cc
90c2
1e78
1372
2bbd
6287
89ac
f4ca
f4c9
02d6
02de
0b5b
23f0
7d6f
ada0
a49b
a9a2
a9a0
d764
f288
035c
0352
1324
73ac
99f8
13ae
4e97
7024
702b
7022
93cd
93c7
a3b0
a3b5
ad50
aead
aea7
bef8
c11d
0283
5118
5111
ae5f
d39b
d054
189c
93ec
93ed
93e2
a44c
a449
b2a5
de5c
e65e
2716
2717
bdc6
bdc2
13f4
13f3
5698
5692
5d1d
cf54
e69c
2477
4d85
cd92
2e4a
639f
e622
f6f6
f6fe
86cc
8116
8110
902a
a3eb
a954
a958
c186
c18e
d3bc
d716
d71a
d719
3188
3186
5188
77c6
d4bc
9da0
bf53
6809
7320
a412
b0c2
b0ce
ccee
ccef
790f
7712
abb3
aef0
b0a6
d3aa
d3a5
d8dd
d4c2
d4c0
d35c
d350
1258
125d
6bca
89c5
a1ce
b479
6f8a
9afc
9af2
bd12
bd11
cea1
e02e
be58
be5f
1ce8
1cee
2684
9f52
a026
ad61
b2f4
b2fe
c710
de7c
d320
fbb8
f622
1084
1083
9ea0
9ea1
a9cd
a6f0
b02e
b020
d410
d411
d41f
e1b3
03cc
62dc
62d5
7788
8afc
8af2
a899
edfb
ffa8
6b50
737b
7372
8e96
e718
095c
1e9b
61f4
b71e
c652
f153
fce9
f75f
034f
98d8
98d2
b9c2
b9c0
f3fc
f89a
f895
faf8
f712
175b
92f2
b28a
e3cc
fd9c
1df4
71c7
a015
e0c6
b69c
8ffe
db6c
ee54
2a41
9efe
d6cc
fba0
73ca
a8dc
a2ac
de93
e760
adf0
ba4c
d68a
d682
dd14
d61a
234a
6b6c
9d14
9d19
ab8c
d9ac
d9a7
ea44
ebcc
1d88
a187
d084
d08e
d6f6
6b88
a718
a71d
dd5c
97ca
d34c
ee47
edc5
09cc
09c1
e61a
e619
e9f9
1d13
668f
6618
8fc6
d9c6
eeca
e9cf
fb81
f9cc
29c7
66cc
7112
7110
d02c
d7ce
968e
aff9
cdf1
e110
1186
eba0
ca4b
e181
cd64
d2f4
a0a0
03de
0e2a
0364
0388
038a
0e8a
0982
098b
140e
160c
138b
1c8e
1e18
1030
1633
1c82
1386
17f0
1784
17a1
1909
1905
166f
1f24
2184
2e18
2c81
2c4f
2030
2409
2c8f
2c85
2e11
2388
26b0
2129
2e8a
2121
2944
298f
2986
294f
2e2f
2e23
27a9
2949
3d1a
3154
33cf
336c
3093
32f0
30f3
374e
372b
3033
30fe
330e
32e3
309f
322b
3126
37b0
30f8
30b0
33d2
309e
3666
3d46
30b7
36b1
33d4
37b7
46a2
43cf
4184
438b
446d
422a
400d
412b
4e14
4006
409d
4036
403a
4e17
4124
42b1
4229
438c
430f
42b0
409e
4366
4043
40f7
4c86
4d46
40f1
4605
4361
4e0d
4143
42bf
41a7
5c88
54b2
5604
509a
50b2
540a
5184
546d
5c4d
5313
5c41
57c2
52c0
531a
51ad
5097
52cc
52c3
520e
531e
5646
51a8
52b2
531d
5146
5673
5db3
5db2
5607
514d
50be
5944
5dbf
52bd
509b
5d2e
600c
6e50
60fc
636c
612b
6eb0
6318
6eb1
67aa
609f
638c
62be
6366
67a8
679e
66be
62c5
67ad
7c88
77f4
77c3
736c
7ebf
7c4c
7729
7e88
7222
7406
7e66
772b
7c41
7409
70f4
77f8
7ed3
7035
7e11
7eb1
77f0
7c8b
731e
7eb9
7d4e
70b0
77d3
7e8a
7eb3
7e6b
7e1d
7e8f
794c
7e23
7d21
7d29
8224
879a
811a
860a
83a0
86b9
8729
8307
864d
8384
8405
80fb
8036
8243
8124
8273
800a
830d
82be
8646
80ff
8723
82b3
879c
8146
81e3
879e
8277
8127
814d
892e
8926
80be
8e8e
87ae
86b7
83d7
8f2e
8fb2
89b2
9224
97cc
960c
964e
9c8e
9032
9eb0
9246
9b46
9388
96b0
960d
9e22
90f6
92cc
938c
90b3
97b0
90ff
97b2
97dd
9e19
9e1f
979e
99dd
a00c
a224
a154
a2b9
ac4c
a46d
a09d
a7be
ac8b
a726
ae24
ac83
a31e
a1a1
a2b3
a36b
ad43
a66d
ae2e
a94a
a9dd
af20
a9b3
b05c
b80c
b11a
b40d
b406
b0f4
b04e
b1aa
b38e
b946
be8a
b2cb
b926
b7a1
b90d
be8b
b9bd
cd1a
c7cc
c2c2
c012
ce2b
c11a
c093
cc47
cdee
c36f
c033
cc8f
cc82
cc87
c046
c00f
c38a
c273
c09f
c1a1
c0b0
ce6e
cd7e
c0f7
c31f
c09b
c2cd
c94d
c9be
d90c
de71
d7f4
d11a
d402
dc46
dc43
d222
d12b
de66
d409
d643
d6b0
d7f0
d2cc
deb9
d319
ddb2
d387
d7a7
e00c
e03c
ed1a
e729
ee20
ec8e
e1a0
e030
ee2a
ec8a
e0f4
e0b4
e1ae
e31a
e60d
e2cc
e7dd
e31d
e0b9
e037
e988
e7ac
e999
edb9
e9b1
f06c
f40d
f382
fc44
f407
f3de
feb0
f030
feee
f036
f386
fe22
f784
f005
f673
fd46
f039
fe1f
f3d4
00f2
013f
0145
01e7
013e
01bc
01c4
01ec
013a
0136
0131
01f2
0166
016e
01fb
015c
3be2
3b36
3b05
3be0
3b11
3bde
3b12
3b14
3b7e
3bf8
3b73
3b17
3bf7
3b51
3b5e
3b5d
1b7c
1bd6
1bf2
1b75
1bc5
1b88
1bad
1b8f
913f
9115
9128
9132
91c4
913a
914c
914f
91db
91d7
9196
9126
9119
910d
91a0
915b
3f91
3fd5
3f90
3f25
3fb8
3f3a
3f22
3ff5
3f37
3fd1
3f61
3fe6
3fe9
3f0f
3f9e
3f9b
3fd3
3fc0
3f17
3f6d
3fcd
3ff7
3fc1
3f58
3f5b
3f5d
3fa3
34d1
3475
341f
34dd
34fc
34f6
34ac
34b9
34f9
345e
0894
088c
083d
08d0
086c
08e9
0818
08f8
0897
08a8
6a38
6a3c
6a70
6a10
6a26
0a45
0aa4
0a3a
0a4f
0a2a
0ae6
0a9c
0a9e
0ad7
0a6e
0af0
0af4
0a86
0a55
482d
48a4
4832
4825
48c4
481c
484f
48e5
48ce
489e
489b
4818
489f
48e3
48fb
4899
48fe
486d
48be
48c5
4852
48b3
485e
48ab
48a5
48a7
2f1b
2f3f
2f91
2fb8
2f44
2f4a
2f36
2fb4
2f04
2fce
2f05
2f64
2f66
2fed
2f27
2f10
2f46
2fb0
2ffe
2fb2
2f50
2ff4
2fc7
2fcf
2f84
2f53
2f88
d562
d536
d573
d5c5
d5cf
7b38
7bda
7be1
7b35
7b2c
7bd0
7bef
7be6
7b0f
7b66
7b18
7b27
7b46
7bf1
7bcd
7b5d
9e76
9e7d
2d9c
2d9a
3e39
3e68
3e32
3eb5
3ec4
3efa
3e1c
3e35
3eef
3ee6
3edf
3e9c
3e6f
3edd
3e67
3efb
3e4e
3ec3
3e8a
3ef7
3ec1
3eb1
3ef9
3e53
3e55
3e51
3e5d
3e5f
3838
381c
3844
38d7
3829
3823
ea68
ea02
ea1e
eac9
eac7
ea56
0c6a
0c42
0c76
0c02
0c0b
0ce0
0cdf
0ce9
0c9c
0c2e
0c67
0c5a
0c97
0c96
0c26
0cc5
0cc2
0cb9
0cf4
0cb1
0cbd
0cc7
0c5c
0ca0
0c51
0c5d
da15
da2c
daf8
daf1
dacd
da57
da52
2815
2868
2825
28b6
28e5
282a
281e
28fe
28c2
28a8
288b
2882
288e
890b
890a
03fd
03fa
0d6a
0dea
0d8c
0ddd
0df6
0d88
1990
19d4
19de
19cc
1984
393f
3941
394a
3937
399c
39b2
39b1
39a9
7602
7622
7604
767a
7671
766f
76c3
7677
76b3
76f9
7651
f0da
f094
f0b5
f02c
f0d7
f09f
f0ee
f0cc
f0f6
f0f0
f0be
f0b2
f050
f0f7
f0a0
f0a2
f0a5
f0a7
f145
f106
f128
f161
f1e8
f133
f124
f188
f1a2
f18e
1522
1583
8b48
8b06
8b4c
8b2c
8be0
8be6
8b78
8b98
8b1a
8b7d
8b67
8b1e
8b16
8bfd
8b23
8b0d
8b54
8b55
8b5d
8b5f
451b
45e7
4525
45b8
4569
45e2
4536
452c
4504
4531
4505
4571
45ba
45e0
4579
456f
45cb
4527
451e
4573
4516
45f0
45c9
45f4
45bd
45a0
4582
45a7
45a3
455f
908c
9086
908e
9431
9433
9498
18c4
18b4
182b
18d3
186e
1813
1852
1888
18a2
b83a
b87a
b82b
b88a
b854
b855
8d3e
8de1
8d7a
8d72
8d6f
8df8
8df6
8d29
8d8b
2d2d
2dd5
2d06
2dec
2d69
2d7c
2de5
2d61
2d78
2ded
2d8a
2db9
2db1
2dc7
2df3
2d8b
5feb
4fe4
4ff5
4fe8
4fc5
4ffd
4fc7
b6da
b6fa
b6f2
b618
8548
85e7
8506
853e
8502
853c
850c
8535
8537
852c
8547
85f2
85e0
850f
859e
851a
859f
85f8
85c3
850d
85b9
85c1
8554
85a6
8585
85a7
0276
0268
0202
0262
02f5
0272
0275
026e
02aa
0221
02a0
02ab
9c1b
9c48
9c15
9c76
9c1c
9c69
9c3c
9caf
9ce5
9cba
9cd4
9ceb
9c6b
9c0f
9c7b
9c12
9cd7
9c1f
9c9b
9cf6
9cfb
9caa
9c99
9cf0
9c6d
9cc5
9cc6
9c21
9c52
9c58
9c5f
568f
696a
69fa
69d6
69b0
69c2
69c6
8257
825f
05e7
05e4
054c
0504
05d0
05ee
05f6
051e
05aa
0519
05c3
05c1
05cf
05f3
1a7f
1a8a
1aae
faea
fa98
fa1a
fa24
fa14
0d96
3aec
3a78
3aad
ec45
ecd9
ecd6
ec0f
ec6f
ec14
ecfc
ece3
ecfb
ec17
ecf0
ec07
ecf4
ec53
4c22
4c37
4c72
4c66
4c6f
4c9b
4c7d
4ced
4c97
4c17
4c57
4c21
4cb7
5c3f
5c45
5c3e
5cda
5c39
5c76
5c36
5c37
5cef
5c72
5cde
5cd7
5c7e
5c97
5c10
5c26
5c77
4a42
4afa
4a04
4a63
4a30
4aeb
4adf
4a72
4a75
4a79
4a1a
4a2b
4aee
4a92
4a2e
4a10
4a73
4a96
4ae3
4a6d
4acd
4ac9
4a88
4a8f
573f
57d9
57e7
5732
570c
570b
57d6
570a
5736
57f5
5704
57d1
572f
57d0
57e8
5730
5711
57e6
57df
579e
5712
57d7
577d
5793
5792
57f6
5713
57b9
57f9
57a6
57a3
5787
880a
8805
c608
c602
c61c
c6ec
c63c
c6e6
c6f8
c616
c619
c6c3
c6b2
551b
556a
5542
5545
55d9
5539
5568
55fa
557c
5522
550a
55ca
55dc
552a
5504
5531
557f
55df
559e
55d7
559a
557d
559f
551e
55ff
5596
55b0
558a
5529
55c2
5557
55c1
55c7
55cf
5588
5558
5555
555b
558e
55a6
47d5
47a4
4702
470b
47d6
4736
472a
47d4
47e0
470f
479a
479b
47ed
4793
4716
4717
4719
4750
47b1
4788
4755
475e
47ae
478e
4781
47a7
03e8
3508
35d9
35d5
3576
35bc
35bb
354f
35dc
3537
3595
35b4
3531
35e8
35e0
3566
359e
3514
3573
35e3
354d
354e
35b2
3552
35ac
35b1
3551
35a6
49e7
4938
49ea
49b6
4960
49e5
49f5
4937
492f
49d8
497a
496c
4930
497f
49e0
49eb
4978
49e9
49de
492b
49cb
4920
49f6
49f0
49c3
49f4
49bf
49f3
4981
49ad
46f5
46b4
467a
46ef
4611
46d7
46dd
461e
4673
4619
46f1
46c2
a838
a8b5
a81c
a8ec
a811
a8e6
a866
a86e
a8f6
a873
a81d
a8bd
a858
a855
8c08
8c06
8c4b
8c39
8c2c
8cd1
8c71
8c75
8c9e
8cf6
8c96
8cfb
8c26
8cf4
8c58
7c3f
7cd5
7c06
7c28
7cbc
7cb6
7cc4
7c2a
7c2f
7cdb
7cdf
7c0f
7ccb
7c7e
7cfc
7c5a
7cf4
7c5f
1c08
1c45
1cd5
1cb5
1c3a
1c0b
1c74
1c37
1c11
1c75
1c66
1c7e
1c5a
1c26
1cfd
1c1d
1cb7
cc32
cc94
cce1
cc3c
cc0a
cce5
cc95
cc04
ccd8
cc30
cc11
ccdf
cc9e
cc1a
cc24
ccf6
cc1e
cc96
cc99
ccf1
ccbe
ccfd
ccb2
cccd
cc5c
9548
95b8
9502
957a
95d0
9533
9514
9510
9573
956d
9550
9584
9586
6c3e
6c76
6caf
6c0b
6c2c
6c95
6c2f
6c09
6cd7
6cd3
6c93
6c27
6cf1
6ccd
6c23
6c54
5828
5876
58b5
58c8
58b6
58e1
5822
58e9
581f
58aa
5819
58b2
5821
58bd
58bf
5888
588b
5883
588f
2c6a
2c2d
2c3e
2c90
2c4b
2c1c
2cca
2c36
2c2c
2c2a
2c7a
2c61
2c1a
2c9b
2c9d
2c0e
2c17
2cb2
2cc1
2cbf
2c5f
f591
f56a
f539
f5bc
f532
f5ec
f536
f53d
f530
f533
f575
f579
f5de
f512
f59a
f518
f59f
f50e
f5c3
f51d
f5c6
f50d
f5b3
f5b9
f584
f5f9
f5a9
f5a1
bc08
bc2d
bc90
bc68
bc02
bc60
bcaf
bcd4
bcd2
bc12
bcd7
bc9b
bc18
bc9d
bc97
bc96
bcf0
bcc3
bcc2
bc5e
6525
65b6
65fa
650b
657c
65dc
6578
65f6
65a7
6587
5a62
5a74
5aca
5a2a
5aac
5a82
dc48
dc4b
dcbc
dc3c
dc0b
dc95
dc63
dc7a
dc75
dc9c
dc1f
dc14
dcfe
dcc3
dccd
dcb1
dcbd
dcbf
dcf9
aa48
aa6a
aa76
aab6
aa0b
aa7c
aae5
aa95
aa2a
aace
aa30
aaeb
aa0f
aa66
aa9a
aa20
aacc
aae3
aa52
aacf
aa84
aab7
aa53
aa86
aa8b
aa56
aa55
aa5e
aaad
aa8f
aaa9
ca9c
ca9a
ca6e
cac5
ca07
68c4
6860
68af
68b4
6863
682e
684e
6858
685e
68a3
ac08
ac1b
acea
ac4b
ac25
ac31
ac11
ac6b
ac79
ac18
ac6e
acf6
ac27
ac96
acf0
accd
acf9
251b
2528
2532
2562
2504
25e8
257f
25e9
2529
25c6
2507
25a8
0b1a
0b92
8a15
8aa4
8a02
8a60
8ae1
8ab4
8ad0
8aba
8a5a
8ab2
8a86
8a85
2a1c
2a60
2a3c
2ae5
2a95
2a7f
2a72
2a18
2a6e
2a29
2a50
2aa0
b538
b5c8
b5d2
b57b
b5ed
b520
b56e
b526
b552
b584
b586
b587
7a6a
7a38
7a76
7a32
7a69
7a8c
7ab4
7a3d
7a31
7a2f
7ae0
7a6b
7a72
7a75
7a79
7a98
7a1a
7a9a
7a9b
7a92
7a5a
7a10
7a96
7a0e
7a19
7aac
7a8b
7a58
7aae
7a81
7a8f
7a5f
fc34
fc45
fcb8
fc60
fc05
fc6c
fc61
fcd2
fcde
fc2b
fc97
fc73
fcf4
fcbf
fc5e
fc5d
bf08
bf42
bfec
bfe2
bf0c
bfd6
bf7a
bf18
bf1e
bf19
bff1
bb4b
bb0b
bb4c
bb30
bbe6
bb0d
bb07
90ea
90bc
9094
9025
90b5
90b6
8890
888c
8831
886c
8830
8878
8833
8866
8818
8827
88aa
88f1
88be
881d
88bf
8884
8886
a590
a5e4
a5af
a5e2
a504
a5d8
a564
a51f
a527
a5a2
d860
d8e2
d83d
d8b9
d882
d88e
9a3e
9aaf
9ae2
9adc
9a95
9a11
9a72
9a14
9a9d
9a93
9a57
9a84
9a5c
9aa0
9aae
c86a
c828
c8b5
c862
c8e5
c82c
c83d
c8ed
c8f8
c810
c8b2
c877
c8b3
c851
c85b
c8ad
ba90
ba94
ba74
ba6c
bad4
ba33
bad3
ba6d
ba8a
ba81
ba59
c590
c528
c5b8
c560
c53c
c52a
c5d8
c598
c59f
c5f8
c51e
c5c2
c5a8
e534
e590
e5ea
e504
e5d0
e56c
e51a
e52e
e55c
7f91
7f2d
7fd9
7fea
7f68
7fbc
7fe4
7f7c
7f74
7f7f
7f70
7f1f
7f13
7f0e
7f99
7f1d
7f0d
7fbf
7f81
98e2
9831
984e
9850
7891
7848
7828
784b
7839
78bc
78fa
783a
788c
78e6
787d
78ed
78ee
786e
7813
784d
7826
788a
78f4
7883
5b6a
5be4
5b95
5be9
5b2b
5bff
5bfb
75e4
75b6
75f5
753d
75e8
7524
757d
757e
7582
75ab
040b
040e
6b4b
6b2a
6be8
6b75
6b20
6bf0
6bf4
2bda
2b4b
2b68
2b22
2bde
2b9f
2bd3
2b96
20e7
20e8
2077
5206
52af
520b
5297
f890
f87a
f86c
f8aa
f854
f886
f85b
e815
e8b6
e860
e822
e8f8
e8be
ab3e
ab4b
ab7c
abd8
abf2
abd4
abee
8eea
8eb5
9b25
9b4a
9be6
9b9f
423f
4206
4225
42b6
42fa
42e9
429e
4218
4214
4219
1f06
1f90
1fea
1f4b
1f60
1f0c
1fe8
1fee
1ff6
1f0e
1ff7
1fb9
b906
b990
b9dc
b9d0
b9d4
b9de
b99a
b973
b996
db68
dbd6
db1f
db17
eb3c
51a4
51e4
51c4
51fa
513c
514a
518c
5105
5163
51d0
51db
51df
510f
5198
517d
519f
51ed
5193
1194
113c
114c
1165
119c
1107
c4e1
c4e8
c4eb
c4e9
fb48
fbe2
fb36
fb2c
fb7b
fb9d
fb92
fbff
2215
222d
2290
2228
224c
229c
2212
ed5a
1448
142d
144b
147c
143d
146b
be15
bed5
bea4
be3e
bebb
beb5
be3a
be31
beed
37d9
37e7
37b8
37e1
37d1
37db
3733
3775
413f
413e
4128
4176
417c
41d6
413d
4147
41d1
41d8
417a
419f
218c
2197
4e94
4e0b
4e65
4eb4
366a
363a
3641
364a
36d0
367f
36d4
36e6
366b
3675
3670
36d3
3d1b
3d2d
3d42
3dea
3dbb
3db6
3d35
3db4
3dd1
3dba
3d30
3de0
3deb
4d42
4dbc
4d32
4db5
4d3a
4d22
4dd6
4d0a
4d74
4d04
4dd8
3208
3234
3239
32ec
3260
3235
320a
3265
3236
3264
32e8
32eb
3233
320f
3266
3212
3214
e234
e2fa
e27c
e24c
e2e0
e26d
242d
24d5
2494
2435
2466
24ed
3145
3128
313c
3136
3195
3104
3131
3163
316c
317f
31d4
31e6
31d2
31df
316f
319b
316e
3167
3199
316d
864b
86e1
8641
8649
8665
863d
867f
86e0
8678
8679
86d3
86dd
c11b
c148
c128
c1ec
c162
c10a
c174
c131
c105
c1eb
c133
c19c
c16f
c19e
c17d
c173
813f
81e7
8138
8102
81e1
8149
8195
813d
81d8
8105
81f2
81e8
81e6
8172
8175
819e
816e
8173
5448
54af
5437
5431
5461
7142
71e2
714c
712a
71e6
7178
7172
7192
1d3f
1d4b
1d32
1d3a
1d74
1d71
1de0
823f
82a4
8238
8202
82e1
8249
823d
8205
8264
8211
8266
8212
829f
82ee
827e
8292
8210
ed45
edda
edbc
ed32
edd6
edb4
ed31
ed30
8f08
8f15
8fbc
8f69
8f62
8f4f
8fce
8f2f
8f64
8f6c
8fe8
8f9c
8f7d
8f46
8f1e
743f
74e7
74d7
74dd
6038
604f
60db
607b
60ee
af2d
affa
af44
af4c
af7f
afe6
af9e
af18
4491
44d5
44fa
44d6
4464
44eb
4466
4467
0f3e
0f02
0f44
0f36
0f2a
0f04
0f7f
0fe0
0f66
0f9a
618c
613d
619c
f262
c245
c2e7
c239
c276
c225
c2c8
c2ba
c212
c26e
16da
167b
7d34
7d15
7dd9
7d06
7d4b
7d68
7d02
7d69
7d41
7d4c
7d35
7d0a
7dca
7d2a
7db4
7dba
7ddb
7dd2
5d34
5d38
5dbc
5d4f
5db4
046a
04e7
04c4
04fa
041c
04d6
0437
04d1
04ed
04d3
04dd
cf08
cf42
cf90
cf39
cf1c
cf0b
cfba
cfe0
cfd2
cf1a
cf7d
cffc
1706
1776
173c
1744
17f5
17d1
17e0
40d5
40fa
40df
40d7
40ed
b445
b490
b41c
b462
b47c
b465
b4dc
b463
b461
b4d3
f615
f6b8
f6ec
f665
f6ca
f636
f6f5
f66c
f672
f675
f67d
dfc8
dfca
dfdc
dfeb
df78
df9a
df92
df97
df96
df16
b190
b149
b14c
b135
b165
b1f2
b17a
b170
b1ed
b196
6491
64d9
64d5
64c8
6465
6474
64e9
6467
a908
a948
a990
a9f2
a9ba
303f
30d9
304b
30bc
30e1
307a
30ef
30eb
3070
30ee
2628
2668
26ec
267c
8715
87a4
87e4
87af
872c
8779
2e1b
2eda
2ebc
2eb8
2ec8
2e60
2e3a
2e35
2e05
2e33
8908
89fa
89ec
89e5
897a
89d0
89eb
1e3f
1e1c
1ee2
1ed6
1e0a
1ed2
a194
a105
a17a
a1ef
a133
a1ee
fd4b
fdd6
fdb4
fdd4
d115
d160
d14a
d104
d164
d198
c042
c0a4
c090
c076
c0b6
c0d8
c07a
c07f
c0ee
c07e
3afb
8408
84d5
8439
8436
84d2
84d7
122d
12c4
1278
971c
9779
e042
e044
e0e8
e0e6
9f06
9fbb
9fc8
9f60
9f0a
9f64
9fe9
9eda
9ebc
c794
c7ec
c77c
c705
c7ef
c7de
7e15
7eda
7e4b
7ebc
7eb8
7eb6
7e69
7e0b
7e64
7e63
7e33
563f
5645
56bb
56b6
56ec
5644
564f
5663
56ba
5678
62ea
624b
6218
c9bc
c994
c93a
ff2d
ff28
ffda
ff4c
ff74
ff72
ff12
ffed
6f06
6f0a
6ff2
6f30
6f14
6ff6
de42
ded5
dedc
def2
ded4
502d
50d9
5028
50dc
5095
5071
5078
50de
50ee
bd42
bdea
bd3a
bde5
bdd8
bd7a
a42d
a445
a490
a4af
a4d6
a4e6
7908
7945
79da
7994
79b8
79fa
79e1
7974
792c
79d2
7998
e7ea
e7b8
e774
296a
2960
29f5
29b4
d9b8
d92a
d9e6
d92b
d615
d628
d632
d64f
d6f5
d6de
d6d3
a7bc
a70c
a735
a73d
a730
d73f
d791
d715
d72d
d742
d7b5
d7b8
d71c
d7e1
d77c
d7dc
d77a
d77f
d772
d7e9
33a4
3306
3338
3376
333a
330c
92a4
9206
92e4
9260
92e2
920a
923d
9231
926c
927b
926f
929e
929a
929d
77b6
77e2
7722
77ee
2742
27a4
273a
2744
277c
270a
273d
ef06
efda
ef94
efe6
efd2
ef13
d2c4
d21c
d23a
d270
d29a
d29d
d213
fe28
fe60
fe62
fee2
fe6c
fed4
501b
5016
501e
5015
ae38
ae4b
ae94
ae25
ae04
aeeb
e9e1
e93a
e97c
e9d8
e9e6
e9d2
e9d7
e99f
80fa
80af
804a
80d8
80f2
80ef
807f
80de
80ee
d469
d4db
ced9
ce68
ceb6
cee2
ce3d
ced0
ce6c
cda4
cdb6
cdfa
cd60
cde2
cd4c
cddc
cd36
cd04
6315
63d5
63a4
b7d5
b7a4
b702
b7ec
b774
b795
b7e0
e108
e115
e14b
e102
e169
e10a
e1e5
e1d7
59ea
59da
5994
59ce
59d0
5993
7262
723c
7247
726c
7217
a248
a22d
a232
a27c
a27b
dd48
dd76
dd74
6708
6748
6702
67d0
67eb
6615
6628
66b8
66ec
66d1
66ba
9dc8
9dca
b26a
b294
b2b4
b230
ad91
ad32
ad4a
53c8
53af
530a
f7bc
f7c8
f7af
0ea4
0eb6
0e3c
0e04
0eeb
401c
4016
4013
0928
09b8
0930
0998
0744
0774
0771
07de
6dc8
6dd3
13c8
a690
a602
a6c4
a669
a63a
a674
a6d8
a6dd
f92d
f990
f9d8
e63c
e6d8
e6e0
e679
99ea
9930
9978
9998
99d7
f43f
f4af
f430
f4e6
f4d7
d048
d028
d07b
145b
145e
70da
70ec
7041
7047
70d4
b028
b0e4
b0e2
b07c
b095
6e1b
6e15
6e69
6ee2
6e65
6edc
6e30
eeda
ee32
eefa
0315
033a
0304
c3d6
c336
c337
c331
9660
96ee
433f
4391
433e
4332
4374
4330
8376
8360
8369
833a
830b
a03e
a072
a0d3
10ec
107a
6ba8
245d
9339
933d
2390
233d
b315
d391
731c
730b
7374
7336
a374
f315
f32d
f338
f30c
f30b
c08b
c082
c08e
c083
405b
405d
4057
4059
14fd
c0ac
539d
e304
425f
e48b
3027
208a
2087
2b6c
2b65
328a
4761
311d
3112
311e
4fa9
2496
2495
13e0
42cb
42c6
68db
68d7
e4a2
545f
648c
6488
142b
44b7
1356
491e
625c
3a41
3684
5253
79b2
79b0
2756
2752
32c5
2d57
24bf
637f
84ab
84a6
84ae
d0ab
6150
74a6
52a8
52ae
52a7
8421
378b
544d
31a2
37ce
37cf
14bc
14bf
42a1
4dfc
6949
3da7
3da5
338c
3385
41fb
41f6
8ca9
4453
bb88
56a8
5424
5429
54f6
44c7
435c
4358
4353
4351
66fc
6cab
6ca7
315b
3156
3d93
3d90
3e72
7e78
7e7b
7e79
c054
c055
279c
3804
647a
6472
6477
74fe
64c0
64cf
64ff
2ec0
2ec5
26a9
742a
742e
7d57
7d55
7d5f
1fac
3658
3657
4808
480a
3766
c3b4
c3bc
c3b8
c3b7
8457
8451
8455
4d56
4d59
84f2
84f3
84f5
04f6
04f1
64a5
14ad
14a5
4417
50a6
50ad
50a1
40cb
40c7
53fd
bca2
bca5
049a
0493
8355
7ca7
7ca5
415d
4157
4151
eda6
eda0
375d
31b4
31be
31b7
6118
74bc
74b8
74bd
4342
434e
44aa
44a0
449a
c483
c375
834d
9e9b
9e9f
b014
b016
c3f1
7f52
7f53
13de
13d7
53ed
53e5
53e9
7dac
7da8
7dab
c49a
a088
a08a
a08f
c25f
14cc
54cd
54ca
5058
5053
c39e
045a
0ba1
849b
32d8
6895
649d
649e
04aa
33c1
4d98
4d9f
402e
362a
3627
32f8
32f9
43f4
43fa
43f0
43f5
43cd
43c2
43d0
43d7
58db
58de
58d0
7449
589a
3084
3087
4ca8
4cab
4cad
4cae
82d4
82d6
82da
82d7
54a5
58cb
1624
1626
1621
33fd
33f2
33fe
33f0
40ad
40aa
53a6
10ce
515d
5155
5b50
562e
562f
332e
3321
444f
8473
a42b
a42a
a421
43ed
43e3
43ef
46a5
46af
8f5c
748a
a4f9
dcac
dcab
dca0
2e92
2e93
2e72
2e75
6447
8ce3
33ae
33a1
3355
844a
b45f
be9d
be9e
be93
c1be
c1b0
2e56
4484
448a
4483
42d4
42d2
4afc
4afd
4af7
4af1
042a
042e
3254
325c
3258
3256
325e
3250
3259
36cf
43bc
43be
43b0
4682
468e
56c0
7d9d
7d93
7d99
6d5c
6d56
6d55
6411
0da0
147a
1471
1479
52d5
5d98
5d9d
83fe
83f5
82a6
82a7
ccab
b49c
b499
41b2
41be
41b0
41b9
41bf
4313
4310
b4fe
c3a9
24c0
24c1
3eab
3ea1
3394
3396
8bba
8bb3
865b
8656
239e
3dc7
3dc5
77a3
862c
c15c
c15e
3014
3011
3015
3019
7fa2
7fae
242c
418b
4182
83ea
83e2
83ee
c354
d48c
d48e
d483
d485
a4b6
b3b0
141e
8021
9e4c
9e4f
36a6
7af6
7af3
7e5b
7e57
7e55
b42b
b426
e2d4
3050
59fe
59ff
40bd
c0ca
c0c3
eb5e
eb57
fca8
fcab
fca2
fca1
12f2
7e9b
7e93
828a
8287
8285
828f
80a8
80ab
80aa
80a7
c32c
c329
d2ac
d2ae
81fd
81f7
81ff
b2de
b2d3
b2d0
f016
f010
f011
f063
2efc
2ef3
2eff
30cd
30cf
d063
d069
3d12
3d11
634c
7ea7
a91a
a45c
a457
b4a2
71bc
86a3
86af
ed98
30a2
30ae
4dae
7765
8396
8399
8765
935b
935d
9353
9355
580d
53c2
53c7
c024
c02e
c027
f424
f42a
f420
f427
86fc
86f8
86f7
86f9
90a7
92a6
92a2
92a7
b91a
437a
437e
5da7
62fb
62f3
8323
b4cd
c068
c066
c06e
c061
c065
c3e2
c3e3
0254
2251
5d6d
5d61
51fc
51f8
51fb
51fe
83a5
818b
8187
5bb8
5bb1
50c3
50c5
7ceb
c1fe
6fa8
6fa0
b25c
b25a
c34e
c343
c341
c345
f1b0
0443
31f3
31ff
5bc1
5bc9
5650
7894
7896
789d
789e
7ece
7ec1
7dc6
7dce
775b
7759
aaf4
aafb
aafe
aaf9
d42a
e08c
2eaa
2ea3
4d18
4d1d
83cc
83c6
83ce
8718
8717
9e8b
b3c2
cdac
cdad
cdaa
cdae
c2aa
c2a0
c2a7
dea6
dead
dea1
148c
148e
2054
469c
4696
4692
469e
56fc
56fd
56fe
56ff
7916
791a
791e
7d85
928e
c3d8
c3d0
c3d7
379d
8695
8699
80c2
2ca8
2cab
808b
8082
808e
8081
82f4
82f8
8057
f4fd
f4f2
1d54
33e5
7d11
ce7c
ce78
c3cc
c3c6
c3c1
f49b
f49d
337e
3373
4d26
6eae
6ea9
60c0
abc3
abc1
beaf
d913
fd53
fd59
ff58
ff55
2284
228b
228a
228f
72d4
72d0
7ef7
8619
ae84
b44c
b055
d47b
d47d
d47a
d470
11b6
22dd
22df
7014
837d
837a
837e
8379
a4ae
b786
b782
b9fd
e68f
f68b
37ac
7398
78d7
81c2
d4f5
df5c
df5e
df50
df55
0486
048e
04c1
369d
af87
b1bb
b1be
c28c
c8df
2482
248f
4396
4397
51ce
53d0
53df
b9a3
d4a8
d4a6
d8c1
f4bd
31cc
31c2
939a
a359
b483
b481
b485
ef58
4114
4117
4111
4119
6dae
6756
73eb
894a
9060
b416
b419
03b8
0413
1caa
780b
7802
7e46
7e4e
7e49
895e
8950
a62a
af50
d654
d653
d982
f477
1018
2ce8
42ff
9058
9056
9051
905f
aa43
aa41
aa4f
be72
bdfc
bdf1
dce9
f4a5
047a
047e
0475
241d
41c3
47c0
6d85
735c
d446
d44a
d447
d441
57c6
57c1
89ab
89ae
9d58
f4c2
1af1
7d6b
7d6d
a158
adac
ada8
adab
ada1
a9ae
e0a1
feae
f28a
0350
132e
1325
72a8
72a5
bce6
c91a
c915
f45e
13a8
4e9c
a3be
a3b9
ad54
a39a
a65c
a656
c114
e2f3
e2f1
0288
a1b8
b183
d396
d05d
d050
fe74
fdad
13b0
189e
8758
875d
8755
b2ac
de54
de59
d954
d958
e65b
2713
8e5a
8e5e
9bb9
e3fb
ee7c
2b58
569c
5ba3
5ba0
5ba7
7346
79ab
79aa
cf50
ebb0
1ecb
2479
4d86
6052
79fb
79f3
79f1
c6ae
cd94
c1c7
c1c1
c1cf
d3fc
d3f0
2e46
2e41
b763
f6ac
f6a6
1116
2352
8112
9026
a3e2
a3ef
c18a
d718
d713
f256
12a3
11f8
3d2b
3d20
59ae
518b
5186
518f
7156
7068
7060
77c1
77c5
7f2b
7f27
b15c
d6a9
1614
161a
d1bb
e017
e8c9
7326
8eae
a3fe
cce9
0ef6
0efe
595f
6764
7905
771d
abba
aeff
bec3
b378
d3ae
d3a9
1250
23bc
23be
306e
932c
9322
a1c3
baf6
baf5
f2da
f696
f695
0754
21fc
6f86
73b4
9a4c
9950
a78f
bd8e
cea8
ceaa
e3b8
6d9e
6d90
70c0
70c9
eb8c
eb82
878a
8782
8785
9f58
b066
b063
c714
de72
de7f
e3ac
f62b
f620
108e
a47a
b3ff
d010
d419
f370
0768
03ce
03c0
03c5
105b
778f
e250
edf8
edf0
5b66
6b51
7373
8e9a
a6a7
decc
decd
e320
5afc
61f0
b71a
b712
c659
fce6
fced
f610
f75a
f751
039c
98d3
aecc
aeca
a692
b392
c68f
ef81
f765
6e78
72fb
b1f0
dbac
dba9
e3c3
ee9c
ee9a
e9a0
fd96
fd9a
728a
a016
ace6
aced
ace9
acef
e0ca
26fd
a3c1
f9a0
1a44
8ffb
e80a
87ca
87c0
9894
989d
989f
a2f8
a2f9
d6c0
ff82
11cd
1788
178a
1781
23c2
a762
a320
bd9c
b894
03a7
6d65
9b8e
ba41
d681
6b64
8ecc
e6c6
deff
ae92
d08f
d378
d377
b75c
c9a0
60a8
60a2
a3aa
d34a
d342
d187
ee46
edc1
59cf
a7c7
eefc
f320
1d1d
6620
6627
661e
c692
d116
eec3
2182
66c0
98cf
ad82
c9c6
d02b
dd87
e788
e786
078a
0787
969a
db8f
efac
ae4f
cdf9
e112
a61d
ddf4
f6c6
ca43
d804
b622
c783
c781
e7c6
9ba6
0e74
fe4e
0e9b
ffc6
dd6e
f342
dff0
0ec2
0e10
036f
0310
0798
0904
09ee
031f
03d8
07f9
07a5
07fe
0986
0387
0923
0799
03df
0947
13ba
1604
1154
11c0
1e2b
106c
13a0
12b9
1c4d
174e
1032
10f4
1318
11ad
1eb9
10f8
11a8
1385
1904
17e3
114d
16b2
12bd
12cf
2414
279a
2c4c
240d
2e20
2e88
2407
21a0
2eb0
204d
2e10
27f8
2ebd
27c2
2e1a
2eb2
220d
2e22
238e
2126
272e
200b
2e13
214d
2e0d
2630
2e8e
2e84
2e85
290a
2e87
298b
2981
3092
36b9
312b
322c
322e
300e
30f0
320d
3129
37f0
30b3
3667
33dd
30bd
37ff
30f7
31e3
314d
3361
33d8
37b3
30bf
36bd
36b3
33d3
37b9
411a
4e88
409c
41a0
436f
40f4
4c8f
4dbe
4c82
4386
4eb1
41ad
40f6
4c8b
436e
460e
40ff
4db0
4e6e
4039
4d0d
42bd
410d
4387
5b52
5123
50fc
52f0
564e
5407
512b
5046
560d
51aa
5099
5312
530f
5043
5d4d
5316
5666
5605
50b1
5630
5207
52c9
51a3
52ce
52cf
609a
660c
6612
638b
63de
6384
6c41
6c84
67c2
60f0
6e1a
62c0
631a
620d
61aa
6383
6726
6312
60f8
61a8
6385
6226
6146
6319
6d7e
67e3
61a5
6e2e
60bf
67ae
67fb
63d7
6e2c
6e23
7004
711a
7c4e
7e18
71a0
71ac
7eb0
724e
7ec2
7030
7096
7310
704e
7ebd
7386
7e17
7e67
7eb2
724d
7726
720e
7e24
72be
714e
7ddd
779c
7d7d
7121
7db3
7c86
7d46
7d0d
7e07
77f3
779f
7e26
7e85
7db9
7d73
779d
7e81
7987
716d
7983
81c6
8af0
80fc
8120
83de
8eb0
8313
87a0
8096
811f
80f4
8033
8046
8310
81ae
87be
82e3
87f0
82cc
838c
82c3
826d
82b0
8798
809e
870d
8607
80b7
87a8
838f
8007
81a5
83d4
8311
87a5
87fb
89b0
8999
8f20
8f24
89b7
8973
816d
9c88
905c
9008
9e2b
9004
9064
9c4c
9221
9098
9030
9c8f
90b4
9386
92b1
92be
930f
9d07
90fd
9361
96b2
9926
9988
990e
994c
990a
990f
99d3
a604
a4c3
ac4a
a456
aebf
a3a0
a747
a746
a40b
a407
a914
a12b
ae14
a720
a405
ac41
ae10
a11f
a7f8
ac87
a310
ae17
aded
aeb1
a10e
a1aa
ae1e
a0ff
ae16
ad07
a921
a7dd
a38f
a3d8
a6b7
a3db
af29
afbd
a177
b42f
b154
b79a
b0b2
b60a
b2b9
bc4c
bc46
b12e
bc43
bc44
b0f3
b407
b74e
bc81
be2a
bc84
b0fb
b386
b7f0
b0b0
b921
b982
b7ff
b38f
beb7
b605
bd26
b94e
b7fe
b98f
b986
b1a7
bd27
be87
b7ad
b947
ce12
c4c3
c09a
c123
c004
c60a
c00d
c1a0
c032
c096
ceee
cc84
c30e
c243
c1ad
c20d
c2b1
c0ba
c383
c099
c2be
c1a8
c2b3
cddd
c0bd
c226
c09e
c0fd
c043
cd4d
c316
cdb3
c904
c7a8
c9ee
c0f1
c1a5
c03d
c7b3
c94e
c986
c1a7
c943
cf26
cfb2
c107
c985
c1ab
cfb7
d4b2
d05c
dc4a
d344
d184
d46d
dc8e
d406
d04d
d364
dde3
d124
d10e
d1ad
d0ba
d229
d2be
d70d
d366
de86
d2c7
d7ff
d607
dfb0
d796
d277
d14d
d92e
db4e
d7a1
d2c1
d90e
d6b7
d66e
d7a6
db43
e002
e008
e24e
e384
e72b
e2b1
e00a
ee24
e0ff
e3d2
e0f7
e6e3
e0f1
ee8f
e367
e66d
edb7
e94f
e3d7
ef2e
e7a9
efb2
e677
e977
eb47
f404
f40e
f3a0
fc43
fe20
fea2
f74d
fc8e
f405
fc8f
fc87
f310
fd0e
f229
f38c
f3d0
f723
f3d2
fdb2
f984
ffb0
f6b1
f79e
f6bd
fdb9
f6b3
f66f
fb47
00e9
00f7
0190
01da
0132
0141
010b
014c
010a
012a
0163
01d4
0133
012e
01e3
01c0
01c3
0157
01c7
01a8
3b3e
3b90
3bfa
3b4f
3b65
3bf5
3bd8
3b6f
3b24
3b2b
3b67
3bfb
3b99
3b19
3b6d
3b77
3b23
3b56
3b82
3b81
1b08
1b15
1bd9
1b68
1bb8
1b4c
1b0a
1b95
1bd0
1be0
1bed
1bee
1bf9
9148
91d9
9176
91e4
91d6
9195
913d
9175
9110
91e3
91c0
91aa
91a2
3f45
3fbb
3f49
3f8c
3fce
3f7a
3fe0
3f6b
3f6f
3f7d
3f9f
3ff8
3ff6
3ffb
3f8a
3f23
3fbd
3fa0
3f51
3f81
3f5f
3408
347a
3471
34ef
34eb
3479
341a
34bf
08da
08bc
08c8
08b6
084a
08ce
089c
089b
0826
08c3
0852
08ac
0850
08bd
0884
085c
08a0
0856
6a06
6a28
6a32
6a4a
6a31
6a05
0a91
0ad9
0ada
0a4a
0a8c
0aba
0adb
0a7e
0afd
0ab2
0ab7
0a5b
0a82
483e
48b5
48b8
482c
48d1
48d0
4861
4872
486f
4812
48d7
48d3
486e
4897
481e
48ff
4816
4817
48b0
48fd
4823
4851
48ae
2f15
2f42
2f68
2fbb
2f69
2f3a
2f37
2fef
2fe6
2f72
2f9e
2fd7
2f2b
2f7d
2f9d
2fee
2f92
2f97
2f1e
2ffb
2f43
2ff1
2fcd
2f52
2f56
2f5e
d53f
d515
d5da
d5e4
d58c
d509
d598
d527
d51e
d521
d584
d5a8
7b08
7b2d
7b39
7bbc
7bc4
7bec
7b95
7b05
7b64
7b7f
7b11
7bdf
7b72
7b70
7b12
7b20
7b7e
7bf6
7be3
7b17
7bc5
7bb2
7b0d
7bb1
7bc7
7bf3
7ba8
7b83
080f
801b
3e6a
3e65
3eb4
3e04
3e30
3ee9
3eee
3e43
3e6d
3ebf
3eb7
3e5e
3874
3837
382a
3812
382b
38dd
3843
386d
38c2
38b2
3854
ea15
eab5
eadc
ea05
ead0
eae0
ea9b
eafc
ea10
ea73
eaff
eae3
ea99
eaf1
ea84
ea8e
0c91
0c3e
0cea
0c25
0cb5
0c62
0caf
0ce2
0c35
0c4a
0c04
0c6c
0cde
0c12
0c7e
0ce3
0cfe
0cc3
0c21
0ccf
0cbf
0c53
0c55
0ca5
da3e
da94
dabb
dae1
da3c
da7d
da2e
da13
da19
dabd
28ec
28e2
28d6
28df
2870
289c
2812
28f8
2896
28cd
28f3
4b47
890f
03f8
03f6
0dc4
0d2c
0d47
0d7a
0d61
0d66
0d8a
0dc7
1976
197c
198c
1971
199c
1992
1973
19b9
19ae
19a3
3939
393a
3952
39ac
39b3
3951
39a5
76d9
76bb
76c4
76fa
763a
764c
7630
767f
76d4
760f
7670
761a
767e
7667
761e
76c0
7613
76fb
764e
76b2
7652
7654
7686
7683
768e
7687
f091
f045
f0c4
f0af
f049
f04f
f0ce
f071
f07f
f0eb
f0e9
f0ed
f02e
f0fc
f096
f0c0
f04d
f0aa
f043
f077
f0bf
f0b7
f0a8
f1a4
f10c
f18c
f172
f12e
f1f0
f11d
f1cd
f18f
151f
1514
8b34
8b15
8bd9
8b90
8bea
8bfa
8be1
8b7c
8be5
8b37
8b7a
8b30
8be9
8b9c
8b12
8b18
8b9f
8b20
8b2e
8b07
8b86
8ba8
8b8b
8b56
8b5b
8bad
45bc
4560
4562
45af
4574
4537
457a
4530
45ef
4533
45df
457b
459c
459f
459d
45ee
4517
4519
4521
4523
45c1
45bf
4558
4583
45a6
455d
94e5
94fe
18e7
183e
184b
1832
181c
184c
18f5
1830
18d2
1866
1824
1846
1823
18bd
1854
1886
185f
b842
b8e4
b860
b83c
b8f2
b870
b8d3
b823
b8ac
b85b
8d1b
8d42
8d38
8d68
8d02
8d7c
8d35
8d31
8de8
8d12
8d67
2de1
2dd6
2d8c
2d65
2dca
2dce
2dd8
2d7a
2de8
2d72
2d7b
2d18
2d6e
2df6
2d0e
2db0
2dc9
2dc1
2db7
2d81
2d85
5ff2
5ffc
5ff0
4fe5
4ff2
4feb
4fe3
b608
b636
b6ee
b659
8591
856a
852d
8576
85bc
85c4
8560
8549
854c
85f5
852a
8531
857a
8530
85ef
857f
8511
85e6
8566
8598
8518
852b
85cb
857e
852e
85fc
8510
85ff
8516
8526
856d
85f1
85fd
85cd
8552
8507
85b1
85bd
85cf
855c
02e7
0206
02b6
02c4
0244
021a
0214
02ee
02cc
02b0
02f0
9c2d
9c42
9cd5
9ce7
9cea
9c4b
9c02
9c0a
9c74
9c09
9c7a
9c9e
9ccb
9ccc
9cd3
9c97
9c73
9c16
9c77
9c57
9cac
9cbd
9cc7
9c5b
9ca6
9cad
0bcc
5687
69d0
6998
69aa
69ae
69ab
bb58
8255
168a
05da
054b
05c8
0502
05e1
05e2
052c
05f2
05df
052b
05f8
055a
0546
05fe
058b
05a2
05a5
05ad
05a9
1a62
1acb
1abe
1ac2
1ab2
1a52
1a82
fa1b
fa2d
fab5
fae2
fa35
faca
fa04
fa31
fae0
faeb
fa10
fac0
fab9
fa8b
fa5e
faae
0d95
3a3f
3ae7
3aea
3ac8
3adc
3a7b
3acb
3acd
3ac9
ec1b
ecb5
ecb6
ece1
ec37
ecb4
ec1a
ec92
ecdd
ecff
ec13
ecc3
ecbe
ecfd
ec0d
ecf9
ec51
ec5e
4c2a
4c31
4c71
4c75
4c9d
4cf1
4cc5
4cb1
4cc7
4cbf
4c5c
4c59
5c6a
5cb6
5c60
5ce1
5cdc
5ce8
5cdb
5cd4
5c6b
5c75
5c79
5c0f
5c6e
5c93
5c19
5cb3
5cc7
5c53
5c59
4ada
4a76
4a2f
4a71
4ae9
4a0f
4a93
4a16
4a87
5715
5706
5790
57bc
573c
57ef
57db
577b
579c
571a
579f
577e
57f8
578a
5729
57b7
5788
578b
5782
8808
880b
c66a
c668
c669
c6ca
c6cc
c673
c6cd
55da
554b
5502
5569
5541
550b
558c
55d0
55db
5511
5533
559b
55d3
5592
55fc
5517
55aa
55fe
55f1
558b
555e
55a5
555d
55a3
55a1
4715
47bb
47b4
47ba
4711
47e9
4714
479d
4799
47be
47ac
47b9
47bd
4786
47a8
478b
47ab
47ad
4785
478f
4759
475f
03e5
3528
35da
3568
35af
35ca
3505
356c
35d2
3533
3572
3579
359c
351a
3512
355a
35be
3577
3554
35a8
3582
358f
3559
1024
102b
102a
49d9
49fa
4965
4931
49f2
49e8
4972
496f
49ee
4967
4927
4973
49aa
49fe
4929
49b2
4977
49cd
49f7
49bd
49b7
4983
4982
49ab
4987
46d9
46bb
46b8
467c
4674
46d1
46ee
467e
46c6
46b1
46c7
46f3
a891
a82d
a8ea
a83c
a83a
a84f
a874
a87a
a830
a872
a810
a813
a8fd
a856
a8a6
8c3f
8cd9
8cc8
8cec
8ce5
8cdc
8cba
8c30
8cdb
8c2b
8c9f
8c27
8c13
8cfe
8c5d
7c1b
7c2d
7cd9
7c76
7c68
7c32
7cd6
7c74
7c95
7cce
7c05
7c09
7c6b
7c9c
7c9f
7cf8
7c73
7cf1
7cbe
7c77
7c57
7cf7
7cb1
7c59
1c3f
1c6a
1c38
1cea
1cda
1ce4
1cb8
1cc8
1cb6
1caf
1cd1
1c64
1c63
1cdb
1c72
1cde
1c9b
1c7d
1c9d
1c6e
1c67
1c99
1c19
1cbe
1ccd
1cf7
1cf4
1cf3
1c56
1c5d
1c5f
cc2d
cc42
cce7
cc06
cc3e
ccb5
ccb6
ccaf
cc74
ccdc
cc2c
ccb4
ccf2
cc63
ccd4
cc9b
cccb
cc7d
cc2e
ccf8
cc97
cc13
cc26
ccf0
cc29
cc21
cc0d
ccf7
cc5e
cc5d
956a
953e
9590
9568
95c8
9522
954c
9574
9561
959c
9527
9516
958a
95a8
95a7
6c1b
6c3f
6cd9
6c38
6cda
6c69
6c3a
6c65
6cf5
6c2a
6cd2
6c0f
6c12
6c24
6ccb
6c1e
6c96
6c13
6cc5
6cbf
58d9
5890
58ea
58c4
5879
587e
581e
58f0
58f1
5823
58ac
58f4
58b1
58ab
58a5
2c3f
2c94
2cb8
2cc8
2c3c
2cf5
2c2f
2c64
2c33
2c79
2c6f
2cd7
2c6e
2c2e
2cf8
2cc0
2cfb
2cb0
2cf1
2c21
2c23
2cc7
2ccf
2c53
f5d9
f5d5
f5e7
f594
f5b8
f5c8
f569
f53a
f50a
f5b4
f531
f505
f56c
f57f
f5e6
f50f
f51a
f51f
f567
f5c0
f5fb
f5be
f5c2
f5cd
f557
f521
f507
f5f3
f5ae
f582
f55f
bc45
bc4b
bc94
bce4
bc22
bcd8
bc05
bc63
bc09
bcdb
bc6b
bc9c
bccb
bcdd
bcff
bc29
bc77
bc57
bcc1
bcbd
bc54
bcbf
bcf3
bcf9
bc53
bc5d
6508
6548
6506
6590
6532
65c4
653a
6544
65e2
6541
654c
652c
652a
6505
6561
6571
65e0
6570
65de
65fb
650e
65aa
65fd
655c
65a8
65ae
65ab
65ad
5a15
5a38
5aaf
5a8c
5ad2
5a33
5a70
5a1a
5a6e
5a5a
5a16
5acd
5ab1
5aab
dce7
dc76
dc25
dc1c
dcaf
dcf5
dc61
dcba
dcdb
dc0f
dc24
dc99
dc53
aa42
aad9
aa39
aab5
aa1c
aa60
aa69
aae0
aa72
aa7b
aad7
aaaa
aa29
aa57
aa21
aac1
aa5c
aaa0
aa5b
aa8e
aa85
aa5f
cabc
cab4
cadb
cad4
ca9e
ca14
ca2e
caa3
ca5f
6815
6838
68da
68bc
681c
687c
6831
6846
6873
684d
68bd
6854
6853
acd5
ac3e
ac28
acb4
acd1
ac05
ac30
ac0f
ac66
ac24
ac1f
ac93
ac5a
ac1e
ac16
ac52
acf4
ac58
ac51
ac5e
2542
2538
25ea
2539
254c
25d8
2564
2509
25ba
25eb
2598
25d7
257d
2520
257e
2597
2596
2516
251d
25b3
25a0
2582
25a6
0b06
0bea
0b28
0b39
0b1c
0be2
0b4a
0bdf
0b24
0bf1
8a42
8ab8
8ac8
8a3a
8a0a
8a3d
8a0f
8ade
8a1a
8a2b
8abe
8a29
8a1d
8a57
8a21
8a0d
8a82
2a42
2ad9
2afa
2ad7
2a2e
2a0e
2ab0
2a77
2ac6
2a5d
2aa1
b5ea
b568
b50a
b564
b5d4
b5df
b50f
b512
b593
b597
b51d
b550
b5b9
b5c9
b55f
7a45
7a3e
7aea
7abb
7a60
7a0b
7adc
7ace
7a7a
7adb
7a78
7ad2
7adf
7a70
7a7b
7a66
7a9e
7a24
7a20
7a9d
7a93
7a2e
7add
7a26
7a99
7ac2
7acd
7ab3
7aa0
7a5b
7a59
fc15
fc3e
fcbc
fc0b
fc22
fcca
fc2c
fc30
fcd4
fc72
fc7b
fc98
fc1f
fc2e
fc27
fcbe
fccd
fcc9
fc5c
fc58
fc55
bfd9
bf4b
bf68
bf25
bfb8
bf60
bf3c
bfdc
bfe8
bf72
bfde
bfcc
bff6
bffb
bfb2
bbd1
bb18
bbf9
903e
9038
9074
90e8
8876
88fa
8869
8841
8822
8835
8874
8837
886e
885a
88fb
88a8
88a9
a534
a5bc
a525
a544
a522
a5d6
a537
a52c
a56c
a59e
a546
a599
a5bf
a588
a556
a58e
d848
d8d9
d838
d8b8
d8fa
d82a
d864
d87b
d8f8
d8b7
d8a8
d858
d851
9ae7
9a62
9a35
9a2f
9ae9
9a9c
9acc
9a97
9a1e
9a16
9a8a
9ac2
9acd
9a55
c8a4
c890
c8e4
c864
c8f2
c87a
c8e8
c8e0
c8eb
c8e6
c878
c875
c879
c814
c867
c8f6
c846
c81e
c8e3
c817
c8f0
c8be
c88a
c886
c856
c855
ba69
ba7a
bad0
ba12
ba7d
baee
ba93
bacf
ba53
c5bc
c569
c53a
c574
c509
c571
c59c
c5cc
c5fc
c573
c5e3
c516
c5aa
c5b0
c56d
c5f3
e591
e515
e54b
e59c
e524
e58e
e5a5
7f08
7f6a
7fd5
7fa4
7f76
7fbb
7f25
7fe2
7f35
7f0a
7f65
7fca
7f2c
7ff2
7fe8
7f30
7fe9
7f98
7f9e
7f14
7f9f
7fed
7fee
7f7e
7ff6
7f96
7fe3
7fb0
7ff0
7ff1
7ffd
7fc6
7f86
7f8e
9848
98a4
98ea
9860
9844
9822
9864
9810
98ff
783f
78a4
783e
7890
78ea
78b5
784f
78e0
7812
7824
781f
78f6
7843
78b9
785c
7888
78a0
7856
78a2
78ab
7859
5b34
5be5
5b2a
5bef
5be0
5b98
5b12
5bd7
5bed
5b2e
5bf3
7508
7534
75b5
7562
7535
750a
75dc
75db
75e0
7598
759b
752b
75ee
756e
755a
750e
756d
75be
75fd
7523
7586
7581
75a9
6bea
6b76
6bec
6b3a
6bd6
6b24
6bfb
6b26
6bf1
6bfd
6b1d
2b34
2b42
2b94
2baf
2b37
2b09
2b7a
2bd0
2b24
2b18
2bfc
2bf6
2b19
2bf9
20a4
20b8
20d6
2047
2072
5291
52ea
52bb
52c4
52fa
529e
529a
529f
5293
5213
5217
f8c4
f81c
f8e2
f8ba
f830
f8fb
f817
f888
f855
f882
f881
e88c
e872
e8fc
e81e
e8fd
e850
ab2d
ab39
ab25
ab4a
ab04
abe0
ab1a
ab9b
ab14
ab17
abf0
abfd
abf4
8e1c
8eec
8e8c
8eb4
8e64
8e63
8e6c
9b15
9b12
9b9a
9b24
421c
423a
420a
42e5
4237
42e6
42ee
1f38
1f3c
1f3a
1fe2
1f0a
1f37
1fd4
1f0f
1fcc
1fd3
1f92
1f8a
1ffd
1fc9
b908
b9e4
b9b8
b960
b935
b9e8
b9ef
b978
b9e9
b997
db08
db3e
db94
db3c
db3a
db0a
db70
db18
dbf8
dbf6
db0e
eba4
ebfa
ebe1
ebe2
eb0b
eb4c
eb05
eb72
eb9e
ebed
eb7e
513f
511c
51e1
513a
51f5
5161
51ef
51eb
517b
519c
519d
51ee
51dd
5177
5107
1190
1138
1160
11e1
11d6
1130
11db
11e6
1193
fb2d
fbec
fb0c
fb04
fb11
fb70
fb24
fb73
223f
2291
2242
221c
223c
221a
226d
1490
1461
be90
beda
be32
beb6
be1c
bee2
be0c
bedc
be95
bed4
37a4
37bc
3749
37f5
3795
37e8
37ba
37eb
3777
416a
41d5
4106
4139
41c8
4141
410b
41f2
4161
41d4
41de
41d7
4167
2134
21dc
212c
216c
4e6a
4e1c
4e60
4e62
4e09
362d
3642
3690
3638
36bc
3674
3637
366c
36e9
3d45
3dda
3d1c
3d3a
3d4c
3d37
3d33
3ddf
3dd3
4d91
4d45
4d4f
32ea
3228
324b
3232
32e4
32c4
323c
32e2
3231
3263
32e6
e208
e248
e26a
e228
e202
e260
e2e1
e209
e29c
e292
241b
2439
2469
24d6
2474
246f
2467
311b
31e7
3190
3169
31af
313a
3135
310a
314a
3165
31d8
3178
319a
319f
3196
3177
8691
86d5
86bb
8669
8662
863c
864a
8637
8647
86ce
8631
86d1
86d4
c13f
c1d9
c138
c139
c168
c160
c122
c135
c165
c1dc
c136
c171
c1db
c178
c16b
c175
c10f
c17b
c198
c1ed
c16e
c197
816a
812d
8145
81a4
8128
81da
81af
813a
8135
8136
8131
8163
81df
810f
8193
81dd
54d9
54d1
5463
7191
7134
71a4
71e4
7144
717c
71f5
7104
71d4
719c
71d7
719a
719d
7193
7173
1d08
1d3e
1dea
1db8
1d1c
1d44
1d2f
1de8
1dba
8291
8234
8206
8228
8239
82b8
82ec
8244
8231
82ef
8272
820f
8270
821e
8217
ed48
edea
edb8
ed44
ed2a
ed47
edba
ede6
8f91
8ffa
8f41
8f36
8fb4
8f47
8fd8
8f71
8fdb
8f33
8f75
8f79
8f9e
8f18
60e7
60a4
6028
604b
6075
60e3
af3f
af68
afb4
afd8
afe0
af98
af9b
af4d
446b
0f91
0f48
0fd8
0f7b
0f18
0ffc
6132
61c4
6144
61e2
61d1
61d8
6105
61e9
617d
f215
f232
f204
f230
f217
c26a
c21c
c23c
c2af
c295
c204
c205
c26c
c2e8
c2e6
c26b
c279
c29c
c29d
c293
c296
c299
162d
1606
16b8
16fa
161c
166c
7d91
7d45
7d38
7db5
7d60
7d3a
7d36
7df5
7d71
5da4
5d4b
5dbb
5db8
5dc8
5d3c
5dba
04d9
04d2
04de
0d56
cf94
cfc4
cf41
cf22
cf4c
cf4f
cf72
cfde
cf9e
cfee
cfcc
cf1e
cf73
cf96
cf43
1794
17e4
17b5
170b
170a
403f
4025
40b5
404a
40ef
40eb
b4c4
b4d6
b4e5
b466
f676
f6fa
f674
f6dc
f6ef
f6db
f6de
df08
df90
dfe4
dfb8
df2a
dfd1
dfe6
df98
dff6
df73
df99
b16a
b142
b138
b10a
b1dc
64e1
64d8
64eb
64e6
64df
646f
64d7
a994
a9fa
a93c
a995
a93d
a92f
a9e0
a9e9
a920
306a
30da
30b5
304a
30e5
30dc
307f
30d4
30e0
3078
30e9
307b
307d
30dd
3073
2608
2634
2615
261c
2644
2641
2635
263d
8790
8738
874b
8739
8725
8702
871c
8741
87d6
870a
87dc
8736
8731
87f2
877a
877b
2e2d
2e45
2e28
2ebb
2e25
2efa
2e0a
2e37
2e95
2eb4
2e04
2ef2
896a
892d
8968
89c8
893a
8965
8974
8964
89e8
8972
89e9
8966
899a
899f
8920
1ed0
1e33
a148
a139
a169
a1f5
a12c
a164
fdec
fd2c
fdd2
fd70
d13c
d141
d1e5
d12c
d16c
d1e8
d130
d192
c0ec
c0af
c049
c04c
c04f
c0f5
c0f2
c079
3af9
8462
84db
84d3
12e7
1268
12e4
1271
12e8
12e0
12e9
1213
9739
97e4
973a
9730
e06a
e090
e0ea
e076
e0ec
e0d0
e070
9fa4
9f68
9fe4
9f3a
9f7a
9fe8
9f30
9f72
9f79
9f12
9f9a
9f1f
9ff8
9f96
9e4b
9ee4
9e0b
9e61
c748
c742
c7d9
c7bc
c732
c741
c78c
c7f5
c7f2
c7ba
c7d2
7ed9
7e3e
7e68
7ee4
7ebb
7e3c
7ed6
7e65
7e3d
7ed1
7ef2
7e6c
7ee8
7eef
7ee6
7ed2
7eed
5648
5668
56bc
5632
56e4
563c
5636
5647
56d1
567a
56d4
56e6
5679
56de
56d7
6208
6291
6248
62b6
62ec
62e0
62eb
627b
62ee
c9d5
c9e4
c969
c979
c99a
ff91
ff38
ff94
ff3c
ffca
ffd8
ff7a
ffba
ff75
ff98
ff9e
ff1a
ff9b
ff7e
ff73
6f08
6f42
6f3c
6f4a
6f74
6fe5
6f95
6f6c
6f7f
6f70
6f16
de91
de48
de6a
deda
debb
deb5
dec8
de0a
dee5
def5
de95
de30
dee6
503f
50a4
50fa
50d7
bd2d
bdda
bd02
bd7c
a46a
a442
a4de
a4d7
79ea
79c4
7936
79d1
79d8
79e8
79db
7972
79e9
796e
7992
e7d5
e790
e728
e739
e7b6
e74f
e72a
e7b4
2976
29bc
29ec
293c
29e2
2922
29ba
29e0
29d2
299c
299b
d908
d968
d98c
d967
d648
d63e
d6e4
d644
d661
d671
d6eb
d678
a748
a715
a776
a7c8
a73a
a737
a771
a772
d706
d7da
d7bc
d702
d7ec
d7d6
d774
d705
d771
d730
d7d4
d7e6
d7df
d7ee
3308
333f
3334
3337
3305
923f
9291
9248
9245
9228
92bc
92b6
92e1
923c
927c
9204
9230
929b
9217
77d5
77a4
7728
774b
7732
77bb
77c4
773c
773a
770c
770a
774a
772f
77d8
77db
7772
77de
777e
27b5
273c
27e2
2736
2773
ef48
ef45
efbc
efca
efd8
ef7a
ef72
ef9e
d248
d244
d24c
d264
d26c
d27b
d210
fe08
fe38
fec8
fe63
5017
ae08
ae3f
aeea
aeb6
aed6
ae0a
aed2
e965
e9d1
e9f2
e924
8048
8042
80e7
80a4
80ea
80b5
807c
80e5
80f5
80db
80e6
80e3
d42d
d4ea
d432
d4ec
d474
d436
d437
d4d1
d46c
d4e8
d430
d4ef
d46b
d466
d46e
d4dd
ce1b
ce45
ceea
ce4b
ce02
cec4
cee1
ce37
ce95
ceba
ce33
cd48
cdda
cdbb
cdf5
cd72
cd70
6308
631b
63d6
b791
b742
b794
b7f2
b775
b773
e16a
e194
e1dc
e12a
e13d
e147
5942
5932
59e4
59c4
59ec
5969
59e2
5995
592a
5961
59d4
7245
7206
7276
72bc
721c
723a
720c
7236
72e6
7272
729a
721e
721d
a225
a21c
a204
a2e8
a2e6
a29a
a21f
a27d
a2ed
a29d
a2ee
a297
dde7
ddb8
dd44
ddd3
6715
67b8
67c4
670b
670a
6774
67e8
67d4
67e6
677e
661b
66d9
66ea
66e1
667c
66d6
664c
6674
66ef
6672
9d08
9d68
9d32
9dec
9d4a
9d74
9d09
b2c8
b202
b2e2
b20c
b24c
b279
b29c
b266
adc8
adc4
ad3a
ad0c
ad2a
ad2f
ad71
ad70
53d9
53a4
53da
f722
f735
f7db
f775
f77d
f773
0e48
0e38
0ebc
0e32
0e1c
0e60
0e62
0ee5
0e3d
0ee8
0ed4
0ee0
09a4
09b6
09e2
092a
097a
09d0
07bc
0702
07d6
07e8
6d34
6d25
6dc4
6d3c
6d0c
6d74
6dca
6d2c
6dd0
6dd4
6d72
6d75
1308
1306
133e
13da
130a
1330
a637
a6b4
f928
f93c
f963
e615
e6c8
e6e2
e6ca
e663
e6d4
e66b
e67e
9994
9922
998c
99f2
99e9
f4e7
f438
f43c
f4d6
f435
f4e5
f436
f4d4
f4df
f4de
d02d
d0b5
d0c8
d04a
d0d4
d0d2
d0dd
704a
70d0
7072
7075
7070
70de
0b81
0b8f
b04b
b0b5
b0b8
b07d
6e3f
6e91
6ebc
6eb6
6efa
6eec
6e8c
6e33
ee42
eed9
ee3c
eef2
c31b
c391
c36a
c335
c374
c330
9642
9628
9694
96b5
96c8
967c
9670
4308
431b
43d9
4306
4362
433c
433a
4331
8334
83e7
83da
83d6
8335
8365
8374
8305
a0d5
a076
a0ec
a04c
a07e
107c
10d1
10ed
6bae
93d5
9306
933e
9376
9332
93c8
b3dc
d3da
d362
d30a
732d
7332
73c8
7305
a305
20bd
20be
f391
f390
c086
c081
c08f
22fc
c0ad
2692
5398
5392
e368
e3c4
e335
208c
1f5f
432f
63a3
63a0
7084
3118
3111
3119
6354
6358
6351
4902
63cd
13e6
13ee
bbc8
bbc7
4e5f
5455
5d58
5d51
44b0
334e
1352
4919
68c3
9b58
6256
3a43
3682
5250
275b
2753
32c7
2d59
3316
331a
3317
3311
24b7
6378
637e
52a1
842e
3788
3787
378f
04b4
04b6
04b5
31ac
31ab
37cd
14b1
42ad
3da6
33b4
33bc
33b7
41f7
8cac
4455
1ea0
56ab
56a7
56a9
549b
549a
54ff
0f82
0f81
4355
435f
c05b
c051
6479
74f0
4e22
64c7
2ecb
2eca
2ec2
2ec1
26a7
54b7
7d58
3dff
4809
3760
376f
c3bb
c3bd
3d8b
4d55
44fd
b083
9e5d
9e59
8150
40c1
835c
835b
835d
8351
8359
db58
502e
5023
5020
5021
7cac
7cad
c2db
c2d3
c2df
4152
edac
eda2
1497
375b
747b
747d
747a
7479
aca1
bba5
24fb
24fd
24f2
24f0
31b9
81b8
81bb
81b5
434d
434a
4347
44a6
5ca2
5cae
1dcb
1dce
5031
c37e
2769
276f
834b
834f
9e92
b019
c3f5
7f58
7f5a
7f5e
7f5f
13d8
53ec
7da1
848e
84ba
84bf
c498
a08c
a086
c25e
5051
84c5
c01e
c398
c39b
c39d
c39f
fffd
fff0
0454
045e
0457
0451
0bad
0ba0
806e
8067
8493
8497
32d4
689e
04ab
04a5
33ce
4d99
362c
362e
362f
32fc
43f1
43ff
43c9
58d3
58d7
744a
3085
4ca3
7410
54aa
54a2
54a3
58c2
58c3
58c1
162b
33f3
40a1
40a9
53aa
52fc
52f3
83bc
83b2
83b3
515b
5159
562c
17c0
332a
332f
a42c
a429
43eb
43e2
a484
a487
bb66
bb65
46a6
46a3
46a7
46a9
8f58
8f57
66ad
66a5
7484
2e9d
2e7e
33ac
33ab
33ad
33aa
3359
51b6
51be
844c
b45c
b45b
b45d
b453
be99
c1bc
c1bb
c1b1
0e55
2e5a
4af6
4af3
0427
3257
36cd
468c
468f
56c1
56c5
7d96
7d9e
6d5f
6413
147d
52db
52d6
52d7
5d9b
83fc
83f6
82a8
82ad
82a3
82a1
cca6
53bb
53b0
41bc
41b7
41b1
5086
b4fb
b4f6
c3a5
24cf
339c
339d
3db7
3db9
8bb6
8bbf
865c
865d
8653
8650
8659
3dc6
3dc1
77a6
77a2
77ae
7dfb
7df6
7df9
862f
c153
c155
c15f
3018
301b
3010
301f
7fac
d895
d89f
242a
83ec
c35c
c35d
c351
4dc5
4dc9
868b
a4b8
a4b0
a4b7
b3b4
141d
1412
1413
1419
36a4
36a0
7af4
7af8
7e59
795c
795a
b42c
b420
e2de
305b
3059
59fc
59f8
59fd
2b8a
2b8f
236d
40ba
40be
c0c6
fca0
12f9
5410
7e97
828e
80a6
80ad
80ae
c320
c32f
d2a8
4ea9
4e8a
4e8e
4e87
5d84
5d82
81f6
81f9
b2d4
b2da
f014
f01e
f015
f066
f067
f069
2efe
2ef7
30c0
632b
6326
6322
632e
d066
202c
3d13
6347
7ea8
7eaa
a915
a45f
b4a7
ed84
ed86
86a8
ed94
ed9e
30a6
30a5
7764
7766
7762
776e
7763
8397
8395
8768
8762
8763
8769
29ad
580f
53cb
53c6
53cd
53c1
cd58
cd5d
c026
c022
c029
c02f
f42c
f652
7a46
7a4d
7a4e
7a49
86fd
90ab
90a9
92ac
92ae
4377
4371
437f
5617
561f
62f6
62ff
8324
8322
8329
832f
b4c1
b4c9
c3ec
c3ef
025e
5d65
83a3
83a7
8186
8183
8181
a756
92dd
c1fc
6fac
6fa6
6faf
7256
725d
b251
c34d
c342
f1b8
f1b6
0441
31fc
5bc0
5653
5659
789b
7ecc
7dcb
7dc7
775d
7752
8d5a
aaf3
aaf5
d42b
2ea8
2eab
2ea7
4d16
83c2
8714
871e
8711
b3c1
c2ab
c2a2
c2a1
deaa
148b
1486
201d
4699
56fb
56f3
56f9
7915
7d84
928b
9286
928f
21b8
21b0
3792
5dc6
5dc3
8698
869e
80c3
ae73
2ca0
2ca7
808c
8088
8085
82fd
82fe
82f1
8058
b356
b355
d498
d49b
d49d
d49e
f4f8
f4f9
1d5e
2954
2958
295b
2952
2957
7054
705f
ce7a
ce7e
c3cb
c3c5
d45a
d45f
f49a
3378
337a
3377
3371
6ea0
abc6
abcf
d915
f08c
f08e
f08f
fd5c
fd50
2282
228e
2285
7ef4
7ef8
8614
ae86
b444
b056
11b4
701c
7018
8898
8fac
8fa5
8fa9
8373
837f
a25e
a4a8
a4a1
b9f7
b9ff
e687
f684
f682
f68e
f685
37aa
37ae
37a9
7399
8bc0
d4fd
d4ff
df52
df53
0484
0483
04c2
04cf
369b
3696
369f
61b4
63ec
63e8
63ee
63e0
af84
af81
c287
c8de
c8d0
248b
2481
439c
439d
4392
4393
439f
51c7
51c5
53d7
6ceb
93f6
93fe
93f0
d8cc
f4b9
31cd
31ca
31c3
9014
901c
9017
939e
a35e
a350
a351
b48b
b482
ef5c
ef5a
411d
6daf
6751
a285
bd5e
bd53
0418
0410
1cae
1ca1
7805
7e44
7e4a
7e47
7e4f
a2d4
a2d8
a2da
a62c
d984
f478
f479
1069
2ce3
2ce0
42f3
88cc
88c1
aa4b
aa4e
be76
be73
bdf7
f4aa
0472
0477
0471
280b
2806
2807
2413
41ca
41c5
47cb
47c5
47c9
6d88
735b
7350
90ca
90c1
d44d
137b
2bb6
2bb3
57ca
57c5
6710
9d50
f4c5
02d5
0b54
0b56
0b5d
0b50
23f7
7d65
70a2
70a1
a15a
a159
a49c
a492
a49e
a495
a9ac
a9a8
e0ac
fea8
fea5
f286
035a
134e
1341
1327
99f9
99ff
bcef
c912
c952
c953
c950
f454
f450
13a6
13a5
4e9b
96f4
a3b2
ad5c
ad52
ad51
ad59
a39d
a393
a653
e6a8
e6ab
e2fc
e2fd
0282
028e
2bc4
5114
5116
5110
5117
5119
8e78
8e7a
8e72
8e70
b18f
d39a
d392
fe7c
fdae
1896
875b
875a
8752
8753
93ee
a446
a44e
a441
a8c6
a8cd
b2aa
d95c
d953
d950
e65d
e650
271a
8e5c
9bb2
9bb0
bdcd
bdc0
e3f0
ee77
0f5b
0f55
2b5d
569a
5699
5d12
5d17
79a5
8efb
8efd
cf58
cf56
cf59
dfa6
dfaa
ebb6
2472
4d8a
4d83
4d87
4d8f
79f8
79fd
79f0
a059
cd90
cd97
c896
c89e
c897
c1c9
cdc0
cdc7
d3fa
d3fe
d3ff
2e44
2e4e
2e43
2e49
91b8
91be
b766
b760
e627
f6af
f6f4
235b
86c7
8114
8118
a956
a951
d3b2
12a5
3d29
59a8
518e
715a
7062
7f20
b152
b153
b159
d6a8
d6ab
d4b4
d4b1
1611
16fc
16f8
6df3
9378
9372
9373
c9f1
eea7
eea5
e8cd
e8c0
26c2
680d
62a7
76ae
7324
732e
71fe
8ea3
8ea5
a3fc
a3f8
b1cc
cceb
cce6
676e
6765
790e
7714
7719
a802
abb6
bec5
b0a8
b0aa
d3a6
d8dc
d8d8
d4c1
d35a
e3e4
f3ee
f2ad
3061
6bcc
6bcd
89c6
89c1
9324
932a
932e
9323
b955
b47d
f2d4
f692
0b6f
0753
6697
6f81
73b9
991d
991f
9a4d
9af5
a788
a787
a785
bd84
bd8a
e022
e021
e6f4
6d98
8f8b
93b0
93b1
93b5
b3e9
be54
be5c
be51
eb8e
0716
115f
1ce0
1ce9
878e
a021
a02f
de78
de73
fbc0
fbb2
fbb5
1088
1085
108f
9ea5
a0cd
a0c2
a479
a9cf
a6f8
a6f6
a6fe
d2d4
dda5
dda9
d41e
e953
e951
f377
f37f
03cb
7786
7782
778e
7781
7785
8af1
9e2e
9e27
a895
89f9
caf8
cafd
d62c
d620
ffac
ffa0
5b60
5b67
5b6f
6b58
6b5f
9bcc
9bc8
a6a6
cf88
cf8b
d15c
dec6
dece
e716
e71e
1e9a
1e9e
5af4
5afb
b716
cfa3
cfa7
c658
c653
f446
f44f
f619
f756
0394
0ece
0ec5
0ecf
0fbd
9d6d
a695
b393
b9cc
c682
f89e
fafc
faf6
f8dd
f710
1755
1759
2919
2bac
6e74
72fd
92f6
92ff
b281
e3c6
ee9e
e9a3
fd9b
728e
7287
728f
a010
fe5b
26f8
718e
a3cc
ad12
f9ae
f9f6
12dc
12da
1a4c
8ff4
8ff0
b68a
b682
db67
e80e
ee5c
ed18
ed11
2a44
5b84
5b8c
87c6
c8c5
d3ca
23cc
23c7
73cb
a68c
a683
a32c
a8d4
a8d6
a8d3
a2a0
b898
e911
e39c
e392
fb64
fb62
03aa
9b84
9b8a
adf4
adf8
ba4d
b32e
d68e
d619
f916
2342
e6c9
9d9f
9d18
9755
ab88
c761
c765
d9fd
ebc6
f3ca
f3c7
ae99
a188
b7cd
b7c1
d37b
e150
e159
13c2
dd56
0eaa
96a7
d345
d188
d18f
e2ab
fdc0
fd18
09cb
59c5
b809
f322
0e44
1d18
171e
261f
8fc0
8fc9
a9f4
a9fe
cef4
cef3
ceff
d110
e8d4
e8de
fef7
ab6b
a372
ad8e
c9c2
d02e
d0c7
969c
9692
ab50
b3a2
cd12
db88
d7c1
e066
e062
f3b8
9682
bd65
e118
9712
a618
c806
ddc6
e05b
eba2
ca4e
6063
fa4e
e7c5
9ba8
a11d
a112
a1fe
be43
980f
b11e
f78f
6fc2
cff3
0e92
fe92
07c0
27cd
b341
fd6c
dff4
0382
038b
0ea2
0720
0318
030e
0726
0e24
0727
0e16
030f
07f6
079c
0e19
03d4
0926
0988
0e8e
0929
094f
0905
0e8b
07ad
0e27
0907
1402
1c46
1c47
1184
109c
1407
1c41
1e1a
1726
1e24
1126
130f
12b2
1e13
1e6e
1e19
1d43
1dbd
1e2c
1e84
1d73
17b1
1e83
203c
2012
2064
2221
240a
20f3
274e
224e
2313
2c84
2c87
2318
20f6
200a
2c8b
2e6d
220e
214e
27dd
2226
2043
2982
2e1d
2e1f
2eb7
23d4
2e8f
2207
27fe
27ae
27f1
2905
294a
27a7
29b2
2b47
309a
31c0
309c
3409
3036
303a
37fc
3243
310e
336d
30f6
300a
330d
3726
320e
372e
30ff
336b
3673
3227
3007
310d
33d7
37b1
3107
33d1
41c6
4e12
409a
460a
4035
40fb
4246
430e
4388
4129
422b
40f8
400b
4146
4363
4eb3
438f
4007
4d43
4127
4dbf
409b
4d0f
4e0f
5d1a
57cc
52c2
511a
506c
5c4e
5120
540f
5c4f
5096
5d24
50f0
520d
52be
5667
5d07
514e
5d7d
50b9
5121
50f7
5984
5904
52c6
50f1
5d2b
5988
5dbd
5db1
56be
56b7
5d27
566e
56b3
566f
61c6
62c2
67c3
6746
6382
674d
6407
622c
6405
6c85
61ae
67fc
62e3
620e
638e
6381
6e24
631e
672e
67b2
6d7d
6e86
6eb3
67ff
60b1
631f
6e8f
67a1
6e8e
63db
67a7
6b43
73ba
7d1a
76a2
779a
7093
7e21
72f0
7724
709c
774d
722c
7720
7e2a
7364
7246
7de3
70f0
72c0
72b1
700a
7784
738c
7e1e
70ff
77f6
73d2
7317
77dd
7146
7db2
7e19
7eb7
7796
77e3
7007
7d2b
71a6
796d
7e2e
7e8e
72c9
7d0f
71a3
7929
7e2f
77b7
72b7
7999
7d27
7e87
79e3
798a
7e83
7797
7941
803c
8092
8e12
84c3
86a2
8123
8344
81c0
806c
8793
8746
840b
8743
838b
8ea2
8e18
800d
824e
8e66
8318
800e
820d
81aa
8e24
822f
87b2
82b2
8921
80bd
80fd
8316
8319
8e8a
8e13
8227
86b1
8037
80b1
87b3
8721
82c9
898f
879f
8986
87f1
8929
82ce
86b3
8e81
8677
81ab
89d3
83df
86bf
8f2b
8fbf
903c
909a
9c4a
96a2
9382
909c
964d
9c8a
9033
938a
9e17
920d
9097
9229
9c8b
9099
9223
9eb9
92b3
9366
9d4d
9005
9607
99ee
92cb
9277
9605
9d0d
97bd
990d
998e
92c5
9d2e
99e3
9fb2
9f20
9d21
9d23
9fb9
a7cc
a79a
a1c0
ae50
a0fc
a402
a0b2
ac46
ac47
a729
ac4f
a24e
a096
ad24
a633
ae11
a046
a386
a38a
a7fc
a124
ae22
a7f0
a727
a7f6
a0bd
ad7e
a607
afb0
ae19
a2c6
a79e
a7e3
a94e
a7fe
a7f1
a9ed
a1a7
af2e
a9e3
ad21
a9b7
a9b2
a9d3
a907
b3a0
be21
b724
b314
b46d
b750
b914
b12b
bc4f
b04d
bc41
b033
bc87
be17
b243
b2b1
b099
b22f
b3d0
be16
b3d2
b79c
bd7d
b363
b043
be86
bdb3
b0f7
be1d
b0b7
b7a8
b039
be19
be0d
b902
b94c
b9dd
b7a9
b90f
bd21
b1ab
b9b9
b949
b907
bb47
c1c6
c3ba
caf0
c604
c154
c008
cc4c
c221
c724
cc4e
c098
c307
ce14
c384
c72b
ce10
c7a0
c7f8
cde3
c031
ceb1
c1aa
c129
c229
c24d
c38e
c312
c7b0
c009
c14e
c00b
c317
c7d3
c005
c121
c2c7
c7ff
cc86
c1e3
ce1f
c2c6
c277
c14d
c361
ce0d
c926
c0be
c311
c60b
cdbf
c90d
c7f9
c2bd
c90e
c909
c0bf
c721
c98e
c207
c98f
c7ae
c94a
ce2f
c2ce
c7a9
ce87
c2cf
cf20
cf07
cf1d
d42f
d3ba
d40e
d008
de50
d36c
d793
d064
d60a
d2b9
dc47
d0f3
d74e
de18
d1a0
d032
d24e
d64d
d313
de2a
dc8f
d035
dd0e
d0fe
d1ae
d0f0
de1a
dded
d31a
d7aa
d36e
debe
d7b2
d1a8
d798
d0b9
d904
d227
deb7
d79e
de8f
de0d
d2bf
ddbd
dd26
de8e
d7f3
de2c
d7a3
df21
ee50
e36c
e2b9
e612
e364
eeee
e033
e633
e7f8
e035
e031
e046
e00e
e2e3
eeb2
e36d
e0f6
e0ba
ec8b
ee1e
e0b3
e727
eebe
ed4e
e3dd
e723
e0b0
e1a2
e2b0
e7d3
e36b
ed4d
edb2
ec86
ed46
efb0
ee1d
e039
e6b1
e7e3
e60f
ee8e
e94e
e1a7
e929
e987
e16d
ef21
ef27
efbf
f41a
f012
f004
fc47
f40a
f406
f22c
f384
f313
fc41
fe10
fe2a
f364
fc84
fe0e
f318
f03a
f7be
f38a
f273
f00a
fe6d
f60e
f667
f921
f7dd
fe8a
feb3
fc86
f9ee
feb7
f66d
f909
f721
f6be
ff2e
f7ac
f90a
f3db
f98a
ff24
f9b3
f981
ff6d
fe29
ffbd
00bc
00d3
00e3
01ea
0194
01e4
01b5
01b8
0122
014f
01ca
01e5
01d8
0127
014d
0126
01b0
01fe
01c5
01cd
0121
01ac
01a0
01a2
01ae
01a5
01a7
0159
015f
3b45
3b32
3b2f
3beb
3be6
3bdf
3b2e
3b5a
3bfd
3b52
3bf3
3b59
1b3f
1b3e
1b02
1bc4
1b60
1b3a
1b41
1bca
1bf5
1b2a
1bb4
1bce
1be8
1b7f
1b11
1be6
1bde
1bd7
1b18
1b92
1b97
1b0e
1b17
1b19
1b5b
916a
912d
9138
9139
9102
911c
9160
9162
9122
9104
91ce
91d1
912f
9164
91f2
9171
919c
9192
9127
9143
918a
91cd
91f7
91ae
9159
3f6a
3f02
3f69
3faf
3f95
3f2a
3fd2
3fed
3fcc
3f7e
3fe3
3fb0
3ffd
3fc7
3ff3
3ff9
3f83
34ce
34d8
346c
34f0
34f7
34b7
083e
08ea
084b
08ca
08dc
0878
08de
08cb
08fc
0827
0810
081e
08c0
0816
08cf
08ab
08a6
6a1b
6a3a
6a44
6a37
6a64
6a7f
6a78
6a98
6a1a
6a18
6a1d
6a21
0a3e
0a69
0ae2
0a4c
0a65
0a95
0a3d
0a63
0a7f
0ad4
0ad2
0a79
0ae9
0afc
0ae3
0aaa
0a43
0a19
0a83
483f
48da
4839
48af
483a
4841
48d6
48ef
48e0
486b
48df
4875
489c
48ed
48f6
4827
485a
4873
4819
48c2
48c6
48f9
48ad
485d
4859
485f
48a1
2f2d
2fd9
2f76
2f62
2f35
2f65
2f74
2f95
2f2a
2f61
2f7f
2feb
2fd2
2f7b
2f98
2fde
2f1a
2f9b
2fcb
2f93
2f96
2f17
2ff0
2ff9
2f86
2fa0
2f83
2f82
2f85
d506
d5fa
d5d6
d52f
d5f2
d57a
d59c
d514
d5ee
d5fc
d5fe
d523
d550
d553
7b1b
7b48
7b45
7b4b
7b68
7b32
7b7c
7b4a
7b65
7b74
7b36
7b2a
7b04
7bd8
7b7a
7b6c
7b75
7b79
7b9a
7b6e
7b5a
7b10
7b73
7b96
7baa
7bc6
7bb3
7bc9
7bbd
7bbf
7b5c
7b5e
7ba6
7b85
7ba7
7ba9
2d98
2d92
2d93
2d95
2d99
2d9f
8017
3e3e
3e25
3ee1
3e37
3ee8
3e6b
3e66
3e9e
3ec5
3e1d
3ef3
3e56
383e
38b8
384f
384a
3878
382e
38aa
3852
38ac
38f3
eaa4
eab8
eac8
ea1c
eae1
eab4
eaba
eadf
ea98
ea7d
ea20
eacc
ea27
eac0
eafb
ea19
ea6d
eac3
eacd
eabd
ea54
eaa2
ea82
0c48
0cd9
0c4b
0c44
0c8c
0c47
0cd1
0c63
0cba
0cd4
0c75
0c0f
0c1a
0c7d
0ced
0cd3
0cdd
0c27
0c10
0c46
0cc0
0c43
0cb2
0c1d
0cac
0cc1
0c86
0ca8
0c5b
0c85
da08
da2d
dab8
dac8
da62
da22
da36
dace
dade
da24
da14
da92
da26
daaa
dafe
dac6
daf4
daae
daa7
28bc
2871
28ef
287f
28db
28cb
28ed
28fc
28ff
2816
2813
2826
28f0
28bd
28ab
288f
28a7
8904
03f2
0d06
0de4
0db6
0d7c
0db4
0dd8
0d64
0d09
0dd0
0d7f
0dcc
0d1e
0df0
0dc6
0d0d
0df4
19e2
1975
199b
196d
19c9
19ad
19a1
39bb
3949
394c
395a
394d
394e
39b9
39b7
3953
3955
39ab
39ad
39a3
763f
76e7
7606
7638
7628
76da
76b5
76c8
76b6
76e1
7644
767c
7649
76d6
764a
76d1
76f2
76e6
76df
7618
766e
76f8
7617
76f0
76f1
76c5
7629
761d
76c6
76b1
7658
765e
765d
7659
f06a
f025
f044
f041
f02a
f047
f0d0
f0e8
f0e0
f078
f09e
f0cb
f07d
f093
f073
f0e3
f0b9
f0b1
f0cf
f056
f115
f13e
f176
f102
f11c
f160
f165
f131
f105
f130
f17d
f1ed
f120
f1dd
f1f6
f146
f18a
f1fd
f1a0
f185
f1a7
f187
1591
15b5
15c8
1504
1598
1510
151e
15c0
158a
1550
15b7
15a8
8b1b
8b1c
8b44
8b0b
8b2a
8b09
8b71
8bdb
8b7b
8b6f
8b9e
8bd7
8b1f
8b14
8bed
8b4d
8b50
8b58
8bae
8b82
8b85
285a
4568
45bb
45b5
4563
457f
450f
457e
45dd
4567
45fc
45f6
456d
45f1
4529
45fd
45c6
45b7
45a8
45a5
45ad
4559
45a1
9083
9087
9081
941b
9466
9497
94ff
9499
1835
1811
1814
1810
18e3
1816
18aa
18fe
1821
1855
185e
1881
b8a4
b828
b8b8
b8c4
b8fa
b862
b818
b810
b81e
b8fe
b8b1
b856
b8ae
b8a9
8d91
8d06
8d39
8d4c
8d37
8de0
8d0f
8d2b
8d7d
8d14
8dee
8d46
8d0e
8d19
8df1
8dfd
8d23
8d07
8df4
8d84
8d88
8d86
2dbc
2de4
2dfa
2def
2de0
2d1a
2d12
2d2b
2d14
2d67
2de3
2d0d
2db3
2d88
5fe9
4ffa
4fe1
4fc6
4ff7
b62d
b63c
b635
b67a
b6e6
b633
b67e
b64e
b657
b656
b65d
8538
8525
85b8
85c8
85fa
8569
8522
8595
8504
852f
8509
85eb
856b
8579
85e9
859c
859b
8514
85ee
8597
85e3
854d
8517
8543
854e
85f0
8519
85b3
858b
8556
8558
8555
85a2
8582
85ab
85a5
8559
8587
023f
0245
023a
024c
02ce
027a
02ba
02ed
027e
02fc
0246
0217
02f1
02cd
02c6
02a8
9cd9
9c3e
9c38
9ce1
9ce2
9c7c
9cdc
9c3d
9c64
9ce6
9cdf
9c2b
9c9d
9cee
9c7e
9cdd
9c67
9c5a
9c17
9cb0
9cbe
9cc2
9ccd
9c23
9c50
9cb3
9cb7
9c5c
9c51
9cab
9c59
0bcf
69d5
698c
69f5
6995
69b4
69e8
69d4
69e0
6979
69d3
69e3
6983
69a2
69a3
0515
05a4
0538
05ea
0532
05b5
0544
0595
05d1
05ef
0572
057b
051a
0518
05cc
056e
0523
05b1
05a0
05a3
1ad9
1a35
1a63
1ae8
1a30
1aeb
1a78
1a7b
1ade
1acc
1a57
1a88
1a55
1a5b
1aa7
fa90
fa39
fa32
fa62
fad8
fad4
fa12
fa6e
fab0
fa19
fa0d
fa88
fa86
fa56
faa7
0d93
0d97
3ad9
3ad5
3ada
3ae2
3a7a
3ad0
3aef
3adb
ec32
ec35
ec95
ec63
ecef
ec72
ec1f
ec6e
ec97
ecfe
ec1d
ec21
ec5c
ec58
ec5f
4c6a
4c38
4c9e
4c1f
4c2e
4c77
4cf7
4cc1
4c5b
5c69
5caf
5c7c
5cd8
5c63
5c61
5ceb
5ce6
5c98
5c6f
5c24
5c7d
5cdd
5c5a
5c1d
5cf7
5c51
4a91
4ae7
4ae1
4a62
4ad6
4ace
4a05
4ad0
4adb
4ade
4ad3
4a7e
4a6e
4ac0
4a17
4ac3
4ac5
4ac2
4ac7
4a8b
5708
571b
573e
57da
57bb
5737
572a
5731
57e9
57de
5718
5714
57fe
57f1
571d
57f7
57bd
5784
57a8
5783
57a9
8809
c6d5
c625
c6c4
c66b
c612
c6cb
c6f4
5591
55d5
5594
5549
554f
5565
5595
55d8
5566
5512
551f
559d
556e
55f8
5597
5510
550e
5543
55b9
55f3
5551
5585
55a7
55a9
4706
47ea
47da
4725
47e5
4705
47ef
47db
47e6
47d2
479e
4718
4713
4754
47bf
47b7
475b
475d
03ee
3591
352d
3545
35e4
35b5
35c4
35e1
3544
352a
35d8
3509
35ba
35d4
35e6
35d7
359a
3593
3513
3599
356d
35c6
3523
35b3
35c1
35c7
3584
35b7
35a5
35a7
496a
4968
49b5
4964
49d0
4971
49d2
49df
497b
49ff
49c5
49b9
4608
4690
46b5
461f
46d3
4613
46fe
46b3
a8bc
a84a
a8f5
a837
a8ba
a870
a8fc
a85a
a8e3
a84d
a8b0
a8f0
a85e
a8ab
a8ad
8cea
8c25
8cb8
8cb6
8c3a
8c79
8c1f
8cb0
7c91
7c39
7c19
7c07
7ccf
7cbf
7c55
1c42
1cd9
1ce7
1c68
1cc4
1ce2
1c22
1cdc
1c3d
1c78
1c79
1c20
1cfc
1cf0
1cc5
1c57
1c0d
1cb9
1cb1
1ccf
1cbf
1cf9
1c5c
1c55
1c5b
ccd9
ccda
cc76
ccfa
cc1c
cc22
ccd6
cc37
ccd2
cc12
cccc
cc16
cc0e
cc19
ccc6
ccf4
ccbd
ccc7
cc54
ccf9
cc59
9508
952d
95c4
951c
953a
950a
95dc
95b4
9505
95d2
951a
9512
9524
95ff
95c0
954d
950e
9543
95f0
95b2
9554
9555
9559
6ce7
6c39
6ce4
6ce1
6ce5
6cdc
6cd1
6c05
6c2e
6c73
6cc3
6cc2
6c57
6cf7
6cc9
6ccf
6c55
6c5f
5891
58bc
582a
58e8
58ba
58ef
581a
58ed
5817
58b0
586d
58be
588a
5829
581d
58b7
58a2
5882
58a7
58a9
2c91
2ce7
2c06
2cb5
2c0b
2c65
2c74
2cb4
2c3d
2c09
2c6b
2c7b
2c66
2c18
2c14
2c27
2c73
2cfe
2cbe
2cc2
2ccd
2c07
2cc9
2cf4
2c5e
f51b
f538
f525
f5fa
f544
f5e2
f574
f547
f5d0
f571
f578
f5d7
f57e
f592
f5dd
f510
f546
f5e3
f543
f5f0
f552
f5c9
f5bd
f55d
bc3f
bc28
bce1
bc62
bc7c
bc65
bce5
bcdc
bc3d
bc2f
bc61
bcdf
bc72
bc79
bc24
bc2b
bc93
bcfc
bc13
bcb0
bc19
65ea
6528
65ec
65d6
658c
6536
65d1
65d0
6575
659c
65cc
6592
656d
6529
65cd
6552
65ac
6584
658b
6555
65a9
5a94
5ae1
5a3c
5a35
5a64
5a6c
5aef
5a9c
5a92
5add
5a5c
5aa8
5a5d
5a59
dc3f
dcd9
dc38
dcda
dce4
dce1
dc62
dce2
dc7c
dc35
dce5
dc37
dcb4
dcce
dc30
dc72
dc7d
dc20
dc67
dcf6
dc73
dcf0
dcbe
dc29
dcfd
dcb3
dccf
dc56
aad5
aabc
aa62
aa74
aab4
aa2f
aaef
aae9
aa18
aa2b
aa9f
aad3
aa93
aa8a
aa1d
aa07
aabf
aa88
aa81
aaa3
aaa1
ca08
cae7
ca3e
ca39
cabb
ca60
ca04
cad8
ca6c
cae9
ca70
cade
caee
ca1e
ca17
caaa
cab2
cacd
cac1
ca53
ca5c
ca56
ca87
683e
6849
6836
6847
6871
6830
6833
686e
68b2
6821
68b3
68b9
68bf
6855
68a1
ac2d
ac45
ace7
ac68
ac62
ac3d
acf2
ac71
ac7b
ac9e
ac9a
ac2b
ac7e
acdd
ac10
ac73
acbe
ac1d
acf7
acc9
ac54
ac5c
ac56
252d
25a4
25bc
251c
2560
2569
253c
2541
257c
2574
25e0
2572
256e
2593
25e3
25f7
25bd
2584
25a7
0b91
0b42
0b4b
0b32
0b3a
0b0c
0bd6
0be5
0b2f
0b30
0b12
0bd3
0b7e
0bf7
0bf9
8ad5
8ac4
8a62
8a7a
8ae8
8a11
8a33
8adf
8a72
8a9c
8a10
8a1e
8a0e
8ab0
8ac9
8ab1
8a54
8abf
8aa2
8aa3
2a15
2a6a
2a2d
2a38
2ae4
2ab8
2a7c
2a2f
2ad4
2ae6
2a70
2a9c
2acc
2a5a
2a17
2a23
2ab7
2aa8
2a58
2aa2
2a5b
2aad
2aa7
2aa9
b56a
b545
b5e7
b54b
b5d6
b54c
b5dc
b52a
b5b4
b5d8
b5d0
b5ba
b5aa
b599
b5fe
b5f0
b5f7
b5bf
b5b7
b58b
b5a0
b5a1
7a90
7ab5
7ac4
7a62
7ad6
7a0a
7a36
7ad0
7a6c
7ae8
7aba
7a11
7a33
7ade
7a14
7a1e
7ae3
7a77
7ac6
7a21
7ab9
7ab7
7aa9
7a87
fcd9
fcea
fc32
fc25
fcfa
fc3c
fc74
fc37
fcdb
fc79
fccb
fc9f
fc6e
fcf8
fc0e
fc29
fcfd
fc77
fcc1
fcc7
fccf
fcf3
bf3f
bfe7
bf32
bfc4
bf3a
bf7c
bfe5
bf6c
bfba
bfef
bfe6
bf0f
bfed
bfee
bf92
bf67
bff8
bf10
bfe3
bf43
bffe
bfc5
bf8a
bfc6
bff4
bf86
bb42
bb36
bb05
bbf2
bbeb
bb9c
bb9e
bbdd
bb1e
902d
90d9
90da
90c8
9044
90d6
90f2
90d7
90dd
8834
88bc
8860
88e2
88e5
8836
8847
8864
8863
88e8
88e9
88b0
88f0
8819
88b1
8883
8855
8882
8881
885d
888f
88a3
8887
a545
a568
a569
a53a
a5ce
a5e8
a56b
a59c
a59b
a57d
a5cc
a5d3
a5e3
a513
a5fb
a5fe
a5fd
a5b2
a5c6
a5c7
a5b7
a5f9
a558
a5a9
d828
d8e4
d8b4
d82f
d818
d814
d86e
d817
d8fe
d86d
d8b2
d823
d852
d8ac
9a2d
9ad5
9a68
9ab5
9a02
9ad8
9a64
9a12
9a24
9acb
9aed
9a20
9a6e
9a10
9a21
9aab
9aa5
c848
c815
c838
c825
c8c8
c81c
c84c
c84a
c833
c87b
c8ee
c85a
c816
c813
c8aa
c81d
c821
c8f4
c8a8
c85e
ba38
bada
babb
ba7c
ba35
baca
bae0
ba7b
ba66
ba98
ba24
ba92
ba99
baa8
baa0
ba55
baa7
c506
c5ea
c525
c57c
c50a
c5ce
c5d0
c5de
c51f
c592
c5f6
c55a
c543
c58a
c5c9
c554
c558
c585
c5a3
e539
e594
e525
e5c4
e569
e565
e595
e509
e5e8
e5db
e570
e512
e5d3
e5f8
e527
e55a
e596
e5aa
e5b0
e5c3
e5b2
e5c6
e5b9
e556
e5a7
7f1b
7f3f
7f4b
7f39
7f94
7fc8
7f1c
7f60
7fe1
7f69
7f41
7f36
7ff5
7f3d
7f04
7f64
7f61
7f71
7f6b
7f72
7f9a
7f6e
7ff8
7fff
7ffb
7f17
7f84
7f87
9837
98f2
987b
9812
981e
98b0
988a
9829
9854
9858
988e
98a5
781b
7838
7876
78e4
787c
784a
7837
7847
7831
787a
7871
7830
78ef
786b
7875
787b
7866
787e
781e
78ff
7816
78aa
7829
78b2
7877
781d
78b3
78bd
7854
78bf
7884
7855
7882
5b42
5b90
5bda
5b4b
5bbc
5bec
5b3c
5b0a
5bd8
5bf1
5bfd
7542
75da
75bc
75ec
753a
7544
7541
75ca
75e5
7547
7504
75d2
7575
75de
751a
75cb
752e
7567
75f6
7597
7546
75fe
75c6
75c1
75b1
75bd
7556
755e
75a6
6b28
6b1c
6b4a
6b9c
6bed
6b99
2b3f
2b15
2b90
2b38
2bea
2b39
2b76
2b02
2b44
2b0a
2b4f
2b78
2bdf
2b14
2bee
2b13
2bfb
2bf0
20ec
204a
2079
20ee
52ec
5205
52e6
f83a
f84c
f83d
f863
f8e8
f812
f81f
f818
f8f6
f8a8
e891
e8ea
e868
e8e4
e8ec
e8ef
e82b
e8ed
e87e
e86e
e8e3
e8f3
e882
e8a6
e8a9
abbc
ab0b
abd6
ab37
ab05
ab30
ab9c
ab12
ab7d
abd3
abf8
abf6
abff
8e94
8e3a
8ed8
8e09
8ede
8ed7
9bda
9b0c
9b22
9b0a
9b71
9bdf
9b98
9bde
9b20
9b9d
9b7e
9b2e
9b16
9b26
9b1d
4208
421b
42bb
420b
423d
4209
42ef
420f
421d
1fd5
1fda
1fe4
1f2a
1fef
1f11
1f6f
1f10
1fc0
1f16
1f0d
1ff4
1fbf
1f8e
b942
b93e
b938
b9ea
b932
b994
b9c4
b97c
b9d6
b9d1
b964
b963
b96c
b979
b99c
b924
b97e
b999
db3f
db44
dbe2
db0c
db2c
db31
dbd1
db7f
db7b
db98
db24
db9f
db2e
eb34
eb6a
eb90
eb32
ebec
eb41
eb7c
eb30
ebe0
eb7b
eb9a
eb2b
ebfc
ebf1
511b
5190
5138
51da
5176
5149
51e5
513d
51d4
5178
51e9
113f
11d5
113e
113a
1135
1133
1170
11de
11ed
119d
1173
ed66
c4de
fb15
fbbc
fbd6
fb4a
fbf2
fbd2
fb0f
fb9c
fbde
fb2b
2238
224b
220c
220b
220a
223d
2204
2279
227d
2217
ed54
1476
146f
beea
be39
beb8
befa
be35
bee5
be04
3791
37d5
3776
37bb
3725
37fa
37af
37e5
37b4
37d8
377a
37d4
37d2
37df
37e9
37de
411b
41d9
41e7
414b
413a
41dc
4136
4195
4179
41e9
4198
416d
2145
21a4
2190
217d
21ed
4e90
4e64
4e63
36d9
363e
3632
3669
3631
36d8
3663
3678
367e
3dd9
3de7
3de1
4d3f
4da4
4dc4
4d31
4d33
3206
323e
3202
3262
324a
3237
3247
3209
321f
321e
2afc
2af2
e215
e242
e2e7
e276
e268
e2bc
e232
e2b6
e21c
e236
e2e8
e2e9
e266
e218
e210
2408
2491
24d9
24ec
24d4
246b
313f
316a
31d5
3106
3132
3102
31fa
3162
3149
31e5
3175
310f
3166
3193
8634
862d
86d9
8638
8625
86ec
86d6
864c
8664
866c
86db
8675
86ed
c142
c1d5
c1e8
c17f
c1e0
c1e6
c1df
c166
c1d7
c19b
c167
c196
c16d
811b
814b
81c4
81fa
81ec
8160
8169
8144
817c
818c
81e5
81d1
8164
81d0
8161
81db
8170
8198
819b
819f
819d
8197
5438
5435
5464
5433
546f
7108
7176
7132
7194
7125
7162
7141
7174
717b
7199
1d1b
1d6a
1da4
1dda
1d60
1de2
1ddc
1d78
8242
8245
82e7
8232
821c
82af
824f
8236
8237
8295
826c
827f
8233
8279
826e
8267
8297
ed76
edbb
ed60
ede1
ed0a
edca
ede5
ed36
edf2
edd0
ede0
ed78
ed33
eddf
ed7b
8fd5
8f3e
8fea
8f3c
8f49
8f7a
8fd0
8fef
8f7f
8fd4
8fd2
8f6b
8f72
8f7b
8f98
8f12
8f14
8f73
8f0e
603f
6048
602d
60d5
603e
af08
afa4
af06
af28
af02
afc4
af3c
af3a
afd6
af2a
afe8
af9a
af14
afee
afcc
af10
af16
0f15
0f6a
0f94
0fb6
0f74
0fb4
0f64
0f09
0fdb
0f11
0fe6
0f78
0fe9
0fd7
0f14
0f9f
0f6e
0f1e
0f13
61d9
613e
61da
6102
61d6
614a
61f5
6137
61db
6166
6193
f248
f22d
f206
f24b
f2e4
f27c
f23d
f264
f26c
f298
f214
f29d
f27e
f26e
f292
f21e
c208
c21b
c290
c24b
c294
c2b8
c2fa
c244
c247
c231
c2e9
c21a
c29a
c21e
c216
c213
1608
163f
1642
16bc
1636
16e8
1678
16ee
7d2d
7d32
7de4
7d1c
7ddc
7d37
7d3d
7d47
7d31
7d09
7d30
7de9
7d7b
5d42
5d32
5d02
5dc4
5d0b
5d4c
5d09
5d75
044b
0476
04e4
0435
0461
04db
04df
04d7
0d53
cf6a
cfd9
cf06
cfb6
cfe2
cfe5
cf2c
cf09
cf6c
cfd4
cfeb
cf66
cf98
cf9f
cff6
cf10
1715
17e7
1790
17ec
177c
174c
174a
17dc
17f2
17d4
40d9
404b
40e4
40e1
4041
404f
40d2
b4d9
b438
b44b
b494
b4fa
b469
b4d1
b46b
b46e
b467
f63e
f6ea
f6bb
f6c8
f644
f64c
f637
f6b4
f6d3
df3e
dfb5
dfec
df60
df8c
df64
dff2
df7a
df6c
df30
df6b
dfdf
df0f
df14
df4d
df19
b191
b1ea
b162
b13c
b122
b1f5
b1d1
b1d0
b1e8
b1d4
b175
b166
b17e
b193
b197
6461
646e
a91b
a93f
a938
a932
a9e2
a965
a964
a9d0
a9d4
a97b
a92b
a97e
a993
3045
30d5
30e7
30c8
307c
30f5
30de
2642
26e4
26c8
2636
26ba
2678
26df
2675
26ee
87e7
87bc
87fa
8774
873d
87d8
8705
8771
87d2
8770
877d
2e42
2e3e
2ee4
2e62
2e3d
2e09
2eba
2eef
2ee0
2eeb
2ee9
2ede
8991
8948
89a4
893e
89da
8976
89b6
8936
89b4
89d8
89d7
899d
896e
1e1b
1e6a
1e06
1e4b
1e36
1eeb
1ede
a108
a134
a16a
a145
a128
a168
a14f
a195
a1d0
a16c
a1e8
a10f
a16f
fd91
fdb5
fdc8
fd62
fd4c
fd2a
fdef
fd75
d108
d12d
d106
d14b
d125
d169
d144
d1e2
d13d
d178
d196
c0e7
c038
c0b8
c041
c0d1
c071
c0d4
c0e0
c0d7
84da
8465
84d1
8433
126a
12c8
1202
124a
12ba
1275
1270
1266
129a
129f
129d
9791
9748
9738
97da
97bc
97e2
97d6
9737
97d8
977b
e034
e048
e07c
e074
e0ef
e072
9fb5
9fb8
9ffa
9f35
9f14
9f7e
9f92
9efa
9edc
9e95
9ee0
c7ea
c7da
c73a
c70c
c774
c72f
c77b
c77d
7e2d
7e45
7ed5
7e38
7eea
7e39
7e02
7e62
7e8c
7ef5
7eb4
7e31
7ed0
7ed4
5691
5606
5676
56c4
5660
5662
56d6
564c
56f5
56b4
56d8
56d0
5671
56db
5675
56ee
0bb8
62e7
620b
62b4
6272
6279
629f
c91b
c96a
c942
c938
c9da
c9c8
c9b6
c965
c974
c9d0
c9e6
c970
c99c
c993
c992
ff34
ff48
ffd5
ff90
ffea
ff76
ffc4
ff41
ffd6
ffb4
ffce
ff63
ffe0
ff9a
ff9d
fffc
ff0e
ff19
6f15
6f6a
6f3e
6fda
6fc4
6ffa
6fec
6f0c
6fe8
6f7b
6f4e
de15
dee7
dea4
de1c
ded1
dee8
dedb
50b8
50b6
50ec
50ef
507f
50e6
507b
50ed
50dd
5077
bd3f
bd48
bdbb
bdb5
bdc8
bd0b
bddc
bdb4
bd09
bdba
a41b
a4d9
a474
a461
a4db
a4eb
a4ed
a4e3
791b
7991
793e
7976
79b6
7962
79e2
797c
7935
798c
7965
7937
7995
7964
7933
7975
7979
7970
797b
799f
e7d8
e7ef
e7eb
e772
e770
29bb
29b6
293a
298c
29e5
2963
29d0
2975
2979
2966
29de
2924
297d
297e
d96a
d9a4
d9da
d9d0
d99c
d966
d998
d96f
d924
d61b
d642
d6e7
d638
d6ea
d694
d625
d6c4
d6ca
d636
d6b4
d6e6
d67b
a7a4
a73e
a7da
a794
a7bb
a7b6
a7c4
a70a
a74f
a7dc
a736
a72a
a7f2
a7d4
a778
d708
d7a4
d7e4
d7c4
d735
d70a
d7b4
d731
d7d1
d7ef
d7d2
336a
33da
3368
3332
3302
3360
3330
9208
921b
922d
9238
92fa
920c
9241
9235
924f
924a
92ef
929c
9298
9212
927d
773e
7738
77da
7776
7702
77af
770b
7735
773d
7704
777a
77ba
271b
273f
2715
2725
2731
277b
ef1b
ef15
efe4
efc4
ef30
efdf
ef9a
ef0e
d22d
d2a4
d238
d24b
d204
d205
d27a
d2e6
d278
d26b
d212
d267
feea
fe32
fe0b
fe31
fed8
fe09
5013
ae48
ae6a
ae06
ae3e
ae32
aee8
ae30
aed4
e908
e994
e9e5
e964
e9e0
e96b
e979
e920
806a
802d
8045
80e4
8047
80d2
8072
80ed
80dd
d408
d4c4
d4fa
d43c
d465
d4d0
d461
d433
d4df
d4d7
ce32
cee4
ce60
ce3a
ce0a
ced8
ce64
ce30
cedb
ced4
cee0
cee6
cd08
cdea
cd69
cd22
cd49
cd4a
cdd8
cdd2
cd75
632d
6390
6362
630a
b7ea
b7e4
b7c8
b73a
b741
b7dc
e148
e1d5
e132
e1e4
e17c
e149
e136
e131
e1d1
e1de
59a4
5976
597c
5974
59dc
593d
5971
5978
59d2
5972
5998
59de
599a
7208
7215
7242
72b6
72c4
7260
724c
7265
72f5
7295
723d
72ef
727f
721a
7218
72ee
a238
a294
a2e4
a295
a278
a272
a2e9
a29f
a216
a21d
dd08
dd3e
ddea
dd28
dd35
dd0a
dd37
dd09
dde0
ddeb
dd79
ddde
ddd7
67da
6732
67fa
67ec
673d
67d2
6606
66c8
664a
66e5
6647
66d8
666b
66ee
9d2a
9d3d
9dd8
9dd0
9d30
9ddb
9de0
9de6
9d70
b291
b248
b23e
b2b5
b249
b235
b23d
b204
b2e0
b270
b26e
b21e
b219
ad08
ad45
ad3e
adb5
adfa
ad1c
ad35
ad74
ad36
ad37
ad2c
ad04
add0
ad75
531b
53d5
f715
f76a
f745
f71c
f741
f70b
f795
f705
f7d4
f77b
f7ed
0e28
0e68
0e02
0ee2
0e05
0e64
0ed0
0eba
0ede
09e7
0994
093c
097c
09ce
0963
0993
0992
0748
076a
07e4
07bb
07c8
07b6
0735
070a
0731
07db
6dfa
6d3a
6de2
6d22
6d8c
6d30
6dd2
131c
133c
13dc
a608
a63f
a691
a64b
a6b5
a6c8
a61c
a660
a64a
a63d
a6ce
a663
a66c
a6d7
a6ed
f9a4
f906
f9e4
f9e8
f920
e691
e66a
e690
e6da
e6c4
e669
e64a
e637
e664
e6eb
e6e6
e6ee
9932
99c4
99f5
99d0
99d2
9979
997d
999f
f46a
f4da
f44b
f4c8
f4ec
f4e1
f469
f466
f46f
f4ee
f4dd
d0ea
d0e4
d0af
d095
d0d1
d07a
d0ed
d07e
702d
70ea
704b
7025
70af
70d2
70dd
b0b6
b044
b0eb
6e08
6eb5
6eb4
6e09
6e6c
6ed2
6eed
ee2d
eebc
ee60
eeeb
eed2
ee33
03d6
0365
c3d9
c306
c339
c3af
c37c
c305
9608
9634
9606
9644
966b
4390
4368
4302
43c4
4369
4337
8391
8315
8306
8328
83c8
833c
8336
a048
a042
a0c8
a0b6
a0c4
10bc
10b6
10e2
10d0
1071
10db
10e6
1075
107b
6ba1
6ba5
9308
9368
9302
930a
9305
23da
2374
b31b
b302
b33c
b331
b330
d36a
d338
d3c8
d304
d305
7368
a334
a3da
a3d6
a365
a3dc
a330
f3d9
f33e
f360
20cc
20c5
405a
22fb
c0ab
5c8e
539a
5393
539f
e391
e315
e338
e328
e31c
e330
8d96
8d95
3021
3029
2081
2b6b
63a8
311a
6359
13e2
42cd
42c9
42cf
4943
5457
5d5c
5d5f
22bd
3343
3347
4d6c
491f
9b54
9b51
368b
79be
3310
c477
6375
d0ac
d0a8
d0a6
d0ad
d0ae
d0a5
378e
548b
5487
c4f3
04b8
31a1
37c6
37c7
37c9
42ae
4dfd
4dfe
3dab
3da0
33bb
33bd
41f8
41ff
bb8e
549f
5421
4352
66fd
66fe
6ca6
6ca1
3157
3e7a
3e79
7e76
c05e
279b
279e
74f2
74f5
4e20
64fb
64f6
c4b5
2ec7
2ec9
26aa
26ae
7d5b
7d5d
7d52
1fae
1fa7
eb6e
eb61
eb65
eb6f
c3b5
c4ae
3d8f
84f6
04fd
64ad
64a2
78c3
78c1
b084
14ae
4419
50ae
50a3
50a0
50a5
8151
40c3
40cf
53f4
53ff
bcab
bcae
0499
8354
835e
5029
2dab
2da3
2da1
74cd
c2dd
c2d7
c2d5
149c
375f
31bc
31ba
5a4c
5a4b
81ba
81b2
81bf
4341
5ca3
503d
5032
c37b
c379
276c
8343
8347
b015
c3f0
2061
602f
7f5b
53e3
7daf
8482
a083
c25d
54c1
505d
5055
505f
84cf
c01f
c396
fff4
fffe
fff3
045b
0bae
806d
8062
8060
8061
fd8a
fd81
32d7
32d1
32d5
04a2
33cd
33c7
4027
3626
43fd
43c1
58d1
2158
2150
2157
2151
215f
506b
506f
589b
5896
5893
5897
3086
308f
4ca9
82db
82de
eca8
eca7
54ad
58c9
33fa
33f7
33f9
40ab
40ae
53ab
53ad
52f8
52fd
52f2
52fe
52ff
83b4
83bb
83b7
83bf
10c0
5153
515f
5624
562b
5623
17cd
17c9
3325
847b
8471
a423
a48c
a486
bb63
bb60
46a8
46a1
8f55
8f59
7483
a4fc
a4f0
a4f1
dca7
2e9e
2e7f
33a9
335b
3356
335a
3353
3357
3351
51bc
51b0
b45e
be98
0e56
0e51
2e57
448e
42df
4af8
325f
36c2
43b6
43bd
43b3
43bf
56cd
7d9c
7d9b
7d97
7d9f
6d52
0dac
0dad
5d9f
83f3
83f7
82ab
82a2
cca3
cca7
cca5
53b4
b49a
b493
4316
4312
4319
508b
508f
b4b6
b4bd
b4be
b4bf
b4fc
b4fd
b4f5
b4f9
c3a8
24cb
24c2
3ead
3eaa
3ea3
3ea9
8bb9
865e
8651
865f
3dc2
3dc9
3dcf
7dfe
7df7
7df1
8622
8623
8629
c15d
c159
301d
301e
3017
7fab
7fa3
7fa7
7fa9
7faf
2421
4186
83e4
83eb
83e9
c352
c35e
c357
d484
d48f
4dcc
4dc2
4dc1
8688
8686
8682
8683
868f
a4ba
a4bf
b3b3
b3bf
c2f3
c2f7
0fa6
8022
8027
9e4d
36a3
36a5
36af
7afb
7e58
7e5f
7955
e2d7
e2d1
22c6
22c9
3058
305e
3053
2b84
2b86
c0cb
eb5a
fca7
1e44
1e49
12f8
12f3
541f
7e99
7e9f
828c
828b
80a3
c324
c32e
d2aa
d2a0
4eab
4ea7
4e86
5d86
5d8f
81f4
81f1
f01f
2ef4
2ef9
30cc
30ce
30c7
30c9
6323
a4c2
a4c9
2022
2624
2626
262f
634b
6345
6349
7ead
7ea3
7ea1
7ea9
7eaf
a458
a45d
b4ab
b4a6
b4ae
b4a1
71bd
86ac
ed96
ed93
30ad
30a7
4da5
776c
7767
7761
7769
839b
839a
8393
876e
8761
9351
afaf
29a7
5808
580b
53cc
53ca
53c0
cd5b
c02b
f426
f423
f65c
f651
86fe
90aa
90ae
90a5
92ab
92a9
b916
b91e
4372
5da5
5da9
561a
5613
62f8
62f9
832e
8325
b4c6
b4c2
c06f
c3e4
c3e8
c3ed
c3e1
0255
0259
2255
5d6c
5d6e
51f7
83a2
8185
a75d
a752
5bba
50ce
50c0
50c1
92dc
92db
92d6
92d0
92d5
92df
c1f8
c1f3
6fab
6faa
7250
725f
b252
b257
b259
044a
31f4
5bcb
5bc6
5bce
5bc7
565c
565a
7dc3
7dcf
7758
7757
8d58
8d56
8d52
aaf8
aafd
e08a
f419
f41f
4d13
83cb
83c1
8713
9e81
b3cc
b3cd
cdab
c2a3
c2a9
deae
dea0
1482
201e
2013
205a
56f6
7912
7910
7d83
7d8f
9288
c3d4
c3dd
c3d3
c3df
d3e4
d3e1
379b
3796
5dc0
5dc7
5dc9
8692
80cd
ae74
82fb
d495
33e4
33eb
33ed
33ea
33e0
7d18
7d1f
705b
705e
ce74
ce75
c3cd
c3c2
c3c9
d458
d457
f49f
60c5
abcc
abca
beac
bea3
bea9
f081
f085
fd56
fd57
fd55
ff52
ff59
2281
72de
72d5
7efb
7ef9
861d
8613
8617
861f
ae8a
ae83
bdae
b44f
b05b
b05f
d473
11bc
11b8
11be
22d8
701e
7011
8893
8897
8fa8
8378
8372
8375
a256
a4a2
b9fe
b9f0
b9f1
f68c
f686
f681
37a8
37a2
6e54
78dd
8bc8
8bca
81cb
81c9
81cf
9252
925e
d4f0
04ca
04c7
3693
61b8
61be
63e6
891c
891e
8917
8915
891f
b1bd
b1ba
c28f
c8d3
248c
2483
2487
439a
439e
4399
51cb
51c2
51c3
51cf
6ce8
93f8
93ff
d4ab
d4ae
f4b7
f4bf
31c7
31c1
901f
939c
a35a
a357
b48e
ef51
ef59
ef5f
6da2
6da7
73e6
8946
894f
9063
bd5c
b413
0416
1ca8
1cab
7808
780e
7809
8956
8953
a62e
a621
af5b
d65e
d655
d981
f47b
f47a
f473
f47f
1010
101f
1068
106d
2ceb
88c7
9057
be7c
be78
be75
bdf0
dce8
f48e
f483
f4ab
0478
047b
0479
047f
280e
2412
2419
41cd
41ce
41c1
41c9
6d8b
6d86
7358
7353
7351
90c6
90ce
d44c
d443
1e70
2bb7
2bb5
57cd
57cf
628b
6281
671f
89a8
89a9
9d5c
9d52
9d5e
9d51
f4cc
f4c6
f4cf
02d0
23f3
70aa
70a0
a15b
a15e
ada9
a49a
d76b
d767
f28c
f285
0354
0359
134c
73a2
73a1
72ac
72a7
88dd
88de
99fc
bceb
bce0
c918
c913
c917
f458
13ac
4e9e
4e99
4e9f
7026
702a
702f
93c6
93c5
a3bc
a3b8
ad57
aea5
aea9
a39b
a654
a65a
beff
c111
c119
e6a0
2bc8
2bc2
2bc5
511d
8e76
8e77
8e75
8e7f
a1bd
a1ba
a1b0
ae52
ae5e
b18e
dd96
dd95
d39c
d39f
d058
d05e
fe7b
fe7a
fe77
fda0
fda5
1898
79c2
79c0
8751
8759
93e0
de5e
de53
de55
d95a
d95e
d951
e65c
e658
e65a
8e55
d75e
d757
e3fa
ee70
0f5a
13f8
2b5a
5d14
5d16
5d1e
5d19
5bac
5baa
5bae
5ba5
79a8
79a9
8ef6
cf5c
cf5f
e341
e345
e69a
e699
1ecc
1ece
247e
2471
6054
605b
6051
79fc
79f9
a058
a052
c6a4
c6a8
c6aa
cd9a
cd93
c89c
c89b
c89d
c1ca
cdcd
cdc2
d3f8
91bb
e620
f6a4
f6ad
1114
235d
73f3
73f9
86c6
86c2
86c0
86c1
9022
902f
adcd
adce
a959
c182
c183
c187
c18f
d3b7
11fd
11f0
3d27
318e
3187
3181
3185
59a0
59a5
518a
5187
715c
715b
7152
7151
706b
77cd
77ca
77ce
7f21
7f29
b158
b150
b155
ce52
ce57
d6a3
d4ba
d4b3
f39b
161e
1610
16f1
16ff
6df8
9da8
bf5e
c9f9
c9ff
d1ba
d1b3
d1bf
e018
eea0
26cd
680b
680e
62a8
76a9
76af
732c
71f4
71f1
8ea0
a3fd
a41d
a417
b1ce
b0cc
b0cd
0ef3
5951
676d
6762
790b
7907
9fa0
aefb
aefe
aef7
aef9
b37a
b370
d3ad
d8d3
d8d7
d4cc
d4c6
d356
e3e3
e3e1
f3ec
f3eb
f3e6
f2a8
f2ae
1d92
1d9e
1d93
23b4
3068
3066
306d
6bc5
89c2
9321
a1c5
baf9
b47a
b472
f2d8
f2d2
f2d7
f69f
0b61
075e
6696
669e
6f82
6f85
73bc
73b0
9910
9a46
9a47
93a1
a786
a78e
a781
bd14
bd86
ceaf
e3bc
e3b6
e3bd
e3be
e6f8
e6f9
6bbb
6654
6656
8f82
8f83
8f8f
93b8
93b6
9760
eb84
eb88
0718
0710
1155
1ceb
1ce6
268c
2686
268e
29f1
29ff
878b
8781
878f
9f54
9f5a
b06e
b06f
c71e
de7d
d329
e89c
e898
e89e
e3a2
e3a1
fbcb
f626
f62a
f62e
f62f
1086
9ead
9ea3
9ea7
a0ce
a9c6
a9c9
b3f4
b02c
b026
d01c
d01d
d2d3
dda3
e1bc
e95e
e955
f37a
f373
0764
076b
0766
076e
0767
7783
8afd
9e26
a89a
e253
edfd
edf1
21cc
6f5a
89f3
89f1
89ff
caf4
cafc
caf9
ffa1
6b5e
6b53
7378
737a
7370
9bc4
a6a4
a6a0
cf8a
cf81
d155
deca
decf
e325
f958
f950
f959
0954
0951
1e98
1e92
5af9
8a47
8a49
b711
cfa2
e751
e755
f152
f15f
f44a
f44e
f35d
f35f
fce3
f618
f754
f752
034a
0349
0ec0
23e4
23e8
23ee
98d6
9d6e
a69c
a696
bf20
b9c1
c684
ef84
ef83
f3f4
f3f9
f76c
f760
faf3
f8d6
f8d0
f718
f717
16a7
16a5
2918
2910
2ba6
2ba7
6e7a
6e75
72f4
92f4
92fc
dba8
e3c2
e3c5
1dfd
728c
7288
71cc
a01e
ace8
ace3
e0cc
e0c2
7182
7185
ad18
ad1e
b69d
f9a2
f9fe
12d0
1a41
8ffd
934d
934e
b686
b687
ce9d
ce92
db62
db63
ed14
2a4c
2a4a
5b82
87cd
87c7
9ef0
9ef9
a2f1
c8ca
d3c2
d3c9
d6c1
fba2
fba5
ff88
ff8a
ff8f
11ca
11c9
178f
23c6
73c9
a76c
a68f
a2ae
bd96
b89c
b899
dbc8
de9b
de92
e91c
e91e
e915
e396
e395
e358
fb63
fb65
09ae
6d64
6d66
6d6e
6d63
6d61
6d6f
adf6
adfe
ba46
c752
f911
234e
e6cc
e6cb
9d9a
9ec3
9d12
9d10
9751
ab8a
d9f4
ea43
ebcf
fdfe
1d8b
ae9d
ae9f
a185
a18f
d6f8
d6fb
1760
176f
13ce
13c0
13c1
a713
b755
0ead
5918
96a8
97c9
a3ac
a3a8
afc2
afcf
d186
d18e
ee4c
e2aa
fdc6
fd19
9dce
9df0
b80f
e372
e370
e61d
eefd
e9ff
fecd
feca
0e4e
1d10
2618
6624
c696
d114
d9c0
e8d3
e9c5
fef4
fef6
f9c1
0917
29cc
29c9
2187
2185
66c2
7118
7116
ab6c
ab63
ab65
ad84
ad8a
aba9
c9c3
d1c5
d0cc
d0c3
dd8e
0782
078e
10ae
2788
ab51
a6c0
b3a3
cd14
cd1e
db84
db86
d7c6
efa8
efa7
1da5
67c6
67cd
ae4c
ae43
bd6b
1182
c808
c80d
de4d
de4a
de4e
ddc2
ddfc
df83
f6cb
f6c0
61c2
61c1
61c5
618a
6182
618f
9782
e18b
f804
606d
fa4b
fa46
fa4a
a06f
c7cb
c7cd
c7c0
c7c7
e7cd
f3a8
f3a6
f3ad
6e4c
a0aa
a111
be4e
be4f
e1fc
9804
b116
f782
6fc0
6fc1
cff0
fe4d
0e9c
09f4
09fc
09f7
dd6c
0fc6
d785
fe98
fe9a
07c5
6efc
f349
6ffb
efc2
efc0
2118
6e92
99c6
99c0
da4e
0b52
0729
0e20
074d
072b
036d
0e22
031e
0723
07dd
036b
0984
0796
079e
092e
0361
0e07
096d
094a
090a
0f24
07a7
0b43
0983
0797
17f4
111a
140b
1307
1c4f
1ec2
1e10
1e2a
109d
1c8a
1c8f
1e0e
11ae
10f0
1243
120d
130d
1c8b
1e1e
1381
122f
1d4e
172e
10ff
1e16
1ddd
10bd
1e6b
1c86
1796
1143
1630
1f2e
166e
190f
1609
1e82
2c88
290c
2348
2e71
2ea2
2c8e
23de
2006
2384
2096
2633
20fb
2036
20fe
200e
2273
2383
27aa
209f
2c83
2ebe
20ff
2005
2673
292e
203d
2143
2926
2311
2e07
26be
2943
29b3
29bd
2e83
31c6
3123
3064
3333
340f
3643
3246
300f
322f
33d0
330f
37f6
3226
3005
3039
3037
30be
3630
366d
309b
36b7
37fb
37fd
366f
4221
4307
4e0e
4e67
400a
4223
4d07
4226
4d4d
4db3
4e6b
4e19
41a5
4367
4e6f
41a3
4db9
4d73
4107
4609
5344
5633
50f6
5126
51a1
5db0
52cb
5127
592e
5143
52bf
560b
566d
594f
51a9
52cd
52c5
594d
5985
5609
51ab
56bf
6224
6008
6e88
6c81
6e2a
6d24
6eee
6643
67f8
6e11
60b4
6d0e
60fe
6386
66b0
660d
61ad
60f6
6c8b
6727
6ff7
60bd
631d
6316
6db2
62c6
6361
6143
60be
62bf
6e6f
67bd
6dbf
61a6
6d0f
6db7
6e84
67fd
6e85
666f
6f20
6f24
6d29
616d
66bf
6fb1
6fbf
7123
70fc
72b9
7184
7ea2
7914
712b
711f
722e
7e1a
7ded
7124
720d
7129
7383
72cc
709f
7ebe
7312
7946
77b2
7db0
72b2
7005
7984
7ee3
7227
70b1
7d43
7361
73d4
7e0d
7926
72bf
77bd
7dbf
7707
7dbd
70bf
709b
[...]
