[PAD]
[SEP]
[CLS]
[UNK]
[MASK]
0
1
2
3
4
5
6
7
8
9
a
b
c
d
e
f
##5
##3
##c
##1
##e
##4
##0
##8
##7
##9
##d
##2
##f
##6
##a
##b
##00
000
0000
00
02
##01
##02
01
##60
##aa
03
##32
##03
##40
##80
0201
06
05
##17
##f4
##dd
001
08
##30
dd
##22
232
2323
020
0100
0002
##4f
##06
0300
17
##8e
##0d
##2f
0200
##70
##b9
##86
##0f
04
040
49
##db
##05
df
100
0800
0102
aa
##6c
0208
##31
86
##78
##b8
##73
##0df
2f4
70df
df2f
4917
2f49
1760
0010
aaa
00aa
1003
aa03
aaaa
##0f8
f8e
f5
db9
60f8
31
240
73
0086
86dd
600
##6e
dd60
##57
94
##85
0b
2405
##224
##23
##806
0a
##21
160
0016
6e
0502
0380
7806
0578
##3a
f4f
0400
00f4
7370
f5db
f4f5
dd73
db94
94dd
0031
0632
1604
3224
##cf
31b8
##2b
##a6
c2
0101
b8
301
21
##93
7e
2b
85
cf
##81
4f
0408
e9
##302
060
##172
0004
##221
0601
2b06
23a
0204
6e21
086e
7221
2123
2172
c200
e57
##6c2
##04
85a6
e57e
a6c2
f8e5
7e85
##11
302
040b
0bcf
##08
0030
##45
##018
9302
e94f
f8e9
4f03
0393
18
6c
2e
##52
##76
0202
##46
1f
11
80
52
81
##47
99
2f
##7a
0001
##50
0e
300
##16
##24
080
69
##3e
##2e
##a4
##74
0f
0500
##7b
##65
##c2
080a
0108
##1f
##26
##8a
##19
19
##c6
23a2
23a1
6000
##600
1e
##d5
##34
##ba
##ce
65
8018
##20
3e
2d
6006
##c4
##cd
##75
45
0652
6c05
526c
##f5
##c9
##35
060b
0b2b
a11
##0a
##c5
##7e
7a
##36
##d6
0303
34
##be
##d9
060a
00db
##800
0a2b
db99
9905
##79
##39
##68
6f
##c1
##ca
00e
##df
##de
##b5
##000
38
##d1
##72
39
##7f
1801
##64
0106
8a
##d8
##bf
##09
##3f
5018
##c8
##71
303
##da
d9
##c00
##28
##4e
b9
##cc
##38
ba
d5
##69
15
##2a
##400
3a
##49
09
35
##29
3011
##41
##25
##48
1703
##6a
2e02
##cb
##300
300f
302e
1f02
0f06
3010
##030
##4b
1130
25
##700
5e
##b00
##0e
##33
4e
41
##77
##4a
##d00
##bb
##88
16
1a
##200
##3c
##61
##6f
##002
75
##2d
0a00
##3b
##ff
8e
79
ce
##6d
##15
##67
0103
78
de
3f
be
##3d
a4
59
2a
##c0
c5
b5
29
e5
##7d
74
a1
c9
72
a22
##b1
36
##89
ff
5f
##bd
##54
011f
##82
1f01
a11f
ae
a9
1800
0c
##8f
##c7
fa
89
ee
0e06
##1e
4a
0008
1e02
2d02
##230
##b0
5a
bf
##b4
fe
302d
300e
1030
ef
##c3
##d0
a11e
a5
7f
9e
ca
88
cfe
##d4
6a
fb
01f5
55
26
28
##1a
0d
f9
da
9a
##b6
8f
95
302f
746
##27
24
##18
c4
6d
ea
##37
9f
4b
##100
af
8b
37
181
c6
##dc
76
1b
##63
##8b
3d
476
##14
##010
4500
##805
##2c
d6
0040
0045
657
82
##8d
14
6800
4d
61
##44
0ac2
8d
600e
4769
##bc
##d3
##7c
64
27
1600
616
3c
48
7b
1d
009
0e3e
3eba
ba05
77
##d2
0281
2404
54
##10
##5e
##b7
5b
d4
545
0468
6572
##9c
ec
##d7
1818
47
68
##66
50
0406
##b3
6b
##b88
4002
##53
##1d
##43
##865
c1
46
##b2
3b
e1
##07
##e7
6004
##e3
##94
bd
600a
304
##269
##8ec
bb
047b
676
7b88
8805
##574
db
a6
cc
ed
53
e4
cd
e8
##f6
51
805
##fa
07
5c
9c
91
eb
9b
66
80f
3016
140
22
32
##42
d505
0a8a
cb
f1
8ad5
4000
##1b
546
##58
##56
##4d
##5c
3302
d8
##4c
d1
5d
##a0
44
7a4
3017
c8
a8
56
71
0381
6865
0681
ab
20
b4
##99
ad
##854
##87
##13
##83
0082
7d
58
30
f6
##5f
b1
060c
42
##a9
3012
ac
2f02
6162
a2
6967
4c
806
e7
0c2b
##f2
dc
2f30
2002
1006
##ad
##9b
##8c
##84
e6
18ec
##fb
##ac
##ae
0181
2c
802
1c
##1c
98
##98
43
1230
##fc
33
e3
##62
6974
##a8
##a1
##90
##ec
##91
##9d
3014
##12
##850
##9e
b8e
##eb
##9a
800
63
##a7
7468
##95
801
##ef
a23
##ed
b6
##5d
##92
##97
##55
##6b
7c
6269
##e4
##96
9d
80d
84
a21
804
##f0
3033
##51
2402
4574
##9f
##a5
6761
8c
7445
1406
##5a
##a3
##e8
##f1
bc
f8
##59
1400
##c62
0104
fd
96
3402
##e5
8a00
fc
1630
b86
##f8
600c
5465
##e0
67
b85
##e9
##0c
0014
##4fb
##fd
##ab
##fe
##af
803
##02f
13
##ee
##a2
##5b
##f9
62
0678
d3
c7
##705
##e1
b2
f4
00c6
##ea
##e2
3602
180
a21f
12
2e70
a7
6224
##f7
0c62
57
a224
##f3
8250
7824
c4b9
50c4
b7
##e6
b9a4
a42e
7600
d7
0022
d0
e2
811
0634
fb70
23
54fb
7a54
887a
c686
8688
6007
87
70
40
5010
a3
002e
f2
f7
200
##08b
1000
003c
##170
60
726e
##0b
##17a
83
d2
656e
b3
3015
00b8
##450
3a24
402
7665
058a
8010
04d6
1001
0077
97
113a
d611
c3
3e16
5450
808
7a49
0076
93
2502
92
7a47
4854
481
204
205
3230
b80
7706
4105
5454
3034
3018
3026
001a
636
3020
f3
3424
1919
502f
1730
1506
1619
1916
##306
693
e0
8bb9
608b
18c2
b941
00dd
##050
2702
706
##57a
312e
2f31
0034
322
3019
3036
c0
10
014b
1930
0046
##606
1603
726
1706
4f4
a227
4705
0301
a225
0020
a120
f0
b0
00e4
0d0a
0240
073
0648
008b
a0
6aa
7276
2e00
a220
6570
481b
206
0c00
90
082d
696c
0565
195e
1ba4
3c19
5e47
00e5
ece
##cd9
1804
1b00
##00c
0170
00e0
5365
6e74
0415
1aa
006a
1139
e7e
0a81
1547
1905
066c
646
3030
400
##a69
ec9
07b
2006
305
##605
##cd4
6008
03b5
6c03
5420
3502
b800
0847
332
6f72
816d
7465
##305
46e
301a
202
6f6e
00e6
bbe
6564
3924
2d19
00de
636f
6e47
6e65
2f00
8000
3702
0078
4502
##304
00e2
3024
2802
00e3
00e1
##23a
1806
0017
##354
389c
c230
4302
1900
00df
7a45
##0d9
6c02
0738
4600
2500
9c05
2600
4300
0ae7
e35
2406
00dc
3200
##704
##da2
1a30
323
7a40
d8f
007a
c23
9000
1500
617
##40d
2630
0854
3037
01f6
##d6f
a228
747
00ff
##033
600b
0d00
5170
0d1
0a53
732
00e8
a234
0035
381
2054
3025
##c59
6a69
e05
3043
ecef
04d8
3500
0407
02cc
ccd4
d470
a300
3051
##3e3
eff
8d1
0032
226
##804
475
2602
2e31
1100
2300
2e63
2000
2e30
d806
0a8d
2200
0900
2830
46ec
3032
2606
a200
3045
##405
ef32
00e7
3028
##017
0418
3a20
face
e3e
a236
393
1854
2800
386
7461
7a48
0414
2d00
0426
0028
##604
a411
b56a
56e
bbec
1700
352
2100
11bb
3f07
a43f
0416
102
1601
075
cc00
06a4
104
9be
a09
##c41
6aa6
##64c
2c00
38e
385
5204
6532
2661
402e
3035
0bd0
d0cc
12f
0105
0600
##311
1830
ff00
776
1606
6420
c800
081b
07a
1d00
8b9
c1f
3000
2032
2a00
6936
3023
5200
1a00
a06
07b2
3700
362f
5e00
6935
3c00
9600
322f
7b00
cfc4
a226
38a
c272
6f00
8100
352f
3ce
##28f
0092
0005
b252
6070
c000
1c00
0328
0164
c20d
b000
ec00
e0e
6f6d
547
0003
3013
756e
a100
0033
a900
3600
e31
0f00
d91d
a201
373
2880
0da2
2048
044b
f7e
37e
d000
cfd4
0aa
40f
7800
##404
1e00
511
1018
6f5
0b00
cfc0
4202
cfca
2f32
632
cfda
cfd2
692f
cfc8
9500
3800
cfd9
135
cfce
cfc9
cfcb
ca00
cfcf
cfd5
cfcc
cfe3
cfe1
cfe8
cfc1
cfdf
cfde
cfc7
cfc3
cfdc
fe00
cfdb
cfbd
cfd3
1f00
cfe0
8f00
##01c
cfcd
cfd1
cfbf
cfbc
cfe7
cfc2
cfc5
cfd6
cfe5
cfe6
cfc6
cfd0
2900
cfe2
dcf
0023
cfd7
cfbe
cfd8
cfe4
6d00
8500
5a00
b300
e100
1300
3300
d600
##df0
379
004a
3100
cfdd
##c20
7a00
4100
9f00
3f00
2400
d800
##cd1
c900
41f
436
9d00
2f33
5400
6400
7000
e700
8600
5100
6d1
8b00
37f
e600
2a03
37b
7c00
ceb0
7f00
ea00
6d6
f600
##b5e
0088
b600
cb00
e000
4e45
6a00
1401
1200
409
a800
b00c
6002
6c00
de00
4400
cd00
5000
d100
0700
2700
f4e
##4f2
7900
be00
9700
ac00
f900
020a
f53e
9400
##288
4354
8800
##741
4f4e
079
376
7700
f500
a000
6900
9a00
375
6700
c300
d200
efff
814d
4e00
e500
37a
5c00
8d00
b900
7100
8c00
7e00
##c1e
e400
ee00
4b00
5800
f800
5d00
f22
ab00
0a7b
4a00
3d00
9800
d400
e300
4f00
4e4e
434f
493c
##c29
3400
##283
8900
af00
8700
dc00
e200
f100
0056
ce00
504
5300
3900
700
a700
3202
1808
8200
2b00
6200
a600
6e00
3a00
8e00
101
3e00
13e
4200
716
83a
7d00
ae00
cc04
5600
bd00
e36
f000
f200
4750
9300
c700
fc00
##082
ad00
d700
##4fa
2fd5
0e00
2530
4700
717
b100
f700
ba00
4c00
9100
0302
7374
a42f
465
703
b400
##c5a
bc00
d300
cf00
9900
1901
4800
6600
378
6b00
00d6
f400
df00
3433
7261
aa00
8e02
3330
7269
b200
e800
##4a2
c500
3dd
0ae3
380
4d00
8300
5500
5b00
6300
7400
9b00
f300
##a4b
6e61
3434
dd00
3120
7300
9e00
baa
0401
d900
b500
723a
a400
8400
##748
2306
##0d8
d500
db00
3042
500
bb00
eb00
00a4
0064
5900
fa00
da00
003d
3b00
c100
2f34
c600
8efa
a500
7200
4900
bf00
8975
b030
fb00
##641
5f00
a233
201
c21
00c1
##30d
c274
726f
6172
821
6500
ec99
822
4554
ef00
4745
c23e
ed00
406
b700
3002
##382
7500
7469
9c00
##690
704
5700
6100
e900
7419
##714
90e
9200
fd00
##b81
304d
##cd8
0090
6109
404
##85f
##8a5
##c94
c400
696f
6170
d8f7
003f
656d
##743
e05b
23e3
36e
0610
3de
505
0025
##8a3
3320
22e
##b6b
##d8d
5f94
5b0a
80f2
1df
414e
003b
0ac5
3c59
3a34
e3e0
3d9
fff
##ca0
5970
dd68
##75f
0018
1a5f
b730
e81
9449
7574
888e
460
2020
922
c22
##71b
489
686
##3bd
##6dc
c930
626
f2a
6d70
706f
##03d
3105
##b54
076
##777
32e
bdd
##406
##85e
0099
564c
722
0109
6174
4c41
010a
0635
3102
6164
8b8
##2b5
347
e11
e89
204d
b09
40a
0042
##ba5
6573
c7a
##c84
22f
0080
6c79
##241
4d0a
4b8
e1f
4402
7ce
7365
249
e4e
417
e00
##65e
##c51
be30
bb30
002a
9bed
##6f2
7069
4d6f
030c
1db
646f
4aa
1799
3220
16e
##709
56e2
229
606
2102
647
d21
8fa0
a09b
652
ed5
c00
a69
##348
ed70
e28f
##70a
##c90
102b
611
e6e
e47
##256
416
c0e
e29
8201
007b
c36
f2f
790d
##68c
546f
b430
2033
0305
6f75
2302
d030
6f76
d91e
731
ddd
d15
##85a
43f
506
##80a
0611
727e
146
3039
4f4b
917
b00
e302
##50a
be0a
3206
204f
6d3a
222
276
##33b
47e
82a
##bfb
4b0d
286
e32
##c48
7b5
1de
486
c4a
1106
##c8d
3081
817
a0f
0038
0013
2f80
39c5
##649
66e
723
##282
ac30
445
757
c52
1503
7765
1d1
##f41
6c69
b539
e49
001d
e39
1403
1e05
##715
##71e
129
f6e
060e
##38c
702
e2b
##ca9
##20a
##c42
4de
a68
0043
##60c
00e9
6f53
221
3db
4be
0069
532
d19
##b4d
4b9
786
##60a
##08d
1043
30f
3df
40e
ecf
##d5c
0de
1cf
306
9b9
b830
##72c
ec3e
645
3aa
705
b6a
000f
##f48
3130
0dd
202f
405
0048
275
d6e
0021
##507
##74a
6531
225
c11
6009
##4b0
132
403
a89
##cd3
401
7aa
e86
e3a
e19
f25
##c07
bde
2f63
##248
##749
##d4c
6d17
70e
##40a
112b
##cd2
##7f0
46c
a49
e01
6e20
##728
3306
d1e
e21
001e
060f
814e
##ca8
##c82
##3d7
2a02
80f0
0abf
d05
149
48e
7b9
781
923
c49
f6c
0044
7368
111
246
52b
709
b04
d57
##0d5
d8e
e48
0409
##71c
##38d
c4e
e8e
f6a
##c89
##713
135c
47b
641
e1a
##3bc
7473
535
0087
##b43
74e
cdd
dbe
##ca3
##ca2
2506
2730
3850
d7e
0417
##a68
##083
1817
##c49
3546
317
432
96e
342a
##64a
c2f
##648
3935
1d9
cdb
dce
e79
01b8
##30a
##610
14e
247
446
78e
6e6e
1dd
186
439
##78d
312f
##343
64e
e2e
e2a
007c
##c9b
##71a
##383
2001
117
3d5
cde
d6c
02a9
##c67
ba80
##7d2
1306
602
c02
c19
##caf
##727
bce
d09
f69
f29
f01c
0037
##603
0405
##67c
##d42
cd30
5de
649
701
e02
##725
##7dc
##b14
a930
3b9
bdb
007d
6374
3da
e7a
e69
00a8
0304
3902
##ccc
##cb1
##d43
981
d1f
d39
e2f
e1e
##74b
##cd7
##cac
##c88
##c8b
c530
1b5e
70a
cce
cbe
##4f0
6973
6563
##72a
##88d
##7d4
1330
345
33e
4cf
4ce
832
a15
b0e
caa
d32
0e2b
##c6f
##bae
7a46
##c15
30e
4bf
f0e
##c68
##c9c
##c14
##d8c
0909
a931
22b
4dd
423
51f
9cf
c1e
e6c
##a6d
##bac
##c5e
##d8f
##3d2
566c
8b91
3cf
346
57e
76e
##744
##c58
##710
d908
07f
1be
109
5d9
8002
##4f1
##cc0
5e2f
##77c
##3c7
5db
835
9ce
d81
2b02
3027
##74c
##c8c
##27c
281
52f
5050
add
b49
c3e
00d0
00b6
6005
##74e
##67d
b330
5ce
c32
e45
##0d4
##a6f
##934
##bad
##72d
4102
91b8
511b
84e
daa
d3e
e04
f1e
##24e
##65c
##baf
##c9f
##c5c
##333
bd80
16c
1ce
1da
2aa
28e
502
a3a
004c
0f2b
##c44
##729
##d83
##cb4
##cb2
3d1
411
921
969
fce
##4fd
##cdc
##ca1
##337
0df
3be
82b
9aa
d02
d2e
e16
##70c
##b8d
3044
4026
1d6
217
3f5
309
##084
##742
##c5f
##712
3a02
##cb0
##7d0
679
##ba3
##cdf
##c1d
##6f0
0ce
24e
519
536
a79
a4a
b4a
e06
f19
0427
##088
##c61
##cab
##28d
##7d7
22a
a02
d2f
d04
e3f
f00c
##c56
##68d
##64e
##64b
##384
10a
2b9
b06
c6e
df4
d3a
##cd6
##c1c
##71d
##28b
1530
##77d
##3c0
a235
2ce
3605
f02
fbe
##308
##0db
##736
656c
##c9d
##388
##443
07e
3606
ccf
c09
e15
##708
##c96
##c55
##684
##644
##b42
0b9
3d6
63e
70f
839
c76
d79
##c64
##d55
##c0b
##c7c
a346
2c20
579
7be
83e
a6e
d29
e23
fdb
000a
##089
##c6d
##c6a
##c10
##4b4
##d0c
2022
13a
576
62e
98e
97b
e17
##087
##34d
##d89
##718
436f
106
60e
7db
c3a
e76
e09
0a27
6963
5aa
c2b
d06
d16
d4e
d89
##c27
##c6b
##c43
##cbc
##37c
2065
13f
209
5cf
61e
93e
b230
d0e
0607
##268
##cd0
0908
4104
##d44
239
5b9
7dd
72e
7de
729
8cf
829
929
c16
d49
e03
e25
##242
##d5a
##c1a
##643
26e
586
521
640d
904
979
c31
f21
##c9e
##d4d
203
47f
8ce
a4e
bff
c8e
c7e
e0f
e8f
##249
##74d
##c83
##c87
18e
749
87e
abe
d11
dbf
0135
b8a5
6c61
##243
##cda
##48d
##bbc
##bb0
105
419
479
5be
6db
87f
010d
##80d
##4f3
##0d1
##c4e
##c4d
##ca7
##d84
009a
1b9
1bf
4df
4b5
5dd
7f4
87b
905
b7e
c6c
e7f
ddb1
##ca5
##d82
##489
##33c
0d9
43a
82f
ada
b39
faa
f3e
##4f7
##0d3
0402
##783
##ba7
##c13
##642
##389
##cbb
0c50
3d02
10e
30a
66a
8be
adf
bcf
d31
e0a
0815
##30e
##a6b
##24a
##889
67e
719
82e
879
92e
bd9
cb9
cd9
d2b
##0d0
##b8c
##735
##737
##bd3
07f4
26c
515
68e
eb9
f32
0a0d
##c12
##d87
##bb1
##3b4
27a
331
4d9
56c
581
5850
605
6d9
63f
8de
93a
a81
a3e
bb9
c69
d01
d45
d1a
e46
fb9
##407
##4f8
##a63
##08c
##c4a
##c95
##cbd
##3d3
1813
41ff
589
622
66c
71e
9dd
939
989
c81
e6a
005c
##309
##935
##c2a
##34e
##344
##c99
##c92
##3b6
ad30
d3ba
121
231
422
43e
449
58e
51e
745
77a
909
a7b
edb
f2e
##781
##936
##c63
##3b2
##6d7
7265
c630
0db
27b
a86
b31
c46
0057
##0d6
##738
##689
##68b
6f18
##48b
##bb6
##3d4
ffd3
2070
4751
f4ea
122
619
639
609
83f
92f
b2e
cdf
##307
##70f
##509
##8a9
b930
##387
##bd4
##b07
##d07
1447
2cf
4db
44e
63a
9df0
c79
c39
0117
##0d2
##b8f
696e
##c2d
4543
##c8f
##289
##bb3
##b1a
a871
3ff
ab9
a6c
d3f
d6a
##60d
##08f
##a42
##cde
##c54
##c5d
##cae
##cc7
##38f
##33d
##6f6
##bd2
54e
a32
a7a
ace
d7a
e41
f0f
##4f6
##0d7
6e67
1870
##d59
##c98
##687
##2d0
1812
4009
10f
289
42e
429
50f
7cf
7d9
846
a04
a2e
ade
b21
b3a
00ae
##60b
0308
##4fc
##4ff
##24c
##4b1
##6d2
6d65
6574
2202
504c
223
421
53a
681
711
715
9db
a00
adb
e7b
f06
f7a
ff5
f79
ddb0
##0dc
##209
##c91
##688
##cad
2db
3f4
435
53e
845
8283
c1a
d2a
f81
00f1
##788
0ab4
##68f
d909
##3b0
##bdc
716f
33f
4c29
53f
6cf
911
acf
b4e
fde
600f
c27e
##244
##ba0
6567
##c53
##cc3
##4b3
##6d4
329
8aa
87a
8030
906
a2f
f05
0074
##787
##a65
##a6a
##34a
##c18
##cb3
##614
##6f7
226f
849
902
919
a7e
d00
e22
fcf
##a62
##93b
7eeb
2b05
##50c
##65a
##34c
##bab
##bb4
##6d3
##3dc
##b44
0747
83a8
12e
27f
32f
b32
c86
c04
0058
0116
##782
##c25
1e13
##c5b
##284
##bbd
339
485
96c
97e
c7b
d7b
d850
f04
##30b
##784
##b89
6e70
##a67
##a4a
##c69
##ba1
##cb7
##b4c
626c
147
77e
7bf
c06
c0f
d69
fdd
f3a
##b84
##a48
##65d
##3d0
4246
61f
889
d22
f7b
##30c
##70b
##785
##d5b
##487
##61a
3670
779
931
a05
ad9
a2a
b6e
b11
b1f
cda
f11
0041
##0de
##707
##349
##c4c
3031
##4b7
##4bb
##6fc
##6fa
##3b1
##b1c
0754
1a4b
27e
46a
50e
6b9
623
6de
86c
b0f
b1e
d17
0822
##73d
##c66
##d51
ee36
279
8dd
8bf
903
eaa
0047
##607
##4f5
##78a
##78b
##b87
##933
##d54
##ba8
##ba9
##38b
##4bd
##3b7
##7d3
d430
12b
245
23e
335
539
88e
a29
ac1e
b22
f49
041a
3137
##93c
##08a
##a43
##8a0
##341
##34b
##48c
##615
##b1e
##b18
6aac
20a
20e
3082
621
635
6be
6bf
76c
886
900
932
92b
b6c
c45
d75
f1f
f39
00da
600d
0a30
##c9a
##c1b
##287
##4b2
##c0c
29bd
42f
503
557
6dd
97a
cbf
c89
f86
fbf
0084
##80b
##789
##b83
##a4d
##c28
##8a1
##d88
##251
##b0c
eb01
3ced
321
47a
4d6
575
9ff
a3f
b7b
b79
d7f
0205
1754
##d5f
##b10
##b1d
14a
2dd
769
74a
831
8f5
c6a
7e01
2e67
##a4e
##8a8
##d5e
##d58
##b63
0cf
145
139
12a
336
522
629
71f
7f5
bdf
##0da
##d8b
##488
257
447
9f4
a6a
b1a
d47
ede
f2b
f010
##70e
##73c
##a64
##a49
##c2c
##2d3
##2d4
3624
0096
ec9a
13ee
9de
d46
e4a
fd9
0007
##30f
301c
##2dc
6b69
f7e1
57a
669
68f
8db
b05
d230
ed9
##4fe
##73e
##a61
##8ac
##bb2
##bbb
2620
ea04
616e
604
72f
876
9d9
c05
c15
d03
0006
0075
##734
##73a
##659
##c97
##28c
6108
616d
58f
bf4
c0a
edd
f1a
##408
310d
##93d
##20c
##484
##2d2
##b13
##c37
cc30
e7e3
20f
44a
615
7ff
a17
c17
ef5
ebe
##608
##938
##654
##c4b
ae30
2056
169
269
523
6f4
8ff
976
d76
000e
##60f
##80c
##733
##939
##20e
##cb6
549
60f
67a
60a
8f4
8450
9f5
91e
c030
d23
e75
##78f
6e72
##a66
c240
##658
##8ad
##8af
##64d
2043
4da
64a
77b
a221
b02
c75
d0f
f00
ff4
f09
f89
008a
##60e
##93e
##6fb
##d0b
42b
516
57b
62f
72a
a0e
d86
d36
f288
00c0
##809
##4f9
##856
8130
##a41
##618
##b1b
##18d
775
91f
96a
a16
c03
f45
##b82
0ae4
##50b
##20b
##4bc
##bb7
##6d0
4875
2073
7479
16a
32a
469
92a
b03
00a1
##807
301b
8126
##651
##483
7a44
517
721
a46
aff
b19
c7f
0029
##609
##40c
##40e
##24d
##683
##ccb
##4b6
##6f1
##b12
3730
431
62a
901
91a
a0a
b7a
c01
f01
##78c
##85c
##937
##d5d
##41a
4e0a
fbbe
2873
##444
b630
4659
48f
a03
c57
f0a
00f2
6c75
##24b
##8ab
##b62
457
7df
a39
a8f
b2f
bda
b887
##342
##207
##61e
7530
##b66
b851
252
64a2
72b
8da
986
98f
b46
db5
0053
06ba
6e69
b802
6ffb
d970
##61b
4d01
c1ca
352a
0f4
c8f
f15
0505
4970
8158
##656
##682
##2d7
##b0b
c430
732f
1f4
509
689
752
88f
90f
935
93f
af5
b3e
c3f
d0a
ed1
f46
0107
06a7
##739
##883
##88c
1a06
##bd7
cad9
42a
501
67b
a52
ebf
fd6
##808
1802
##653
##ba2
6561
ba30
676d
4025
131
136
2030
a1f
a7f
f31
##73b
##859
0605
2f6c
##3b3
##bd0
2c02
23f
601
6b6b
a2b
b76
b3f
cd1
d52
810a
##a4c
##8a7
##613
80f1
c780
5d1
569
58a5
b2a
e52
f23
00cf
00c2
1136
##c26
##25b
##6f8
##6fd
bf30
af30
28f
36a
631
875
ad6
b01
bbf
eda
f3f
0636
6001
##85b
3022
##a44
092b
7470
8050
1c30
5477
40f2
531
a57
a19
b17
b850
f47
0059
##409
##853
3021
##8ae
3536
##887
##61c
0097
bd30
26a
4d1
51a
8d9
0083
##50e
0e6a
##6fe
b56e
5a04
5f5
84a
9df
a45
a76
cf4
0050
01c4
7349
##855
0a07
##882
5958
6745
5bf
a8e
c47
c35
ef4
edf
##b8b
b8d9
3430
62b
71a
a85e
0a3a
2f6e
##88b
##3c3
a5b5
6a1e
24a
8df
90a
b2b
bf5
b29
06ae
c27c
##93f
5ef2
##61d
3d06
8055
800a
36c
50a
57f
56a
685f
af4
f35
696b
##655
##8a2
##6ff
f228
3bf
675f
9d6
b15
##80e
06ad
##b85
##b8a
5f73
009f
8009
4003
103
b69
c4fa
d35
f7f
00a5
005b
##40b
##858
8080
4e2d
##6f3
5c6e
369
b0a
006c
##259
##612
936
a31
002c
7373
##851
6965
3830
##827
8801
732e
152
32b
5f4
675
67f
881
abf
b47
80c9
5f0e
##8b3
0da
236
33a
9da
a382
b6f2
ed6
fda
004e
3802
##482
##48f
b530
12fe
9850
d4a
9470
8102
##d56
##6f9
a104
8c50
7da
a35
##40f
0603
##65f
##b56
7f7e
4b70
4d03
8017
dcf8
603
915
a230
6906
##82c
1d30
8058
e360
a068
baa1
8220
f2a0
452
823
d6dc
0062
0203
3136
b8a7
8150
0805
7f7f
##14d
1304
61a
ad1
b35
cd6
f8a3
0079
00fc
##65b
4b7a
804d
6da
b57
b75
e641
00bc
005a
##85d
##852
b880
81e3
##25a
##884
c130
332f
5df
5da
847
836
b45
fdf
002f
804f
8079
a22a
8046
12f5
123
76a
e26
f03
##d53
##41b
##88f
80d9
8082
1010
9bf
b52
b7f
80cb
091c
3232
8067
2806
357
5ff
a36
f17
807f
805b
cb30
80da
1c5a
a01
bd6
0024
0403
0492
0a8e
##b5d
3f02
36e6
0d6
223a
77f
a75
bd1
01ec
##73f
b817
b818
##b58
1a04
a530
80d3
552
f16
00d8
0819
815d
##b59
d922
##888
0d80
8059
80fb
0d1e
857
00d9
0068
00ca
00b0
008c
301e
342f
##414
255c
805a
c830
806e
4241
a47
b23
0a1d
b879
8096
7270
1d02
8019
916
0081
2d30
##184
805d
80f7
7d1
97f
b16
0365
##80f
b849
6c65
7669
1b06
##14c
a830
b85f
c730
157
f76
8060
##415
805f
8061
9226
f8f
002b
00a9
b881
80aa
##b51
##413
##418
756c
##187
1d70
80f9
80dc
80d0
9d1
acd9
0039
082f
b8ff
b8b2
##253
8057
b868
##412
##8d7
8053
8047
4096
3406
5c94
0073
b8d8
b8bf
b8a2
8073
##b55
##41d
##18b
1430
##44d
5130
a281
802a
804a
3450
54a
f4a
0052
b8b9
b816
b8c7
2f2f
##143
acbe
a231
8068
8062
8014
206e
7474
0d1d
fd1
00b5
0370
0602
b836
b8f6
809c
##b5a
##b5b
303a
7502
8e0a
a124
3d0a
3040
2011
5d6
6df
975
b36
f540
b89d
6c6c
8074
80c1
3e02
e702
8031
2330
a06c
926
d26
082a
b886
b841
80c2
80a0
3a2f
##410
2625
##8bc
bd72
ab02
800d
8016
b86d
8035
3526
4690
001f
6e75
b83a
b826
b875
b87f
b827
b88b
b8f2
8040
8078
8081
80e7
ce8e
0d70
8063
8006
80d8
326
000b
00bb
0410
b831
2106
4532
d924
##41c
a630
8011
6d61
126
00fe
001b
b870
b8cf
b8be
b810
b8b3
80ed
6f6f
##41e
##25f
a430
a22b
2430
##18c
d602
8007
8015
804b
426
4170
0085
3164
b801
b878
b87b
b8d5
b8de
b8c0
b81d
6cc3
80ef
a125
7278
##8b7
80f5
b8e5
00f9
0404
b832
b846
060d
8076
8075
807e
807c
d926
##25e
792e
ef07
1402
5c50
b8e7
8005
fc50
b852
d330
c361
340d
80df
b450
d3bd
f75
0093
1781
3139
b8a6
b81e
1e70
d91c
##254
3f31
2902
aebb
616c
6880
80fd
808c
b80e
07ac
005e
005d
c273
b8d3
80cc
8094
80ea
6f73
##8d3
22c7
802d
b8ea
8013
8037
f702
5ca0
a030
b8da
b82d
b89c
b8a8
b891
b89a
b897
0609
808e
3426
##255
7b30
8069
903d
b805
00ac
b8f4
b8db
b823
b8c1
b828
b8d7
b899
4fd3
80c7
80b4
80ee
##b53
##b5c
4a30
fb4b
##666
##66b
bb4f
80f6
ab30
8064
800c
801b
8048
b853
b859
b808
5cd1
b865
0011
1002
b8ba
6c30
2e74
80c8
d928
d530
##8d2
8056
8066
804e
1206
808a
0d1a
c1f6
80f8
957
c850
0070
b885
b821
80c6
80bf
80eb
809f
7a30
d920
3724
3b02
b8ef
b855
4753
003e
0072
b874
b8f5
b8d6
b84b
b83d
b88d
80f4
80b9
80c5
807d
0d2b
8d26
8065
802f
b8e8
8001
b86c
b85b
8038
8087
b807
2068
652e
611d
235
826
00a3
0656
b8a4
b8ce
b8d1
b82c
b84c
b8a1
b8f3
8085
0809
6163
5b02
8029
801a
8039
5780
e31d
f36
010f
b825
b848
b877
b888
b83b
b81b
b890
80a6
807b
80e8
190a
00ee
8d21
009b
5d02
800b
801c
b856
8034
a730
3805
0a41
b822
b87a
b824
b81f
b88a
b87d
b896
807a
80a4
8098
8125
1e06
0d50
##144
800f
8049
b869
8084
8d13
6322
1805
2311
4605
a26
b806
b819
b820
b87e
b8d4
b8b7
b895
b8fe
8086
8097
80e5
##25d
4a5c
805c
80f3
f150
b8e4
b8e0
3050
7d6
8d6
b8dd
b88e
b847
b8c6
b8c9
b835
b8ca
b83f
b884
b8fb
80cd
80e6
813f
##25c
8027
b8ee
8004
80d7
6d69
e850
00b7
00ad
00a2
733f
b873
b82b
b8c2
b8b5
b815
b883
b8ac
8093
80b2
80e0
##b5f
8e63
5f3e
806a
e7d9
802c
8028
f280
00ba
0019
b840
b857
b811
b82e
b8cb
b843
b8a0
b812
80ca
809e
a223
3626
##8b2
80fc
d130
b8ed
80d4
808f
00cc
017a
b834
b8c5
b872
b829
b8b1
b8b6
b8fa
b89b
b898
b8fc
8070
3e1e
d907
ce30
3f30
8052
8022
b8e3
8008
80db
b866
b858
b26
b8ec
0220
0618
499c
94ce
b8b8
b83e
b8bb
b814
b842
b84d
b89e
b8ab
6c2c
4535
e7df
8012
80d6
b864
b867
9702
7310
00d1
00f3
6003
b860
b8aa
b8c8
b838
b8b0
b837
b813
b88c
80dd
80bd
80b6
80ae
80af
00ed
7430
##44c
##442
80fa
b130
b80a
d15f
db54
b84f
b8df
b84e
b833
b8f7
2130
80b5
80ad
8091
4512
7803
6577
b8e1
b8e2
b8e6
800e
801f
80d5
804c
8042
b85a
808b
004f
00c4
00b4
04db
0abd
b8c4
b8cd
b82a
b8dc
b8ad
b81c
23a5
8071
80c3
80e3
80ac
8090
80e9
80e1
2f70
1810
8051
805e
8054
806c
8023
e357
8043
b86f
a70d
b804
b80b
722e
1450
f26
0027
b876
b83c
b844
8099
8117
8153
815f
##258
7274
fb8e
6d76
5b30
8024
801d
b86e
803d
8088
8089
b80c
90e9
5030
003a
00f6
00af
4904
b893
b839
b882
b894
80ba
8077
80a9
80ec
7422
3650
1816
0094
3b06
0702
2206
dc02
8025
8045
b863
b86a
b85e
803f
2450
00f0
b8d0
b8d2
b8a9
1803
80a7
65c1
ce82
806d
9d30
b809
5471
3479
3ba5
000d
0613
0553
b845
b889
b88f
b8fd
cf30
80bb
80b1
8095
2d31
6f30
00ef
d92a
6d02
009d
b8e9
808d
717b
703a
7030
952
00c5
006b
030a
0640
0664
b84a
b8f8
80a8
809d
809a
8141
814c
65e5
ce36
6d2f
7630
4630
6669
b862
b85d
e7e1
e35e
e316
0aa1
6d1b
e89b
74f2
d65e
0009
0015
4981
b8b4
6c2e
8032
80a1
8106
300d
0feb
d5b0
8e70
4766
##662
806f
806b
802e
8044
b86b
b85c
6465
c1f5
f2fa
7850
0060
0036
aa30
0a02
b81a
80cf
8072
6930
6964
8a30
2a06
5a05
2601
##183
4b05
7730
3041
8111
5805
933b
0054
7e04
80b8
3e0a
3991
303d
a594
9e30
##142
##107
b861
8033
180c
8083
f02f
008e
0a04
b803
b8bd
b8bc
b8f0
80b7
80b3
80e2
8156
4518
7873
80fe
801e
7c30
a894
006f
00d3
7369
c279
b82f
b8a3
b8af
0604
809b
3e05
a122
fa3b
8b6c
##10c
6830
f106
a232
3234
b00b
3705
3bfb
b854
f450
0026
0630
1005
0b05
c266
2105
7e30
8148
2d50
5e39
1a02
a22e
9a93
80ff
1405
b8eb
3235
4805
0a05
6e64
6c73
bae0
2ad5
6d81
8021
8020
4330
80d1
8116
e35c
d8fb
5005
3806
3405
500c
c170
00b9
0119
1705
312c
7330
0b65
c270
b8c3
b8f1
813e
8149
7a02
0c02
d630
5480
802b
80d2
82a7
e85a
942f
b8cc
b87c
80ce
80c4
80e4
8104
8155
00eb
1505
2505
2a05
742e
0c17
0c05
a570
3d05
0091
9c30
bc30
7006
c7ab
1017
2705
260c
0055
4905
494c
815c
0804
0902
35fb
25b4
4d30
009c
6b30
5c05
3205
8026
80de
1205
2005
4005
3233
3311
0049
497a
b871
b89f
cf70
80a3
80a2
812b
812c
0f05
4505
8a3e
0981
1a05
7830
0cb8
4d05
3c30
811e
23ba
008d
01fc
490e
1102
80bc
810d
8105
8123
8121
5a8b
6d30
3c05
3b05
d830
8036
b091
1464
4405
5605
9030
940d
0125
0114
b8ae
80be
80a5
6976
0905
0c04
4a05
7f30
4669
803c
803a
803b
811c
6368
1013
2230
3305
5405
671b
8850
00ce
dd02
4950
0a38
1820
80b0
5205
8101
8140
8139
810c
6f70
4e05
3f05
5a30
0d05
009e
666f
8003
7c03
811f
b80d
0756
606c
2805
2305
4443
94f2
b17a
00c8
00d4
00d2
0051
0130
03e8
8131
8157
8147
814b
813b
8127
3005
0ffa
3905
5e05
1a78
7930
5f05
7d30
1c02
0705
1305
3804
6033
000c
007f
00bd
00c7
0a10
b892
6cb8
2e05
1105
8092
8103
8134
812a
813c
812d
8151
9950
0f04
00ea
3505
8930
1b09
cc57
91cf
4c02
dc30
8041
811d
0089
00d7
0178
012c
0306
0355
8109
8133
8154
8107
810b
b902
5905
8d30
4802
cd50
5d05
4205
2c05
1c05
803e
8113
726d
7472
7cee
6472
445e
357a
5305
c002
006e
007e
0012
73b0
1605
2b0a
6c2d
2e6d
1f05
8146
8144
8159
815b
0e05
2d05
7a18
d9ed
1a94
2af2
2905
0d06
9a80
1b05
4860
8115
8110
811a
e7e9
1050
5709
082e
b8f9
8160
8152
8138
8129
815e
2f05
397a
7994
a950
897a
6a03
6447
3231
7130
9830
8c30
1012
1df2
4305
517a
617a
a17a
c450
004b
00b2
004d
00fb
dd7a
4f05
812f
8145
810e
814a
8137
8143
997a
3478
4181
c902
fb02
##10b
5b05
5105
2205
4c05
1202
8118
4004
4256
d57a
0061
100a
6e73
7e14
2eed
5202
814f
810f
813a
8124
8142
5e02
a130
8b30
468a
3204
3331
fc03
d730
8114
8119
b80f
632e
e019
3704
5002
fcd9
f57a
c271
8122
8108
8120
813d
815a
6547
d930
3a05
097a
5f02
fe3e
0095
9630
811b
b048
0066
0802
0b02
0afa
c26a
80ab
8132
8135
8128
6530
b97a
0904
3530
7946
5a02
1d05
eb02
2605
9230
9050
00a6
00cb
0180
012f
0309
1702
f530
8530
8136
0e02
1ecc
00ec
d97a
ffd7
fac1
db80
5802
8112
7072
6173
417a
8230
a282
00d5
0637
0816
80c0
1e04
2d1a
5402
e102
5102
5c02
1048
954
c302
d17a
00a7
00fd
3131
3506
4e30
1602
5902
7230
ca30
8830
5505
6d7a
4b02
7702
e141
8330
8b85
43fc
0748
5705
0063
0150
0823
f8ef
1902
2a30
a106
9130
f102
e730
a330
c330
9330
4c84
6230
e002
0071
002d
006d
0413
4929
c242
812e
d91a
4e02
b550
0c30
6a30
9530
24d8
9f30
142c
4d02
676f
457a
4610
557a
011a
0612
4967
8630
9430
1502
b570
b5b5
2980
9a30
6430
4cb8
6d1a
4045
e1f1
1298
1302
257a
317a
50d8
717a
817a
857a
005f
0556
3138
5e5e
a123
4a02
5502
1b02
8d24
1d7a
ec40
ec30
e476
5602
5702
1aa1
3236
0764
1b81
217a
4804
f17a
00a0
0364
0412
3180
0a87
6f67
9a02
1d04
0098
4602
5150
7450
a302
f850
0213
0676
4902
0b30
6e30
0608
18dc
4e04
797a
295c
a97a
0c11
0d3d
3d7e
3c02
4706
5830
2c04
9730
7175
b57a
d302
e17a
f268
0158
0430
2111
2f2a
297a
ee30
8880
0d7a
ec80
5c40
1aa3
1aa4
6461
5054
626a
4850
4450
92b5
00cd
f502
7e0a
4f02
e902
0950
5530
8f30
6130
4702
bb02
0752
7127
2c71
8430
6730
2050
1aa7
0751
2492
00b1
00ab
001c
089b
85c8
1824
6f02
0d02
4d50
8d22
3c04
6b02
5624
a724
d0c9
1aa5
e366
157a
1354
a850
c57a
e97a
6c50
be02
a480
597a
3632
7f02
6a4f
5504
3d04
8d27
cd02
5c3e
8730
f206
402d
4895
5302
6714
8c90
a450
0067
1704
4f62
2e6e
11f8
9930
0f02
743a
c97a
7202
ffda
8d23
d480
5350
6702
226d
6861
238c
6302
917a
00be
0270
0113
0504
2b04
697a
6966
2504
4a04
e1cd
9b30
6630
ad7a
332e
7016
0704
00bf
0631
057a
e57a
18c8
6c31
2e64
0f01
3470
7569
8e30
5f04
6a02
1814
8d19
5d7a
bc0a
676c
1aa2
1aa6
ffff
417e
d192
3304
554
bcd1
06b7
1004
3135
736c
0e04
5f30
6802
d150
5730
2004
117a
24b0
6050
c17a
00c3
0350
2104
612e
e480
e880
1404
5d30
5d04
7d7a
8c02
0aa0
6413
4304
7b4d
0626
0818
3104
7302
0b04
6e02
1f04
2f72
197a
3e04
3904
3504
5e04
7402
3b04
5c04
7c02
180f
7065
0734
3288
f002
00b3
010c
0530
4f7d
1104
2f04
2f35
6902
2d32
1504
5930
ffd6
f97a
657a
bd7a
cc80
5138
6602
2204
7d70
636e
6773
40c7
3524
9234
2804
4704
4604
7002
757a
9507
0307
2e04
9902
0fac
1904
2d7a
7902
0d04
3d7a
cc02
dc38
2c50
e330
4024
506f
3604
f230
00fa
0140
0617
0658
cfbb
2e61
1f11
1137
0e4f
6f66
3a04
0982
3545
1a80
7802
8d7a
6b65
7102
4c04
3cec
3404
4404
5704
957a
0614
8161
3480
5e30
3f04
c550
8802
f902
8d02
6402
7b02
5b04
a67a
ed7a
d802
5630
9802
e35d
5804
f302
f54c
3132
3133
0a01
0606
2e65
1e30
6502
3930
de02
dea6
6d05
ea80
4b04
3780
48be
3b01
3b30
db02
5101
5104
7d02
1c04
6330
6276
2263
5004
132b
2304
2704
5604
5404
00f5
00c9
00f8
0280
7e02
3004
3006
0f30
2d04
4504
3880
38d9
3631
8f02
7602
8d17
4760
5330
cd7a
4204
fd7a
9602
f402
7070
f202
c237
2604
268c
008f
0149
016a
0352
06ce
0411
df02
8502
080d
2a04
0d21
f930
1b04
4d04
4d7a
8d50
8402
8c80
6202
e0e3
e0e4
3dd6
8214
6684
0570
1764
f55d
3134
7371
5201
69ef
3435
3838
8a02
ba02
d502
ae02
bf17
4d17
7770
ec02
0701
5c08
7152
3338
6372
9d7a
1204
e202
2266
66eb
7c51
a57a
013e
0a66
4f04
52b9
2f36
2f37
303f
d902
2501
2904
a149
5f64
9e02
76bc
5078
bd02
bb80
9102
2c06
3339
bc50
7079
e0e2
a153
6805
e030
0111
0134
aa02
c202
3438
3f06
e502
742d
ff02
a902
ee01
ef05
da02
af02
6102
6150
5180
0780
ad02
f602
e602
6469
3238
1175
5304
6d6f
9002
0118
017c
0666
043d
0a80
cf02
3835
3535
5950
b502
fa02
8950
ef02
8b02
b402
ac50
b202
d780
9380
4f46
400a
723b
1d14
0806
0741
d002
0183
2f38
6f64
3950
3038
ca02
8202
1d80
4730
4752
c102
d102
b150
a202
fc02
30f2
6030
00f7
0169
010b
0641
0814
082c
4580
7505
8902
6d16
9f02
4b7b
1b30
9b02
cb02
a802
4336
7c05
8702
a050
e450
0115
736f
210a
0f0a
3531
ce02
ff80
6a05
9502
4b80
642f
5430
ed02
1c80
fd02
b702
8780
4080
9202
1075
bdde
b6a1
e484
3743
a65c
e050
dfff
6e31
c232
2e34
5e8c
5904
ffd8
facf
bf02
fe02
3d50
4d19
8d25
e402
9c34
9b77
b602
9d02
8c0f
a7c3
8380
d202
6466
fffe
0769
40ae
a694
b002
ecd9
0501
dd43
9980
300c
0f0f
2d63
d550
7550
c502
a102
c602
d402
e802
5c30
9c02
6380
bc02
6361
7005
a27c
b302
018b
0317
8602
2f01
0e43
4516
a402
2a80
ffdb
ee02
da80
6d04
7680
a602
07c0
eb30
6674
ac02
c702
a702
c21b
6405
7033
0065
0123
0110
0330
0616
0663
0653
9402
0a98
6e05
e970
2e50
2d80
4150
16b6
e550
a22f
3680
0c06
a502
fb30
1bd8
4657
a627
c802
ad50
7d50
f802
7605
a002
a54
c3d7
016c
012e
1741
0980
8e7b
7279
ff70
5550
2480
9f50
8d29
3c50
2072
d702
d2b8
107f
1aa0
8d1c
4b87
2caf
7805
7050
8302
0223
0227
014e
063a
0825
176f
302c
0e34
0fbd
1980
2511
7231
2680
ea02
e180
6769
ad80
fc30
e080
e35f
6d14
e868
e2ad
220a
d8ec
0226
0132
0619
063c
06ac
0830
f550
9450
c260
7e81
1940
a11d
3841
de80
5903
5f80
0d19
6d50
4b30
6765
e430
140f
2280
b102
c770
d7df
e7e0
e353
32e8
4b82
ddd0
4c6f
5348
0217
0210
0157
012a
03ff
5230
0e38
d950
a150
ffd9
9e80
c402
8d16
4880
cd70
e801
d880
0d1c
2499
3178
439f
06ec
08a6
6550
7a05
6f05
0916
1632
2950
5a80
1411
6180
8d2a
140a
3334
6375
13ca
e7e2
e367
7572
6605
7777
da68
f050
011b
033b
0356
0623
0628
0633
0f80
7a80
3817
303e
d580
3570
7534
7905
c980
7f05
2829
f950
6d73
8bdd
7624
27cd
7b05
684f
c1c1
f180
7475
e819
4aa2
e1a9
6444
880a
0146
0661
0521
0856
0464
f542
2150
4f30
e950
2e66
5244
2f61
2f6b
6534
3436
3931
b950
3501
2a88
3635
6d80
d4d9
6625
ac04
8d1e
8d1d
e001
534d
7cd2
ec42
061e
df30
0a0a
213a
6c32
080c
6905
1e80
6504
410a
7533
7428
7205
8b80
1d11
e4df
e630
6365
fd01
b280
e280
706c
2061
3811
9176
817e
760a
013c
0112
0151
0680
066b
0550
ddcf
0ad1
0aec
301f
9947
3e80
d9c2
0930
2590
4c30
e352
b680
1275
7047
4230
4d42
7304
012b
015f
030d
034c
064c
dd30
dd50
4980
2f4a
7e80
1180
382e
78d9
2958
0c80
ef40
551d
26f4
f980
6105
48d9
4780
c10a
e4d9
6629
7c80
e7e8
686f
a688
1850
7705
016f
062f
066d
0207
3150
9480
0a1e
1f06
1950
4534
3820
384b
394e
9f80
3d03
3d80
5080
e150
ed30
e4de
9b17
6680
636c
f77b
406b
6261
5cd9
6850
6450
ad55
dcd9
0122
036e
0333
dd95
f552
7e05
2b80
1f80
2f73
be80
2929
a180
746f
af80
54d9
d4db
e4dd
9150
7105
b4c4
f630
3332
3335
a780
a080
f22f
90e8
8b8b
1de2
4461
515c
0d4c
20d9
6305
6304
6704
7305
7804
7405
0358
0650
062d
1717
f581
31d9
0a48
c263
e980
6c70
3431
342d
7826
ae80
fa78
fb80
ea0a
8b20
3717
642e
27b8
db30
226c
7104
7d80
3080
9d27
bc80
f4d9
f730
c380
322e
2063
732d
22fd
1dbb
2177
203d
40d9
a0d9
a50a
c40a
ed6f
e3c0
030b
0615
2e69
0e5c
0808
6505
d9a6
0956
3548
1680
ee80
fe80
fb24
c4d9
d680
6576
5b80
d4da
5c80
5d80
44d9
7d05
98d9
4301
6205
d380
a380
8d1a
1d13
52ba
10d9
4050
4cd9
50d9
6804
f68f
0230
0141
010e
03db
037c
0671
0638
061d
0880
0821
0480
8680
f56e
f547
6c6f
6533
3e30
2d72
4530
6f78
6f74
1580
8ea0
fab6
ef30
ec50
6b05
db17
5380
e8d9
eb3e
ab80
5880
58d9
3336
1807
8215
4608
f253
57e9
3333
6404
7603
023b
0131
0139
030f
0657
0621
0669
065a
17c7
4991
f580
0a4a
2eca
8180
1906
45fc
38db
382a
4131
7980
782e
3636
5f6d
4a7d
da20
9550
c480
3d20
6104
64d9
1d50
6b80
e830
444a
a880
f680
8d15
8d14
38ac
a49d
5198
3337
0120
0340
0346
063e
06fb
0439
4930
df80
7380
0add
6e2e
2e40
2e48
2f39
4550
7a04
3437
3831
3550
7904
7982
3f80
cfe9
ea30
7661
e4db
e4dc
dc17
2c80
5703
7073
7075
a317
205b
f080
32e0
10ad
6705
ad8d
f0d9
0252
017b
01ad
034e
0354
031e
0660
0622
06ff
0456
0498
f563
f558
6e32
2e80
5280
1e17
2d68
4533
34d9
3a30
4130
7562
a4d9
7f04
0d1f
1470
7b04
68c4
c103
4676
9c80
9b80
cb80
b4ce
a280
e7d5
1c06
e380
7c04
8480
d717
f780
702e
4030
6604
660a
bcd9
c0d9
0155
0378
032e
03dc
0310
03fc
0639
044f
04cf
0450
1008
aaac
6e04
4f80
2f64
34aa
6fdc
1550
7880
de04
a417
a229
7f17
8d2b
2780
1d72
a670
448e
c880
4c50
6717
5706
7061
3733
7004
380e
c22f
e477
954d
625b
0267
021d
0136
0646
0624
0629
062c
0644
0642
081e
f5ee
cff7
18a4
6904
6f68
b580
a980
a517
6a04
28d9
3d30
a66f
5d50
b480
b180
4280
e7d6
fcdb
1380
2380
2041
636b
2062
385c
22ee
2211
532c
5353
b4ad
26f0
8cd9
0268
021e
024c
025f
014a
0161
013d
017d
0127
0143
0142
033c
066a
0627
06a1
dd41
dfb5
0a19
0ac4
0ae2
6e5c
8580
18d9
2e73
5260
2ffd
3003
454e
4513
303b
4e17
7280
7f80
0d30
daf2
8f80
c680
1b0a
3d17
6874
c180
c150
46dd
9c50
4480
f480
f7de
6080
3239
8d1b
3809
486f
66a8
20d5
9cd9
e30d
f017
0231
0211
0216
021b
0152
0147
0175
017f
0128
0133
0320
0348
064f
062e
0675
0654
065c
081c
94d9
0a37
383b
4e80
7504
c545
2930
ff30
fa80
4a6c
ef80
a521
caed
2876
6d0a
8d28
6169
4680
5c75
d8d9
4430
dc80
1360
23be
b380
9780
b080
3237
3853
8b90
4175
e475
e474
6029
168c
148b
370c
780a
022b
024e
0248
024b
0185
0159
0368
0670
061f
3162
c244
1880
6f80
3832
387c
38b2
384d
d980
d917
3a80
4101
4141
de0d
8947
fe17
1417
14d9
2750
7b46
7780
ec01
bd50
a67b
cd80
cd17
f6d6
4c80
9880
b780
4078
8317
1070
8218
1868
3454
30a5
3318
745f
3cd9
a67c
c6fa
e0d9
026c
0238
0256
0255
0173
0168
0148
036c
031f
06b9
062a
0810
2320
040d
100f
0ac7
2180
6c04
6cd9
2e32
2e47
6580
3803
3834
d546
2580
1a17
7580
7950
e580
bf80
88d9
7721
ec19
6b04
6b2e
ed50
f12f
30b5
3380
40c1
3859
e363
460f
c222
276a
52f0
a4ae
1cd9
2934
4c07
7cd9
a67d
e017
0264
0237
0251
025a
013a
0179
013b
0156
030e
0361
031a
03ec
0665
0620
064b
061a
061b
05f3
0813
0a17
2e6f
0e30
6950
383f
384e
8e80
a4bf
c580
7480
7204
a22c
fb17
da30
8b86
3d49
8d80
6480
4717
5374
f130
c8d9
ac17
9d50
f830
f8d9
6780
d080
d280
f380
9080
d1ee
82bc
2cd9
5649
70d9
7404
dc67
022e
0215
027d
0244
014f
0144
0324
036d
0363
0362
067b
064e
063d
0643
0850
0820
04d9
4988
0a40
0a59
6e63
c280
c26e
4f17
1857
6c5f
1e16
1eb0
3e85
2dca
3432
3840
382b
38c8
388d
3843
090d
3580
7922
c549
3630
ee17
6a80
5554
0d01
9580
4b17
8d1f
6470
910a
d180
4401
7150
7d04
84d9
fd50
6275
38a8
2014
c004
9178
222c
b6a5
149d
3170
30d9
3256
48b3
7704
7604
9c58
d050
f306
0272
0263
0296
0121
0145
0124
0163
014c
0321
034d
062b
0674
0649
067c
064d
065f
082b
08e8
f5e4
9474
0a33
0ad2
6e15
cf17
2e06
2e41
4517
6f04
3824
3839
3833
3877
1517
de30
2901
e501
c950
7217
fa17
a580
2650
8b01
4830
ec17
e417
662e
5d01
b417
9680
1201
1280
7062
206d
e7e6
3862
3852
079e
1014
c213
5055
e4e0
c001
416a
d6c3
33e1
0ca2
1ca9
720a
9d5c
ccd9
d017
ec56
023e
0219
021a
022c
025e
0138
019c
011c
01f8
0360
0323
0326
0325
034a
031c
0625
064a
0580
dd80
020d
f586
3106
310a
0a14
6e6f
23a0
2e17
81fa
0e80
3847
38bf
3842
3898
3980
7917
2af0
4a80
5ac4
9a0e
2417
3720
c617
8280
7b45
7b50
eb80
d801
2080
2077
e7da
dc50
6373
a211
bc17
f880
5719
402c
4027
6179
3813
38ed
6d12
376a
380d
16e7
2469
f6a5
9810
a00a
0777
237c
5017
68ec
7baf
d0d9
0278
0247
0234
0239
0241
026d
018c
015d
0373
0347
033e
037b
06f8
0b07
0a55
6e80
4f70
1117
1150
99f3
3483
3801
3874
38df
38ff
3894
38fa
392d
0944
2550
4184
ce80
c547
c51c
0c93
bf9a
ca17
7464
24d9
5431
c117
a680
e4b9
2232
c841
5680
adc8
e780
1c50
e365
7cc8
fc17
e2cd
93d8
e0c6
1080
9078
e35a
381e
38a2
e0e5
40fa
460e
460b
a696
c4a7
432d
ff53
0f48
3384
5806
60d9
6d82
6d58
870a
c050
d450
ec82
e4fd
ec0b
027f
0266
0258
0186
016e
0176
0165
0129
0167
0166
015c
015a
015b
0319
0335
037e
0379
033d
0327
035f
0359
06b8
0645
067f
0667
065e
047a
f569
7317
6e5f
2ba0
6c17
6c9e
2e2c
1f7b
81fb
2f74
692e
0fde
3420
3878
3846
3826
384a
382c
38f6
3917
d9aa
3ab6
09b9
7570
59e3
c54d
74d9
ffd5
ae1f
0c0f
fac2
5ab8
ef24
c443
af22
3726
37c9
e117
ed17
ad17
e680
e3c9
8417
6757
6280
6204
e7e5
4001
3815
3858
776f
3768
380a
380b
c214
286c
13ff
6358
2520
0cd9
0c9c
1d5a
2017
90d9
ca4b
ec44
023a
0245
0235
023c
0218
0262
0172
0153
011d
014d
016b
0316
0375
0377
036f
0367
0318
032c
0343
0312
03fd
0672
063f
0209
8668
f5e0
0acd
2b17
6c66
2e2a
2e3d
1f17
52b8
81dc
2d70
34c5
3439
3822
3886
3821
38d8
38cb
388b
3844
3883
38fd
38fe
d901
d561
1501
2517
4e75
1617
8e17
be76
5917
2917
292e
a117
0c0a
ca80
372e
d617
1480
1431
6167
7b17
7b4a
5b17
4747
68cf
0730
0726
eb04
4417
b4c5
4240
9601
9623
7074
f217
60cd
386e
38a5
500d
c0e7
4016
d8ef
0df6
0b93
270a
260f
3714
4444
b3c7
c4b0
e606
0276
0246
0250
0275
022d
023d
0214
017e
015e
01b2
0331
0315
035b
0647
063b
06b0
06b3
0655
06f9
08d9
f517
f544
db98
0a4c
2e38
11bc
994c
6980
6972
1e11
7a17
3410
384f
38cf
3879
3872
3828
387d
38bc
38d2
388c
3897
38f8
d54a
094e
09eb
41b9
41d0
1a01
5a17
a550
6d06
3d86
8d03
8d20
6422
7b47
ec85
4740
68c6
68d9
68cc
e1a4
cc50
5317
9180
9117
f188
a8d9
5801
f817
fd80
672e
8331
c080
726b
e7e4
e356
7477
381f
3864
3868
3867
386d
3851
c1f7
3734
e118
229a
4037
1bff
0ca5
38ec
3748
7608
78ab
a170
c65e
dcbd
0232
027b
0269
0229
026a
024a
027c
02b7
013f
034b
06a0
061c
065d
0576
04d2
041d
aa17
f585
f584
9429
0b80
0a0f
0a88
8550
cf80
e930
81d3
3417
3873
3837
38dc
38f7
3915
b980
5e17
4e6f
1681
7964
de82
3f0a
5999
362e
ff17
4a7e
4a2d
a523
6d03
ea17
3786
1b80
3d74
8204
d417
6817
6828
3b17
3280
f117
2074
5817
4372
1317
e217
0d1b
3810
3819
3816
381a
4758
386c
3861
38e3
3856
38a3
37fc
37b4
380c
3808
c215
7041
4603
c0ea
52bb
4233
a3ab
3096
26ef
1d8d
530a
83e3
a4b3
f725
0257
0224
0274
0265
021f
023f
022a
0277
0261
025c
025b
011e
01ea
033a
033f
0329
032d
031b
0313
035a
0673
0679
06b4
06d0
0694
06e9
058f
0817
dd0d
020f
4949
df35
dfc1
dfbb
dfe5
f58a
0ab0
0a43
2b30
6c80
2e3e
2eb7
1101
1e0a
45ff
3857
3823
387b
387f
3849
3827
38b7
38f1
0961
3517
7817
5901
c518
2970
e5dc
e55d
726c
4abe
fe30
88c0
5580
9517
1b17
7b2f
1d31
e817
072f
cb17
a817
7180
7d17
e7db
e623
4317
3386
b617
9d80
9d17
bc70
13b5
572b
7080
40a6
d217
9280
ec9d
3814
3812
3869
386b
38e1
385a
38af
3735
3807
380f
406e
40af
d211
405e
4012
e69a
5db0
5026
9694
e236
846f
371b
3083
37dc
4017
480a
650a
7b54
bcdf
ef41
e7dc
0222
0221
027a
0279
0233
0254
0253
021c
0174
012d
0137
0162
0357
032b
0345
0349
036a
0344
0366
031d
036b
03e4
067e
066f
06f0
f5c5
0aba
0a7d
c262
21e5
6c49
5217
81c9
81b4
2f06
6917
1e08
2d65
6f17
3860
383a
38a6
3893
38f5
38c5
3836
38b5
38bb
3888
383d
38b0
38b6
384c
3890
389f
38f9
3992
0910
3f17
be17
5980
e5aa
e5dd
a138
fe06
ca0a
da04
8b17
3757
4817
1dc4
68c9
504f
3b80
bd17
ed80
3217
7126
f617
426c
e717
7c50
fc80
8717
40be
2064
381b
386f
38e0
385b
3738
37f9
37ff
3751
7034
e810
722d
e4e3
652d
4167
9177
e2bc
40ec
d091
8353
2850
2777
3d8c
365d
4741
5354
6383
6407
770a
e718
f030
022f
0273
0271
0228
0249
026f
0160
01c1
01da
0177
0154
01af
01e1
0322
0336
035e
0353
0651
0659
050d
f582
733a
0bdf
0a6c
6e23
2bdf
2e49
0fcc
6517
6578
6566
6f31
6f6a
38f4
3876
3829
3848
38b1
3899
38fb
3896
3919
39ce
b917
d56a
7561
7559
e570
c9f7
5f01
a917
0ca4
bfa4
bfa1
ef17
88cf
5573
0d20
0d4e
1815
8d2c
3c80
7b29
68cd
a66e
0793
ac80
a217
1c17
98be
d317
b217
f70d
f330
2067
3863
38ef
385e
3737
37fe
37b3
3781
460d
7b5c
817f
a0fa
4deb
c116
e48d
84e3
6794
a4a8
62e0
5aa1
f7ad
2575
33e3
34fa
374a
4743
4084
48d7
63bc
b017
dc1c
e010
ec49
0260
02fc
0212
029e
026b
0259
0126
0171
01e7
01f9
0332
0311
0376
037a
032a
0341
0314
0668
0811
0848
ddfb
020c
1780
0434
df17
dfae
8617
f574
f5d0
7336
0a69
0a6d
0a84
c2a2
85d8
e9eb
6c38
11f2
2f77
0ebf
696d
19da
7a82
38b9
3881
3845
387a
388a
38cd
38c9
38d1
38cc
3825
3889
388f
38c7
38c3
38d0
38b3
389d
389a
0917
0983
09fd
756d
ce17
e517
e5c3
5f17
ae17
fa30
4a24
5a11
8817
0d27
f917
8f17
c4cc
3706
37c8
37da
1446
2770
4840
48b0
7b2b
7b52
7b34
4732
6860
68c0
6b17
4617
e130
a693
cc03
cc17
cd6c
eb17
abc8
ac03
4380
e372
63d1
9617
f430
e2cb
87c6
40b8
b3b5
204e
f335
2069
332d
381d
3933
3866
386a
38e8
38e7
385f
38ab
5475
373c
37e2
378d
4b85
1de3
c525
2758
275d
2756
76ee
b063
752d
2c5f
2487
3854
3741
5808
7649
7b43
7509
8ba0
b0d9
c7f0
dc9b
ecd8
f3bc
027e
0225
02bd
01cf
016d
0198
032f
0374
0334
0339
0369
0342
035c
0693
067d
06ee
dda8
0206
498d
aa0a
aac0
f576
f5c9
f579
f56f
f562
2407
9417
94a8
0b17
2117
85e7
cf11
2e01
2e42
81b9
0e8c
6fef
3870
38b8
3885
383e
38ce
3875
38de
3871
382d
3895
3892
398b
d569
5e1e
de17
debd
3f01
c548
e530
e53c
c917
c9f6
fac0
4a17
bf88
ef1d
a58f
9ee7
2411
3740
3770
37b9
3750
4d49
8d0d
2778
772e
d4dc
db78
07c8
5c65
d817
4420
4c74
fd30
6217
e285
d206
2055
2066
3818
3938
38ee
38e9
38a1
38a0
38ad
3736
3754
3758
e361
3789
7048
4607
2765
a687
0dec
4325
51f8
c46f
10ff
8f44
a524
3709
371a
4bdc
6243
7a69
70db
9017
a8a1
bc59
bca8
d305
d40a
e64a
e934
024f
028e
0293
01ac
019f
0385
0371
066e
06e7
0662
052b
dd2f
0469
040f
493a
496d
dfac
f54f
f549
f588
f58d
f5fe
0adf
0a42
6e17
2b11
4f53
e920
6c01
6cae
2e52
5268
2f17
1966
4514
7a81
342e
38dd
388e
38d5
38ba
38be
3882
38d4
38d3
3945
39ee
8aef
d517
3a17
3abc
0901
4e8a
16da
1629
1a81
753d
c54b
29cb
e59e
8956
eeff
bfd1
ef22
24d7
c416
c4d8
4b50
4bc9
3701
61cf
2711
7b48
7717
ec46
47cd
4601
4631
e108
9b28
5601
7117
583f
3071
e747
2c17
a717
40c9
38e5
38e6
3855
07af
37b2
375c
37a0
37a9
e364
e362
e6ef
7051
7054
9ced
d814
1da0
3f5f
13a8
576a
87f6
a866
c153
1d8c
2c95
3865
30d8
3744
3710
3d07
37d3
485f
4cab
7bae
9b14
da4e
026e
02d2
024d
02ac
025d
0193
01b1
01b0
018d
019e
0192
034f
037d
0337
035d
067a
0677
06fa
068c
06f1
0517
05e8
dda1
0481
4968
f57e
f5bb
f561
f589
f5a9
f5ef
0a09
0a89
0ad0
0a1a
0a9d
6ea8
c217
c28f
7e17
cffa
e95d
18b9
6c35
6c33
81aa
0f63
38c2
38c1
38bd
38f2
38f3
392e
3920
d9a7
ba95
d540
0906
092f
090a
097f
0984
5ebc
5e12
4180
7564
7801
deb6
e5d4
a10a
c9d2
362c
5fd5
9e6d
5517
55b8
2668
f970
da17
3732
3745
3776
3774
144e
8d2f
6473
643d
7b3e
7b38
476c
682e
68c2
5079
466f
3bb9
db41
a68e
a677
ed06
e8d8
2217
32c4
d117
b4d9
2c3b
6370
7c17
6772
2317
8723
e7e7
e359
385d
373a
37ea
37bc
079b
3764
37ac
378c
8229
3475
ed59
c367
e027
e7ae
a154
57e3
93ed
27f1
5576
f011
1311
1ca8
23d7
3715
3728
372a
5d5c
a017
b050
ccc3
dc8d
dbac
d488
ec51
0236
02e3
01bd
01b6
01bc
019b
01e5
037f
0351
03fe
06df
065b
0503
05e3
020b
04b0
041c
040c
dfc5
f521
f593
f516
f51f
f5c4
f5be
f5c0
f566
f587
f55a
31fa
0a99
0af0
6e28
cf62
e917
81be
81eb
9985
99fd
0f17
1917
1954
1e50
1eb6
650d
3ea9
38aa
382f
38a4
38c0
38d7
38fc
3891
38f0
396d
8a80
0911
5e1d
4121
7517
7547
cef1
de8b
c59e
b517
29c5
e50d
a1b8
fa9b
5ae3
7f0a
cafb
2617
2817
95d0
4bda
3731
3778
372b
37a6
371f
3772
3d3d
1440
8d31
7b32
7b39
7b3f
7b2d
e134
bb17
a679
0703
eb40
5d17
b117
4c17
e7dd
e719
e34f
84ba
fd17
c717
c74f
f417
87b8
40cc
f071
381c
12f0
07a4
38ae
373e
37eb
3798
3796
379a
37ba
3766
375a
baa9
3deb
3d95
c22c
16e8
ed5b
a695
2763
e2be
2755
cdd4
14e1
c3e1
d111
4b5d
539f
0714
0ca3
0c9e
280a
2649
2c49
2c68
34f2
3777
372c
37d0
364b
467c
5c42
5749
648d
7a6f
a937
c017
c48f
e230
e0d1
e244
02a8
01ba
01de
0189
01fd
0338
038d
06d8
06a3
08b6
085e
ddaa
dd6c
041f
f545
f509
f53c
f567
f5b7
f5e3
f583
f5ad
f590
f595
f5ed
f59f
f5a5
0a26
0a97
6e76
6e16
6e79
2bc6
2e3a
2e36
2e39
81d2
81f1
0e29
0f75
1994
3e4f
3eac
2d17
2d74
3445
38c6
38c4
387e
38ca
38da
383c
3887
389e
d578
3abe
094c
09ed
4124
1a9e
de25
be9b
2a86
c540
c517
e5e4
0ca6
0c16
a51e
5562
0d17
9afa
9a0c
af17
3723
37cd
37c1
c66a
3d40
3d0f
1421
4d80
6440
6417
7b3a
7b27
6803
46b3
edc7
5332
cd46
e823
e846
2247
227b
d838
ac70
ac3a
e668
e6b7
e370
fcc4
12c1
d701
704f
b317
9217
6367
322a
f0a6
e358
e35b
352c
38e2
38eb
07a1
38a9
373d
373f
37e1
3792
4361
6d6d
376b
3755
3756
37af
3785
3d9c
e003
1dba
2761
07f8
b4a7
9048
449e
12e9
1c83
2248
23d3
238f
3749
3713
37d4
3742
37d7
3718
370e
4306
4c51
408c
4688
5b87
7017
8ba5
9783
dc5a
e306
e248
e93b
02ce
0243
0242
01e4
06d1
06a5
05f6
0882
020e
04d1
044e
042a
490f
4948
4910
495b
df50
df89
df97
8646
f570
f534
f5cd
f539
f572
f5d8
f5ff
f5b1
f5bd
f554
f5ae
f5a7
f592
f559
7375
0ae6
6e2c
cf18
6c1c
2e27
11be
81cd
99f2
2fdc
2d73
45f7
6f61
38d6
3884
3901
3940
3964
3948
3ab9
3a81
25e8
5e40
1626
7565
ceba
78c5
3f22
bee5
2a76
c51d
c551
29e3
a9e9
ee06
4a7a
bf89
bf18
bf98
bfa3
2840
8f23
6d20
ea10
37cf
3747
3775
37ca
37cc
37c0
c646
3d22
4767
8d33
7b80
1d40
5b33
d4d4
ecb9
ecba
a601
e8b4
07aa
0717
228e
2231
227a
227f
7a41
308e
ac19
e7de
e66d
1c93
9817
3317
e3f4
e3d1
8c2f
e20d
f252
f717
4029
c317
c3dd
481a
b040
e053
1021
07a7
07a9
07ad
8b9b
37ee
37b6
079f
079a
3765
376d
3762
37ae
37a4
37ad
7003
d21a
ed5a
4161
47e7
2863
e323
c4ac
e398
7aa0
70e2
1111
7097
74e5
74e3
1d9b
cdb5
f696
b0ef
1091
28e1
e161
e174
4358
b227
0936
1ca2
1c8c
2744
308d
37d2
3725
377c
377d
4865
4d43
488d
4bad
4644
5cdf
6484
6666
7741
9654
a4a2
d804
ed8d
e388
ed4d
e249
02c5
029a
01c9
01d9
01b4
01d2
01e3
0187
0184
01a3
06cc
06e8
06e1
05fb
081f
08f1
dd69
4906
4963
dfd5
8648
864b
f5b9
f505
f5b8
f573
f5df
f5b5
f56a
f515
f5c7
f51a
f5f2
f5ab
31a1
73fe
0b0d
6e37
c255
c2a3
21ad
7ef5
e9c4
18db
2e68
2e71
2e6a
2e4a
2e8d
2e9d
1f30
1f0d
116e
119c
81c3
99e3
99e6
2f40
198e
1e0e
653a
6544
7a7a
38b4
389b
3968
39d8
39c7
b9ad
15a0
1596
3aba
092a
3547
3533
5ec5
4e8d
4183
167a
1ac0
7578
7549
7567
7874
783b
78b0
de09
c523
c553
c543
c54c
c55f
b565
2906
293a
e5c2
e5bb
74d5
3617
5f88
ae83
8917
bf99
bf9f
fe40
ef75
efd3
7f26
9e29
884c
6a23
5578
da0a
ea6c
9f17
4b40
3722
378e
3721
3746
37d5
37d8
4d65
4d37
6432
4886
482d
48bd
7b31
7b36
5b34
4673
4650
db1f
a681
a668
07b8
5c17
9c17
6617
d803
a877
30b2
4ccd
1c40
4375
3385
e3be
7c06
7cc2
e2dd
2340
8724
8301
6364
e070
c073
07b4
07bd
07bf
393b
a06d
0aae
5116
3794
3799
37f8
37fd
37b5
37b0
0790
3753
375e
375b
7035
3783
4062
404e
22ef
922f
32ec
e119
e4eb
e6ea
4162
7b58
7b5b
c4a1
8178
c52a
30f1
47be
535d
cdb4
e796
247c
d39c
f0ef
3466
5366
60e7
605c
1210
6398
4d61
b011
0c07
1d6f
1c89
1c8f
267c
293d
3cd8
374c
3d89
374d
4a6d
5748
53d2
6311
6d5b
7d82
7737
7b4c
8c82
930d
968f
a66b
dcd8
dc90
d483
e083
eccc
e27c
ec5f
e0de
01dd
018f
0191
0372
03cc
039b
03af
06d9
06b2
0691
06ea
06e6
05e1
0824
0828
081d
dd62
4901
4919
4969
4927
4953
dfc9
df29
dfd3
aa80
aa48
86f7
f50f
f5c8
f5d4
f55e
f5ac
f596
f5e1
f5f7
736b
0a63
160a
6e0d
c231
c2ef
7e60
8517
8599
4f35
e9e5
2e86
2e6b
81f5
819a
99e5
99e2
2fbb
0e83
1920
1e2f
6562
45f4
4578
4563
7a0a
6f6c
6f77
6f2d
5e1a
4e47
4149
7531
753c
755e
8e90
7940
79ef
c54f
c51e
e5e3
e5e9
a14d
3661
fa77
ee7f
5a90
bf96
fe8f
a540
a51f
ca47
6a17
2679
2870
9a17
4b86
4b47
37aa
3703
37dd
370d
37db
3773
376e
3752
377a
37df
37c3
3d0d
8217
646e
1d17
5b6c
d48e
ec0a
ec77
68c1
c12a
bd2b
ed45
ed37
0773
07c1
226e
2276
22c9
2271
5617
ab17
ab70
b4c1
f627
4c0a
e7f5
e317
6317
6379
96b5
6273
5717
23df
8779
d2ca
9317
2057
f317
3937
38ea
3739
373b
37e5
37e6
379e
3769
3dde
406a
fff0
e815
8b84
e114
16e9
2295
ed58
b006
2869
7b53
4863
c4ab
a0fe
a683
a682
a68f
786e
2255
c11a
7b91
d571
d57d
d572
e8e3
96e3
446b
3dac
70a3
835d
3d15
3d10
3090
07e1
63ee
d75e
8753
4524
0743
071d
0d84
130d
1c8b
267d
3f41
371e
371c
3727
4615
48ab
5c44
8806
824e
9082
90d8
a60a
c4b4
d741
dcda
e71e
e3d3
e60b
ff48
fa6d
02c1
0295
0292
02f0
01c5
01be
03cf
0382
0384
03e5
06b1
06d7
06ab
050a
054a
08db
dd3a
17ff
49f3
dfdd
df52
df33
dfe3
f501
f503
f575
f50a
f536
f5d1
f571
f54e
f541
f50e
f5b4
f527
f5bc
f57c
f59c
f553
f597
3117
3158
0a7e
7ebb
8562
4f28
e906
302b
1840
2e11
2ef9
520e
99f4
9988
99fb
0ec4
300a
1e01
1e6d
658d
3e17
3e83
4536
453c
7a83
7a51
34a6
344d
396e
8a01
d9b3
d54f
d5a5
15fa
3ac4
3ab7
3afb
35ed
414f
416e
4185
16d8
1ab0
7546
7970
7928
792d
3f3f
bec4
c560
c54a
e50f
e513
3640
364f
aeb0
a943
fa82
ee14
4a51
bf83
fe82
7f93
9e9e
cafa
6a1a
fb40
0d2f
0d2e
dad5
9a01
9a0d
95b3
746d
c4d0
4b38
8b3f
372f
3716
37c6
377e
7617
3d71
8278
141f
4d16
6132
8d08
2773
2747
488e
7bdb
7b57
7b37
1d65
1d79
77c9
ec4f
ec2b
ec52
ec65
ecce
ec3b
50c8
4668
4661
3b35
3b25
e1cf
3046
e473
e4cd
e4da
cdc4
072b
077b
07f5
6635
663d
2240
2274
44d6
7a4d
c817
e78e
e7cc
dc75
e617
2c70
3340
e386
e3b8
e3cc
b636
b668
84d8
8cc1
d3c5
1809
b717
237b
70c7
70b7
a38e
c370
e07a
c0c8
7267
ece8
07b1
c23c
3520
1020
38e4
07ae
38a7
37e9
3795
37f2
37b7
37bf
079c
0798
3767
375d
37a7
37a2
37ab
7179
7038
3784
378f
489a
626f
8b8d
4b8d
d216
ed51
c006
e6e3
e299
7b5d
757c
c520
c527
4034
401a
e19a
e216
923e
923b
246d
1dd3
186f
4396
3b98
e2f8
345e
30ee
4236
9cf9
921a
e3ff
2b9c
2ce3
2ce2
63e4
62ed
e034
2031
82e3
d452
c465
e414
485b
d17b
c0ab
e75d
c019
5d1e
1035
2369
0df0
071e
0d43
0d82
1cd8
1c8d
138c
1c9e
250a
2c48
233c
3348
3b14
374e
3729
3708
4c59
43d2
48a9
5690
5343
5cb0
5889
6017
6741
628b
614d
730d
771c
7d8f
8c5e
8bb3
844d
9c84
9b1e
bb8c
c738
d089
dc37
ec59
e88d
e64b
ecbc
e6d2
e2d4
e50e
02c9
02ff
02d4
02ad
02a1
02fd
0194
03e2
05cd
05f5
05b3
05e0
05fd
05fe
05ea
046e
04cc
040a
4965
4941
4977
4989
4944
4942
df6c
df24
dfd7
df58
df87
dff1
8687
f532
f5dd
f58e
f523
f5a4
f520
f5bf
f529
f548
f533
f54a
f537
f514
f5d2
f5a1
f5f9
0a39
0a15
0a5f
c206
c27a
301d
cfa8
cff0
4f63
4ff0
e904
e9e3
18fc
2e19
2eb6
2e5c
1134
81dd
81e1
99e7
99fa
99e4
99ee
0f7f
1945
1975
19b1
195d
1e0f
1e27
1e5a
65b8
3e91
2d6c
4555
7a3e
341f
34ad
6f7a
3932
3922
396c
398a
3979
3995
395a
3959
8a17
8ac3
d9d2
b98b
ba17
ba47
bae9
3abd
0940
0985
3540
3537
5e51
4e6a
4e58
4e9d
41b5
4148
1a70
7552
758d
7598
8e81
8ecd
7920
cea2
7857
7877
deca
de64
3fbf
5941
598b
2a40
2a85
c52f
c56c
c519
c5fa
e5a4
e5d9
e5fb
e5fc
e55a
e5e8
c9af
7275
3639
5f75
5f89
faee
8980
89c9
89e0
eed1
ee0b
4a19
5a16
5ab2
bf97
ef93
7f94
8838
fb35
28b9
8f03
8fc0
c4c4
ea83
4b11
3793
3711
37f5
37c5
37d6
3d16
3d3c
4df4
6411
2717
2776
2724
48d1
48d8
1d6c
1d7b
1d77
1d7c
77c4
5417
54d8
4772
68c7
6b67
4663
3b2c
e103
a667
cc47
ed4f
ed3d
53c9
9b0d
d106
d1b5
c834
2060
7dc7
f670
4206
dc01
dc7b
e63a
9d23
8c17
1381
e206
e28e
e20f
4085
4074
407e
40b1
d281
4810
e0c2
1aac
07b7
2023
7320
3936
07a8
37e0
37e8
37e7
dcff
379c
3790
3797
37f0
37f7
37fb
0796
376f
3759
375f
703e
378a
c21e
704a
3de1
1df9
c22b
e00e
2294
c007
a697
e291
2220
2764
47e4
e327
7579
e49c
e492
f6e3
a68b
225d
403f
d053
c496
2475
3d5e
c194
bce4
bdb6
cbe1
2811
b49e
22ad
839f
98e3
d161
5219
749c
0d90
8bee
82ea
63f0
93ae
4229
d3f0
6818
4858
147a
2455
8ffe
b2b0
0728
071c
1c82
1d88
2c56
2735
3df0
374b
34f0
372d
3712
34f5
4748
4088
40d0
46d3
4807
440e
5187
638d
672d
64bc
700c
7749
7935
8311
9b8d
a690
ab56
bd59
ccd8
c8bc
d605
d4b4
eb88
e354
e75f
e2b5
ec1c
eb42
ec4e
ec53
e18d
e143
f606
f65d
fd54
0294
018e
01c6
01c7
01f0
01e9
01ab
03a2
06cf
06b5
068f
06ed
0522
0514
05fc
0849
08ec
0897
dd17
dd57
0475
496e
4985
497f
498f
498c
499a
dfcc
dfab
2f41
f546
f5c1
f5de
f58f
f5dc
f58b
f5e7
f556
f59d
f5f1
31b5
0bff
0a1b
0a5d
6e38
6e53
c294
c29d
2b35
cfb2
4f06
4f50
4f3d
e572
2e6c
2e2b
2e4e
2e12
2ee5
1f6b
1128
11fc
1155
52e0
99ff
99e8
99f7
0ff7
191f
1e10
3e88
3e10
2d6d
2d43
2df0
450d
455a
7a57
7a52
7a38
7a89
7ab0
346e
3429
3495
6f20
390d
39c9
397f
394a
39f9
39ea
d56f
d54d
0960
0964
09fa
0987
353d
5e96
4e40
4e7b
7573
8e43
cedc
7879
78ca
7896
78fe
dec5
de5a
3fe7
3fee
be1d
c554
c55c
e5c9
e59a
7417
c957
72c5
7272
ffd2
aee3
bfb1
bf8f
bfa9
bfa8
fe78
9ef4
6a55
2801
2874
0d49
0d3c
f9e7
da59
9a03
8f50
9508
2470
244e
c417
6d29
ea06
9f1f
4b39
4b71
4b37
af19
3760
37b8
37c2
3779
c6a4
7631
3d3e
3dc5
4762
d623
d6b3
4d06
6152
61d4
8d0a
6428
2716
3c0a
4826
4836
7b70
7bda
1d93
1d7e
7740
ecdb
ecb5
ec3c
6875
6b40
4638
3b0d
dbc9
a675
e42b
e4a6
e8c4
0731
91c2
663b
2277
cb04
f1c0
5dcc
5640
7d3e
7dc8
58cf
3075
3072
dc73
2cc4
1c81
9820
4352
e3ba
6265
b750
e2a6
e279
23c9
40c4
2046
7068
322b
4f41
ece0
6175
e054
40ff
dcfd
3791
379b
37f3
37f6
37bd
37bb
4095
0799
3763
7031
3782
406f
404b
3d9b
e813
e89a
40a8
4aae
16e5
2298
647f
d218
6520
e297
e296
222e
47e8
7b51
1de4
c4ae
7237
c52c
e49f
e395
e39e
f6e9
7861
e86b
46c9
f6c3
1119
b045
d57c
e483
f6a1
e1ac
1d91
14e9
247b
e7a7
e7ad
ccef
4ce3
e04c
1da3
a3a1
d029
f020
70f0
839c
97b1
e177
8290
e254
9798
1054
5be3
e0ad
27ad
2314
422a
9190
1479
d223
12a9
a031
4577
b69e
0d8c
04ff
108d
1253
2283
2cd8
2728
264e
224c
2614
2284
285c
371d
4c1e
40d8
430d
4c48
4cac
47d0
474d
4d51
530d
5087
6648
608c
7a6d
70d0
70d7
7851
7412
878d
8343
828b
9c9b
988c
a01c
a8a3
acb1
a251
bc48
bcb2
c865
c741
cd8d
cc15
d6c2
d574
dcb4
dc6b
d2dc
d41a
ec62
e604
e283
e383
e710
e68d
ec4a
e14d
f88d
f642
f18d
02b8
0282
02b3
0298
01a6
01d0
01b7
01ae
01e0
01fe
03b4
03a0
0396
06f2
06eb
06e0
0511
05ee
05e2
08d0
08fe
dd35
0428
04a9
0490
4978
4947
4920
4928
496a
494b
4943
49a0
4990
dfbd
df8d
aa63
86b2
f560
f5aa
f50d
f557
f519
f5ce
f535
f57f
f564
f51d
f5f6
f54d
f55c
f58c
f5fb
f51c
f5fc
f512
f5e9
f50c
f5af
f5a2
f5ea
f5f3
7361
735f
0a36
0a4e
0a2c
0a9f
0aee
6e33
6e59
c2f4
21e2
7e75
7e7f
7ee3
2b86
85e3
4f34
6c3a
2e78
2ec4
2e29
2e91
2e5d
1f16
1181
525a
99f6
99fc
99f1
99f9
99e1
2f11
0e46
0e4e
0f52
1e40
1e18
1e14
3e70
3ea4
3e3c
456c
7a7f
7a59
344f
34c7
39b9
391d
3958
394d
3998
303c
d9f4
b98c
b96b
15dd
153f
3ac5
3abb
3afe
09ee
095b
5e80
4e31
4117
4182
4144
41ad
415d
41e2
1a79
7536
7548
756b
8e03
8e4c
7948
796b
7878
787b
7848
78b4
de01
de0f
deb7
de91
3f87
a4a6
2a7f
c522
c52b
c565
c541
c5e8
b50f
2913
e566
e584
e5e1
367e
a9a3
fa7d
eea7
eefe
4a01
bf93
bfc5
bf84
bf92
8885
5564
0d2a
f906
9a08
9a09
4b52
4b49
4b7c
376c
37d9
37de
37d1
37cb
c650
7681
3daa
3d26
8285
1441
4d11
4d3f
6117
61b4
8d2e
6435
6448
2774
3c40
3c17
48a4
4879
7b40
7bf5
7b41
7b3d
1dc6
1d29
5b01
ecc4
68c5
e12b
e13e
bb48
a678
a67e
a661
5345
e46c
cdc1
e831
e878
e82d
510f
5c22
2257
32c1
5d0d
c87a
c825
a8d8
ab06
7dc0
f626
a245
9826
e373
fdc1
1340
13c5
62db
6274
d711
d093
e203
7040
70c1
40aa
4040
40a4
40bb
f240
f250
200f
8350
4816
e075
f0cf
1aad
e7ea
6463
6467
2264
475e
3939
393d
07a5
07a3
37e3
37ec
0aa9
379d
379f
6d15
37f1
37be
0794
0797
3761
13eb
703d
3788
3dd9
2012
7044
c220
686d
6262
4b84
e005
ed5d
e294
286e
7b55
3df6
1cf8
6453
3aae
3aad
0dd3
0dd6
225e
225a
f258
e214
7819
d579
e489
5355
96e5
78ef
64e2
d325
4bff
22b6
423c
2819
3d14
fcec
9aa3
e068
22a8
c2bc
8cf6
e8f6
dbf2
9054
f3e4
d2b0
a6ca
d6ad
7cf1
3296
87a3
a7ea
339c
fddd
6234
7756
16a3
a0a3
c011
3575
fd14
0cd4
0ca9
072c
093c
1348
120a
1cd3
1a6d
1489
1d59
2288
27d4
2249
2607
2287
22d2
3d6f
3648
308f
3707
4b6b
4bfb
420a
4749
408f
4b18
480c
466b
50d4
5643
5a48
6b81
6715
64fc
6251
774b
7088
7a6b
72d0
7244
741a
8b81
84f7
828c
9c88
a259
ba6f
bb8d
c0d2
ca64
dc59
d4fd
d93e
d18d
ecd1
e082
ec48
ec8d
eca9
e713
e603
ecac
ecb4
e087
e6f1
fd4c
fc89
fc96
f93b
fa4d
02d7
02ae
01b5
01d1
01bf
01c3
0190
01ef
03cb
03a1
0689
068b
0506
050e
05fa
05ed
08f8
dd05
ddca
dd61
17f8
0473
042c
04b3
4940
4922
4931
4957
4916
493e
497b
494e
4933
493b
49f6
4913
4983
49ad
4997
4955
dff4
dfa6
df19
86a1
f504
f5d6
f5ca
f53f
f528
f538
f52a
f525
f577
f53b
f53d
f59b
f59a
f5e8
942a
9448
0b73
0a75
0a92
c246
c28a
c2c1
c251
215c
7ecc
7ef0
85b8
cf21
4f2b
4f56
4f55
e9c8
e98d
18d8
2e82
2e94
527a
8183
9940
9917
99ed
99ea
2fd9
080b
19c0
19fe
1ee6
6557
3eb9
3e15
3e1b
2d35
2dc1
2d38
2d33
45ca
45b5
45af
7a21
7a74
7a3f
349a
6f50
6f35
6fbd
6fad
392f
3986
3911
39c4
397e
3971
3977
397c
3942
39ac
3990
39ec
39a3
39f8
39af
8a8d
d56e
d541
1592
3a31
3aca
3abf
3a5c
09a6
0989
35e1
25a7
5e90
4e9e
41b1
41b6
410b
1670
166d
1a77
1a18
7532
7508
758a
790a
ceb8
ce75
ce7e
cea7
78f5
7871
7842
7899
de24
deb2
dea9
dea3
3f7d
3f83
5947
5943
595c
2a7b
c556
b501
2911
29ef
e5d5
e5d8
e5c8
e5cb
74a4
7420
a107
c989
7203
7257
3620
3638
3633
fa79
ee22
4a40
4a8e
bf86
bfb3
ef06
7f06
9e14
ca74
ca51
88d8
6aec
267b
287e
287c
0d4f
0d29
9a06
9aec
8fc4
9582
24d5
c44f
c46c
c423
c4ca
c4d2
6d39
6dc1
6d7f
eadf
9f06
4b2f
4b6c
4ba6
4ba4
4bc5
8bdb
37f4
374f
37c4
377f
37c7
c639
3dc4
3d3f
3d3b
4763
476d
8279
14d1
4d3a
64b9
642b
64cd
64d8
644e
6161
3c0d
488a
4841
48d4
1d8a
1d48
7775
5470
5426
5441
5b35
5b79
d42a
ec0d
ec2f
ec31
ec7b
ec34
47c4
47c5
47c1
682d
6b73
c152
466c
4678
4636
4679
4672
e193
bd7f
bb0d
db0d
db16
a676
a674
a665
cc32
ed41
e485
e481
cd36
e88e
e8f5
07cb
eb8e
9b15
6631
6628
2273
d83a
d1cb
aba4
b4be
f6dd
f64f
f6a6
b128
4217
4cbe
e760
e778
e7c3
dc76
e67f
2c30
2c11
9870
98c4
4360
436c
9d20
bcaa
fd06
b2cc
1217
a78e
d774
2352
8703
70b9
70a4
70be
40f4
40bf
f24f
f28a
f750
2003
9717
c37f
205c
f38e
e0c0
0735
9040
ece9
ec9f
07b6
bbe5
07a0
37ed
dcfc
37a3
37a8
378b
3dd8
7045
4049
3de5
3d9a
bdd3
e11d
22fc
22f1
22f6
e1f5
e004
d21f
ed53
e47e
e29b
2222
a0f6
7576
c529
f6ef
e2b7
a68d
3db8
306d
6455
645f
7053
403a
e3a3
d051
149b
7814
c49f
246a
52b0
d57b
c4ef
cddb
c020
bcea
5de3
e69d
cbe9
22bf
1bea
109a
b49d
daa0
e048
5021
a795
a791
a4a0
e155
3d6a
d792
e762
8cf5
e03f
2034
4796
1bf1
4df7
adad
adff
e46a
c811
58e3
edb4
63a7
7cf3
8467
2234
4859
a2ac
cdae
279f
14ac
68f0
f004
a468
0c9f
0c18
1224
1c94
1ca3
1c88
1bac
164e
1c96
1c92
14b1
1483
1482
2743
271b
2282
274a
24fe
28a2
30f8
3c5a
3d8d
3cd3
3d42
3c5f
370f
3251
4b54
4ca9
4bae
4bac
4c58
474c
4268
4738
40d2
4b1a
4b1e
40da
48d3
5a65
550c
5653
6d5c
6725
6384
6809
6612
6143
7010
7c8d
7c99
74b1
8c84
8348
87f0
8489
9c94
924e
9c64
ac49
a735
b387
b0dc
cc96
cb42
cc13
c309
c8a8
c683
dc51
d282
d38d
dc7c
dc10
d242
d48d
d4b3
e304
e40a
ec5e
e74c
ec8c
ec55
e889
e6d4
e856
f404
f30d
f603
fbaf
f24c
f6d2
028a
02d0
0297
02a2
01df
01cb
01d3
01a1
019a
0196
03b0
03a9
03a8
06c4
06c0
0697
0528
054b
05bb
05a0
05f1
05f8
05e6
dd03
dd89
dd55
17b8
04ba
04c3
490d
492f
4974
4964
494a
49b0
49b4
4914
49b2
4998
49a5
df06
df04
df8f
dfb6
dfaf
dfe2
100b
aa06
f5f4
f506
f56c
f578
f52b
f511
f565
f5cc
f5c3
f518
f52c
f510
f543
f5a0
f513
f5ec
f56b
f5f8
f5fd
f5e6
3119
3154
3197
9401
94a9
0b60
0b11
0a93
0a50
0ad5
0ac0
0aef
0af1
0ae5
c29a
c295
c297
2109
7e21
7ed0
7ed7
7ef1
7ef8
85ff
4f40
4f68
4f58
e988
18d0
2ec7
2e53
2e4d
2e62
1f1d
1fef
1107
110b
5250
5258
5284
8166
81f7
9916
99eb
99ef
99e0
99e9
0e57
0e6d
69f0
0ffc
192e
1e03
1ea6
1e58
6583
3ecf
3e8a
3edc
3ef6
3efa
3e84
3e9a
2d4f
2d86
4540
45c6
45ac
a111
a116
7a32
7a8e
34c9
34d8
344e
3448
34b0
6f15
6f91
6fe5
39a6
3981
3946
3916
39d6
39ca
3925
39b1
39dc
3963
3910
39f2
39fc
39a8
8af7
d9cd
d9e7
b97b
b9c1
b9a3
d5c5
d56d
d589
d563
d543
d542
1511
153c
3a06
3ab8
3acb
094b
0988
091b
350d
356d
2597
5e45
5eb2
4e3f
4eb7
4e43
41a4
413f
41d2
16be
1a8e
1a7d
1aec
1aee
7540
7557
7545
7589
7563
755b
8e12
7932
784e
78d2
78b7
78fa
de03
de1d
de42
de55
3f73
3f76
3f38
3f61
a4b9
a441
59cd
2a8d
c557
c51f
c54e
c55b
b559
29c1
e505
e585
e568
e5b6
e5bc
e55e
e5a8
e5a7
e592
7401
7447
a1bc
c94c
c9ae
c9f3
3622
ff66
5f6c
5f38
5f90
aeeb
a985
0c01
0cdb
fa40
89bf
ee64
ee67
5acc
5a18
5a51
bfad
bf8c
feb9
fe44
ef74
7f32
7fe3
9e17
883b
6a74
6a10
fb36
556d
55b0
2652
2674
28d8
f995
da06
9a05
9abe
9a18
8f40
9545
958b
95f0
c403
6d08
6d47
6d09
6d3c
4b22
4b65
4b7f
4b48
377b
3719
37ce
767b
1b48
1b7d
3d6e
3d11
3d2a
3d7d
4765
d6b1
8203
8286
142f
613a
61c3
8d04
8d34
8d2d
646c
2760
3c8e
3ccf
4801
483f
4838
48bb
4843
7b35
1d16
1dc1
1d7f
5401
54c9
5435
5b69
d4c7
ec60
ec21
47c2
6823
6877
466e
4635
466a
46b0
3b27
e181
e148
e13c
e127
bbc6
bb3c
db2d
db7d
dbc7
a68a
cc06
e435
e8d1
51bc
0740
9cf4
9b47
6665
6661
2250
22c8
cb70
f18a
d181
5d2b
5d35
4438
c8c7
b4b9
ad86
584a
f681
b12a
4231
4281
a2cf
4c40
4c79
4c38
e76c
e7ca
dc85
dc79
e3d8
b63f
f8b0
fd48
1365
620d
6257
627a
d374
d3c1
d37f
b250
f4d8
57a6
b7ce
d07b
e208
e277
f28e
f247
200a
6081
836c
93c1
9201
92a6
927e
2047
6369
e07f
e07c
e0b7
c077
10aa
4f43
f0c0
a093
a081
ecea
6464
646b
07bc
07be
46e7
c234
e052
2268
3934
1028
a09c
7769
3ce3
5479
e318
e312
37ef
0aa4
0aa6
6f5f
6321
1356
37fa
0792
37a5
37a1
13e1
7178
3ddd
7049
4047
3ded
6268
b096
40a7
40ad
e009
e00d
647a
47eb
7b59
7b56
1de0
a0ff
7233
723d
c52e
e49b
4dea
a689
4b96
3df1
3df9
3dff
ecfb
1cfb
306e
3066
9b9d
2259
4011
7aa4
e19b
f25c
bded
a491
2467
7091
d575
641d
1d9d
e2e8
3d54
3d5b
3dad
3daf
981d
70a7
70a9
d32b
30e8
4bfc
51fa
07f1
07f6
07fb
8356
1dac
3d1d
4114
1d69
f199
b065
c6e7
df44
df4f
3d6b
70fa
7be4
e035
2036
a4e7
bff0
c8ef
c7eb
4790
87f1
1bfd
4b5a
adf7
c695
622e
231d
6090
3ff9
50f7
7153
e7bf
d003
e22d
fcf1
f041
f7b4
903c
12bc
23e4
335b
5039
97a5
8f54
3363
f2b3
d039
7df9
a391
8da5
ed1e
d52d
e525
edfc
b47a
9da1
b579
b520
7d14
554c
0ca7
0788
093b
16c2
1ca0
165e
1c90
1cac
1c9c
1d84
1d87
1a49
1b1b
2b8d
280d
28a0
224b
2883
370a
3d5c
3383
3c68
3d8f
3c6a
370b
4a69
4d8d
4406
4383
4c1d
4bbc
480d
4cae
4b10
4408
44bc
5306
5311
574b
548d
5a63
5d5e
6d89
6bd3
63b4
638f
6488
702f
7cd8
7ca3
70d4
7b8d
7642
7c92
78a9
76d2
7789
7bb2
7938
8cd3
8c96
8bb0
8289
841a
9311
9c61
9243
9689
9933
9251
a748
acd8
aba5
a7f0
a3d2
a28d
aba1
a48c
b68c
bc55
b18d
c75f
cc48
c38d
ccac
c784
d311
d715
d08d
db43
dccc
dcd0
d243
dbd3
db1a
d33d
d6f6
d48c
e033
e0d8
e50a
e649
e38c
e20a
ec89
ec5c
ec1d
e736
ec6a
ebbc
eca7
ec2d
e4f5
ec4b
e8af
e809
e656
e44c
fc59
f283
fc5e
fc8c
fbad
f28d
fbb0
f24a
f6fb
02a4
02c4
02d3
0283
0290
029d
02a3
02fe
01b9
01d5
0188
0199
01a5
03da
0397
0690
05db
0508
057f
054e
052c
0542
0513
05f0
0801
08c0
081a
dd93
dd20
dd5c
ddef
dd97
17a6
17c4
177e
17a9
046c
04ac
045d
0496
49aa
498e
49a6
4976
492e
498a
497d
4999
4962
49a1
df40
df78
df36
df28
df9c
f5ba
f5d9
f568
f54b
f5b6
f5b3
f5b2
f555
3110
3183
737d
735a
9440
9421
9447
0b0a
0b27
0bd2
0ba9
0acb
0a9c
0a51
160d
6e6a
c2aa
c205
c2a4
c275
c2d9
c28d
c2a1
214d
7e8d
2b14
2bf8
851e
859b
85fc
85a1
cf1a
4f0f
4f74
4f1a
4f91
4f95
4f59
4ff8
e98e
e981
e98b
e9a0
e57d
1841
18d4
18ac
18f7
6cd8
6c4a
6cd4
6c9f
2e0a
2ec5
2ed1
2e3f
2e4b
2e37
2ead
110d
5203
52c0
81f6
997b
99f5
99fe
0e17
0eca
6940
6978
69cd
692d
698d
6962
699d
69f1
0f0d
0f72
0ff1
199b
1995
1e19
1e25
1ed2
1e07
1e0c
3e86
3e3a
3ec6
3ed8
3e0e
3e8d
3e07
3eaf
2d11
456e
456d
7a86
7a1a
7a1d
7aef
3411
34d2
34a8
349f
6f3a
6fd7
398e
3973
3985
3965
3989
3918
39bc
395e
3913
39a1
3997
39ab
d9d6
b9cc
b96f
ba06
baca
d503
d53b
d5a9
15bb
151b
15f9
3a19
3ac9
3ac8
3ab1
3ac7
3a9d
0903
0970
0924
0920
09be
09bd
09b6
0942
099b
098c
0951
35ff
355b
25ad
5e1f
5eda
5e49
4e9c
41d1
4109
4159
41e5
1a3f
1a8d
753a
7539
7568
7584
794e
cecc
ce8d
ced2
78d7
de50
def5
de7f
de71
ded2
dea7
3f16
3f3e
3ff5
3f15
3f1e
3fed
be16
be72
bedc
a43d
594d
2a17
2a78
2a7a
2a71
2a3c
c56e
c521
c564
c5b1
c566
c51b
c562
c55d
b5e0
2908
e504
e538
e5c7
e59b
e5e2
c94b
c914
72aa
7250
ffdf
ffaf
5f74
ae23
aee4
a91d
0c32
fab4
8946
89f1
ee8d
4a06
4adc
5a35
5a36
5a3d
5a54
bf81
fe53
ef6f
ef1a
a5a0
7f40
7f23
7f71
7f90
ca50
88be
cfec
55b7
2681
0d08
f9d0
f914
da70
9a07
8fa6
8f71
9516
9514
2478
ea5a
9f01
4b01
4b46
4bce
4b0a
4bd6
4b69
4b6f
4b6d
af04
af72
af1b
8b50
3771
7611
3d93
3d81
3d1f
3d41
3dcb
476f
476a
820d
82c4
1473
146e
4d4f
4d2f
4d57
4d71
4d38
4d33
8d06
6478
643c
276c
2721
27d9
27c8
3c47
48cf
48d5
7b24
7b4b
7773
7776
5403
54d4
d4c5
ec81
ec16
4770
47ca
68ca
6849
507a
5072
6b01
6b46
6b50
6bc5
c1aa
4646
4634
3b15
e1d1
e1bb
e1b3
bd70
bb68
db22
dbc2
a673
a663
cc33
ed57
5331
533f
e4c3
cd31
e8bf
e8b6
5140
07a6
071f
5c46
91f4
eb61
9b01
9b11
6686
22dd
22df
227d
326e
f1b9
d87b
d8cb
d8d4
5d22
5d23
444f
4424
b4c6
ad01
30bc
f640
f650
f629
f677
f6bc
b140
b16c
4232
4247
ac3e
a206
4caa
4c52
4c65
4c77
e70d
e7c4
dc6e
dc46
dc24
dc3e
e6b8
e650
e6b5
e63f
e663
1c85
98b9
9877
e37a
e3c5
7ccd
7c0a
9d0e
84c1
8c03
bc0d
fd11
968a
6740
67ce
1301
6272
d332
d3da
c7cd
f426
126c
a7db
a76c
a757
5745
b706
d779
e250
8778
87c8
70cf
70ba
70c8
70b1
40b6
f716
83b9
83c9
d2c2
c350
9203
9240
4815
205e
e086
e0a6
7064
7066
c0ba
c0cb
1085
10c8
b0cd
073e
0736
a086
1aab
6468
4006
ec97
07b0
305a
202b
393c
12f2
7762
07ab
f7e0
f7e2
37e4
40f0
632b
dcf0
4097
3dd5
8227
4063
5051
3d9f
e811
e814
e818
c223
bddb
e1fb
7ce3
e4e8
4171
1dbe
229e
c00b
6111
1468
c4a9
7236
7571
c52d
f6ed
7020
e2bf
e2b6
4def
4bea
5329
7867
7869
30f0
40e5
9b95
7059
4054
275c
225c
403c
4014
e015
e215
48e1
111c
1116
f6ae
6414
e1a0
dbef
d7e1
96ef
c2f7
14e7
2479
78ee
f291
d1f3
3cf2
346a
346b
9ce9
b495
e454
3d12
1d64
2179
536d
f190
22a3
a024
d04d
e3fc
e159
3d63
d79d
fdba
5aa0
c2b2
d165
729c
929e
d498
e03c
5216
2035
e0fb
d11a
dbf8
4b56
87be
e7fc
adab
f3ed
30a9
67e7
6058
6d9b
93a1
d1ad
422f
b31b
a7a1
f0f3
d2ad
33fb
53fc
9111
906d
9066
e222
d7b5
46ad
86c0
b0f5
8bfa
335e
3211
b799
522e
257e
447a
d466
b05e
8762
a175
1692
c75e
42b1
a8f9
90f0
f23f
a575
4d15
ef4c
9d6d
67f1
b525
f75c
0cd8
07f0
0710
0cab
0c9d
04f3
0c13
1df0
10d8
1383
1c7c
1d89
14b2
2269
264c
28a5
274e
2c5c
2cd6
2a41
3da2
3343
3d43
3cd0
34f3
3c5d
320b
4172
4b81
48a3
4b43
40d4
4388
4781
46d7
4bb4
44b7
4c0c
4a64
480f
5741
58a3
5c84
574a
564a
5648
5736
5936
5cde
5b83
60d8
6b4d
674a
674b
668d
680d
64ff
64b2
618d
7f41
7ca9
7f48
7cb1
788d
7ba3
74b4
7d44
70d6
780b
714c
830d
84f1
8333
8388
84b4
8cc3
83d0
8a4d
8b62
9224
9010
9cd1
9b43
94f1
9708
96d7
9688
9b13
ac07
a48d
a0d6
a61e
b574
bf41
b78d
bc5c
b088
b2d3
b14c
b187
c03d
cc9b
c4f1
c77c
c33c
c0d3
c487
dcd1
dc48
dcd2
d713
dc68
d28d
d38b
dbbb
d50b
db62
e741
ec5a
e743
e68c
e749
e71a
ecc0
e80d
e309
ec2a
e6d7
e6f7
e50c
e3dc
e4bd
e615
e654
e6d0
fc8d
ff41
f0d5
f643
f249
f30e
f689
f61a
fb1c
f8ac
f61b
f6f8
f82c
f65b
0286
02c6
028f
0291
02e8
01aa
01a4
018a
01d8
01dc
01d7
01b3
01f2
01a8
0197
03c0
0389
03d3
03b7
03d7
0395
03f0
03a5
06cd
0682
06f6
06e4
05f4
0526
05d1
051c
05ef
05e4
0878
08d8
088b
08e3
08f7
dd86
dd0f
dda6
dd04
dd52
ddc0
dd5d
ddab
17f4
1776
173e
042e
0479
047f
0441
04d4
04ea
4945
4946
4938
4915
491c
499e
495a
490b
df16
dfc2
df72
df15
aa1f
8686
86d1
2f4b
f57b
f59e
f5f0
f551
f5e5
f55b
db95
3140
3111
31f8
31e6
7357
7350
73e3
7399
946f
0bd4
0a21
0a2a
0ad4
6e5a
c2c6
c2c9
c2c5
c29c
c2a0
c29b
21a6
21f6
215d
2155
7eba
7ebe
7ebf
850d
853e
8525
cf04
cf89
cf7c
cf96
cfa2
4f16
4f18
4f8d
4f51
e921
e979
e9df
e95c
e9a1
e990
e992
6c4f
6c57
6c52
6c46
2efe
1f32
1f40
1f9a
1132
1135
110a
11b1
1198
119a
115a
5273
52c1
81bb
99ba
991c
99ec
2f29
2f67
2fb7
2f13
0eb7
0e9c
695e
69a9
695a
69ee
69e6
0f10
0f91
0fe2
19a4
1961
1953
199f
1e2b
1e24
1e09
1e3f
1e28
1e3c
1e2d
1e43
1e59
65f5
6535
65d9
6541
3e40
3e48
3e4b
3eb0
3e1a
3ef2
3e1c
2d45
2d34
2d62
4581
4541
7a50
7a79
6f40
6fd9
6f38
6f89
6f62
3978
3952
3976
39f5
394b
398d
391b
3999
3984
399e
39f1
390c
8a5d
8a51
d9f2
d9e4
b9ae
bac0
d50f
d573
d5cd
d58d
d5bc
1581
1588
159c
15e0
3a0d
3a15
3a51
3a59
098a
09c5
096a
094d
09ae
09ec
0991
09e2
3561
353b
3510
2540
251d
25ab
5e07
4e2b
4e72
4e49
4e77
4e2c
4e9b
4e9a
4ee4
4ee0
4eee
418a
4187
41e0
1640
162a
1a31
1a3b
1ac7
1a1a
1ae7
754e
758f
7543
7556
754d
7595
7592
755a
8e93
79c4
7949
7963
ce34
ceb5
ce6a
ced4
ce14
7823
78d6
7839
7841
7844
7894
dee7
def3
3f60
3f0d
3f0e
3fae
3fef
be19
bec5
bef0
a426
59fc
5951
59e2
2a21
2a50
2a75
2aca
2a72
2a9c
2a83
c568
c5b3
b5c2
b5ca
b582
b58c
297b
e56c
e5c4
e56a
e5c0
e51b
e59d
e555
e55b
a1cd
c9c1
c9e7
c95a
c9e6
7273
3634
fff5
ff3c
ff61
5f0a
5f79
5f8d
ae05
aeb8
ae8d
aeef
aefe
a9cf
a97d
a98f
a9ab
0c46
fa0d
fa34
faef
8985
89cd
894e
8929
eeb9
eef1
4ab2
4a0b
5a26
5a09
5af1
bfaa
bfc2
bfc9
bfcc
bf9d
bf95
fe74
fe65
fecc
ef8d
a548
a51b
7fcf
7f77
9eb4
9ee4
cad0
ca27
8831
fb60
fb0d
5540
55f4
5596
55ab
2665
2677
2878
287f
28cc
0d31
0da6
dac8
da18
9a2f
9ab9
95d5
95e7
2476
24ca
6d40
6d45
6d48
ea0c
4b06
4b78
4b2b
4bc2
4b20
4bcd
4bd1
afcd
8baa
8bcf
c63f
1b8e
1bc2
3df4
3d70
3d52
3d2e
3da4
3dc2
3dc9
3dc1
3d4e
3d25
d6d5
8270
1442
4d41
4d2d
61a4
618f
8d01
8d11
6401
64aa
64a4
6449
644b
6427
271f
27c1
3c06
3c57
3c08
3c16
484f
4823
48ba
48c5
48df
7b49
7b3c
1dcf
1d71
7750
548e
5b7b
d403
d436
d4d8
545a
ec57
ec36
ec7d
476e
4757
4774
6820
5040
6b0d
6b64
c16e
c13a
4674
46d9
4671
3b2b
3ba6
3bd1
3b3c
e12f
e18a
e1c9
e129
e10e
e12d
bdb9
bd4a
bb6d
db3a
dbba
dbd6
a617
a686
a67f
ccf4
ed0d
ed4e
53cd
5336
cd7f
e879
e8c1
e84b
e8b1
5117
510d
07b9
0711
07cd
eb03
9b50
9b34
9b7e
220f
2285
22a6
2279
3279
cb2e
cbc5
cb3d
d125
d1d4
4446
44d8
c835
c8d8
c838
a82a
5685
5647
b4de
582f
58d8
3070
3086
307a
30b3
f673
f68a
f634
b124
b1d3
428e
4265
a2c9
4c76
4c75
4c3f
e76e
e711
e750
dc2e
dcca
e639
2c01
1cb8
9831
4340
438e
4373
43d9
33be
e3d5
6338
b669
841f
8c06
bc23
bc19
bc36
fd40
fd36
9640
fc74
6746
67c5
1372
13cc
6252
d345
c746
c716
c7c9
b201
b2c8
f48e
f4df
1250
b740
b716
d771
d0c5
e204
23c5
87f5
70b8
7085
70b4
4075
4079
9301
9372
4819
481d
2051
2059
205d
205a
6363
636d
706a
c0c0
f0b6
9072
1aaa
07bb
305c
d8fe
617c
732b
475d
475a
e3e7
c1f3
e0e1
5472
f7ec
40fc
40f6
632d
1353
dcf1
409c
4094
409b
1015
13e7
7037
3787
5003
201a
7042
404a
3de3
3de6
3dea
22e0
22e2
1dfe
3d9e
3d94
3d9d
6263
7220
8b8c
e113
e1fe
1db8
4aa4
6479
ed55
e6e5
e6e2
ddd1
917d
222b
286f
4862
c4a0
a0f5
7577
1d15
1d12
1299
4dee
4bec
4b90
40e6
1cfd
3aac
403e
e194
e197
f254
f25a
70e5
48e5
246b
7092
d57f
d8e2
f6a0
f6a7
641a
5358
74e8
3175
96e0
3d58
3d5a
cde2
c023
c19b
649a
bdb1
bdb7
3dab
70ae
70a2
4cfb
4cec
4bf8
22be
5d9e
5dbe
52f5
c325
f1e9
4115
d02c
1d6a
3f56
5364
a79d
b4a1
a028
c6ed
df46
fbe2
ccff
c090
e15e
70f9
c767
c769
c766
83ec
e238
d89e
61e4
72e4
c163
e03a
586f
c7e7
4dfc
7f47
c6ce
e7f7
b39b
faae
adf6
e0ac
e0af
26c5
5813
d012
d01b
e464
2315
58e9
77ad
639b
b2ea
2cf3
3ff2
ace8
c1a5
f818
f812
6cf2
d007
9314
b111
b1f6
50e8
86c7
d17c
88e3
d754
d759
5579
5572
6ddd
cbf0
5758
74a3
74a0
336d
9f4f
d47c
d479
c17b
976d
5490
e754
42b0
d36d
d36b
c035
32a5
48fb
8da1
db51
88f3
a520
f316
8754
b015
c47c
ef42
af4e
6755
915d
8239
6dae
0d68
0c42
0c67
0c8b
0c98
093f
1c1e
10d2
133d
124c
1c91
1d54
1d5f
1d8b
2748
275f
272a
2a6f
2712
2718
2209
22dc
220e
2827
3574
3a4b
30d5
3c88
3d44
30d1
3d82
3bb1
33b6
3387
40f8
4606
400c
4714
4cd8
4649
4248
43d7
424e
4c6d
4c43
4d44
4ca7
4ba7
4509
4b44
4c69
4b4c
4d54
4789
473e
4409
5a69
577c
5bad
5d44
5cda
53b2
5a62
5a4a
5a43
5a4d
5734
5618
6806
64b0
60d5
6083
6a63
6344
64b6
6859
6184
740d
7743
76dc
70d5
730a
7727
7489
7889
7a65
7d5f
773a
7856
8c9b
8209
8484
8d0b
970a
9d4c
927c
9d87
9bb1
933d
9d54
9c28
a30d
ab81
a248
a40a
a7d7
a48b
a08a
a8a8
a73c
b30d
bc49
b7d2
b24a
ba42
bd5f
c311
c80a
c08d
c343
c3d2
c729
ccdc
cba3
c737
c689
c68b
cbb6
c782
c18c
c10c
dc41
d748
db81
d3bc
d88d
da6d
dcc0
dc5c
d384
d736
dcbc
dc87
dbb6
dbab
d8a0
d4b2
dc2c
e172
ec41
e4f2
ecd3
e648
e78d
e727
e4f0
ec15
e3c7
eca1
ec61
ec64
ec10
ec87
ecbb
e344
e509
ec5d
e65d
e4b7
eb83
e40e
e88f
e18b
e144
f311
fc29
fc94
f248
f28b
fc92
f209
f244
f739
f41d
f18c
02a6
02d1
02e7
02ea
01ce
01cd
01fb
01eb
038e
03ba
03d9
03c1
03bb
0388
03a3
0698
06e2
05aa
05a6
052e
05c9
05b0
051a
05e7
05f2
05ec
0597
08d4
08d2
08b7
08ac
0812
089a
dd11
dd0e
dd54
dd10
ddf2
ddfc
dd91
dd12
ddf0
170d
1736
17ab
17e6
0440
042f
0457
0421
04ce
0449
0425
047d
0466
044c
496c
4993
497e
49d9
4972
4909
493f
4937
4907
49ae
496b
49f0
499f
4959
49af
df2a
df0e
df27
dffa
dff0
df9f
dff8
dfe0
1009
aac7
86b9
86bd
86e3
86fa
2f46
f5cf
f5c2
f526
f5c6
f51e
f5d3
f507
f5fa
f51b
f50b
313a
318b
31b3
311d
7348
9403
9446
0b6e
0bb4
0a78
0ad3
0a83
0afe
6ecc
6e2d
6ee3
c20f
c261
c27d
c243
c299
c298
210f
7eb8
7e19
7ec4
7e49
7eb4
7ea8
7eed
7ee5
2b60
2bcb
852a
85a0
85f3
4f73
4ff5
4f39
4f29
4f67
4f14
e960
e978
e97f
e910
e991
e99d
e9e9
1860
1889
188d
6c64
6c8d
6ca0
2e75
2ed0
1f64
1185
11c4
119d
5274
81f0
998e
9904
99ce
997d
99f8
2f25
2faf
0e81
0e7e
0e6f
0e14
0e8d
69dd
6946
6941
6983
69a3
0fce
1960
1965
1968
1e1f
1e34
1e35
1e48
1e4a
1e2c
1e53
1e56
1e0b
6501
6540
651f
3e01
3ec9
3e1d
3e43
3e42
3e5f
3e92
2d40
2d94
2dfa
4506
4531
45c1
45c8
4538
4569
45bb
45c7
45f6
4562
45e8
7a85
7abb
7ac7
7ac3
7a7c
7a1b
7a9b
7a95
7a92
3401
3440
34db
34a4
342c
6f2e
6fd4
39db
3921
39cf
3993
3947
39c6
3975
3988
3954
3927
399c
3953
39b2
39fa
3983
3962
39f0
39f7
39f3
8a0d
8a3a
8a9c
d9c5
d97f
d9fc
b90d
b986
b951
ba35
babc
ba5a
d506
d516
d536
d5da
d5d3
d5b3
d562
d551
15d9
3a40
097b
09de
0969
09b0
096b
090c
3549
35f9
25a5
5e57
5e21
5e4d
5ee5
4e85
4e71
4ecc
4e48
4eb4
4ed2
4e53
4e4d
4e99
4e62
4ef8
4e0b
41bc
41a0
1af5
1a7f
1a38
1ab6
7554
7566
7558
755c
7583
759a
8e89
8e53
8eef
7976
7971
7977
79a9
ce01
ce7b
ce54
ce96
78aa
7885
78ba
7836
7849
78ff
78c7
78c3
78b6
784d
78f0
789f
deba
deda
de29
de33
de3c
de44
deac
de9d
def7
3faa
3f32
3f66
be2f
be2e
bed5
befd
bee1
a449
a448
a433
5964
599c
2a8e
2a7e
2a82
2aed
c570
c552
c56a
c561
c51a
c58d
c542
c555
c55a
2949
296d
e58e
e5db
e552
e5be
e569
e55f
e512
e59f
e5f8
74d8
7429
7443
a101
a186
a1b5
c921
c946
c9ca
c9c8
c949
c955
c96b
7232
3628
ffaa
ffcf
ff11
ff1f
ff26
ff07
ffa0
5fd9
5f3f
ae74
aed6
ae4d
ae9f
a9cc
a9a7
0cc1
fa2a
89db
8912
ee03
ee52
4a2f
4a70
4a50
5a23
5a33
5a5d
bfd3
bfac
bfae
bf90
bfab
fe60
fe45
fecb
fe89
fe1b
efef
a53e
a5de
a5c8
a5cc
7f22
7f2b
7f28
7f10
7fe9
9e7b
9ecd
ca7a
cafc
ca9a
cae5
8839
6a14
fb27
5506
55e2
268e
2670
2678
26ba
2833
2877
f940
f9fa
dadb
da45
da52
da88
dae2
9ad4
9a99
8fb0
9501
9540
2440
c486
6d01
6d6c
6d2e
9fd0
4bcf
4b24
4b74
4b34
4bba
4b75
4bb5
4b72
4b4b
4b0e
4b7d
8bc9
8b28
c6f4
7668
7672
1b0d
1b52
3d01
3d2f
3d3a
3da6
3d08
3dc8
3d29
3dc0
4761
4764
4768
d670
1486
14a6
1481
143e
14b5
143d
4d40
4d36
4d2a
6131
8d75
6445
6416
6434
644a
2732
278e
2772
6166
3c7a
3cba
3c7f
4878
48b8
4821
483e
48c1
48b5
48da
4877
483d
7bde
7b3b
1d03
1d8e
1d76
1dc5
1d0e
1d33
1dc7
1dc3
7757
777f
5445
5b46
5b2c
d411
ecf4
ec6e
eca6
ec93
ec2e
ecca
ec3d
478e
4746
47c0
6878
6841
68bb
6842
5075
6b6c
6b16
6b4e
6b61
c160
c145
46aa
4645
463d
e120
e1d8
bdc2
bdc5
db4b
dbc0
a671
ed7e
ed71
ed4a
5340
5393
53c1
e4ce
e4d8
e441
e427
cdc8
e8ba
e836
e8b5
e83f
e8c0
51dd
5193
0774
5c36
9c40
9103
912a
ebc1
9b7a
9b0a
6640
6639
22c2
3273
cb0d
f105
f1a6
d82b
d845
d820
d82d
5d71
5d25
4436
44c1
7a42
c8dd
c871
a842
5634
718a
abca
b4d8
b4c3
adf4
adb9
ad74
ad4e
ad29
7d21
7d11
7d2e
5848
30bf
30bd
30b7
f6db
f678
f623
f63e
b13f
b129
ac85
ac74
e7d1
dc52
dc34
dc77
e670
e686
e685
e611
e67a
e66a
2c0e
1c86
1cba
4334
e347
6345
63c1
7cba
9d71
84b9
8439
a214
8c0d
8c11
bc06
bc35
bc39
f8cb
fd32
fd8e
9650
fccf
fc11
6270
62de
62c0
627d
d3cf
d3f5
d3d8
d3bf
c7da
12dd
12c2
a723
a7c7
577a
b703
b775
d760
d716
d072
e2b9
e247
e2ce
87c9
7078
707f
707d
40b9
40ba
40b5
40b3
a347
60b4
b350
c37b
9350
2042
204b
f340
e078
c08e
1040
107a
7262
4f45
f040
0739
a0b7
206c
907f
ecee
1aa9
1aaf
400b
ec9e
07ba
202d
e351
2267
4759
393f
075e
a09e
07a2
f7e3
f7ef
f7eb
0aac
40f1
6f51
1351
dcfa
37b1
6d64
4098
079d
465c
3ddf
2013
8211
821d
8212
4065
3def
1df1
1dfd
1dff
6866
626d
f2ac
32e4
bdd1
bdd2
722b
3471
e111
e112
e11a
40a9
22f3
22fe
4b8a
e1f7
1db7
16e6
6471
ed5c
c00e
e6e7
4164
4169
416d
e29d
5066
b00d
e321
c4a5
a0fc
a0f9
c528
e495
e497
e499
e394
e2b4
221a
4be8
4be2
3df2
0de3
1cfe
1cf7
9b9e
6459
4055
405c
4057
d6e2
c11c
e3ac
e195
46c4
a490
d1ec
d055
d05e
7b9e
c491
c49d
f6c5
f6c1
7094
d8e7
f6a2
e1a1
d7e3
d7ec
d7e0
96e1
1d95
e79c
1dd5
1ddc
64e9
64ef
e2e5
3d55
cdee
d6c6
6028
f29e
7012
3da3
3da8
e697
d1f9
4cf0
4cfa
4bf7
9cf3
9cf0
c1e3
3cf0
3467
07fc
1bec
5d90
9ce1
d811
c3e0
5cee
d3ef
f1e5
16c1
1da7
1da9
2aa8
2aaa
28e9
5020
0df3
0dfd
82b7
1d61
1d67
1d6d
1d6b
3f5b
6791
24e5
e063
e06d
d2fb
c6ef
d3a9
3d66
7be2
e235
e179
1069
106d
e095
c2b4
c2ba
5b90
e036
e251
e259
47fd
bffc
bff1
c7ef
e8fb
18e8
18eb
87ef
abe7
4df6
4b58
7f43
82f9
faaf
66a5
adf1
bcf9
4d98
c69f
66c5
9890
9898
989b
43e0
a7bd
122b
cdf8
cdf9
c79d
d6ae
a32c
e41e
e41a
429d
8469
a042
ade3
f069
8451
f058
8496
c86e
c048
c7bc
c0fc
61fe
cda9
6233
6def
8ddf
3358
20af
8864
92bc
92b7
d758
f869
4d6d
d7ff
14a8
74ae
831d
8f5d
1458
1459
1395
e4a8
604d
6046
876b
c057
58f7
bf43
c0a5
d767
60a5
9f51
9f5f
d23d
d23b
64a0
5169
d362
96ac
4698
a46b
aff0
c57b
4579
4572
7528
a52e
fd68
ad61
5f5a
90a8
9d68
1527
ed67
7da3
cd6d
5df2
5da5
77f9
a755
552e
857c
9168
0cd1
0c94
0d8d
0715
072a
077c
0d83
0d89
0cde
0cad
0d88
13c7
1084
1c4d
1689
150b
20d8
2714
2256
271e
2c07
227c
2729
228d
20d3
224a
260b
2b89
24b7
2933
308b
364c
3690
33bd
3c90
3cd2
3c8b
30d4
3cbc
3c1a
3643
3c99
365a
364d
4806
401c
4d5c
4083
464a
4b14
4c15
4c68
4cc0
40db
4242
43d4
4289
4c91
4ba1
4b63
42d2
48a2
440f
48b7
5c51
550a
540a
5b8d
5c9d
568b
5784
5349
5a49
5887
5852
5b5d
6748
667d
664e
6087
6889
6687
6785
6807
6852
74a2
72b5
771e
7b14
7bb6
70d2
74fc
724c
7b44
74bd
748c
7939
7658
7859
8741
8c48
8b4d
8f48
83c7
8443
8735
83b0
8487
838b
8408
9305
9405
9d8d
9c6b
9ba7
9c99
9509
934a
98a0
925a
a704
a38d
a3bc
a727
ac14
abad
ac9f
ac6d
a3d3
a41b
bb6b
b6dc
b3bc
bc14
bc58
bcb4
b0db
bc9d
bc13
b0d0
b936
b6f6
bb0c
b613
ba44
c0f8
c221
c0d8
cc94
cd4c
c728
cbac
cd83
c308
c644
cc0b
c08c
cb1a
ca42
c65a
c30c
c6fc
c6fb
c4bc
c651
c855
c888
d705
dc20
d0d8
d348
d248
d083
d78d
dcd7
d71d
d708
d80d
d737
d68b
d3d4
da42
dcc3
da62
d61a
db83
d8a1
d6fb
e4fb
e02f
e709
e348
e72c
ed4c
ec14
e0d4
e24e
e28b
e443
ec1a
ec4d
e3b6
e68b
e307
e8a9
eb8f
e614
ec25
e349
e933
e80b
e858
f60c
f08d
f64a
f67d
f65c
f6f0
f68d
fbb1
f3b2
fc91
f6d4
fa67
f6fc
f615
02f4
02df
02c3
02a7
01bb
01c0
0195
01e8
01e6
0386
03d1
06f5
06da
069a
052f
0519
05c6
0582
05dc
05d3
059c
050c
05ab
08ba
083c
08c3
08bc
08e7
08ae
08e5
ddba
dd71
dd6a
dd67
dd4c
dde0
ddea
1740
178e
1721
174e
174c
0448
044a
04c0
04d0
491f
4935
4961
49ac
49ec
49a3
49a2
49e1
df22
df31
dfc6
dfc4
dff5
df79
df3d
dfc3
dfb3
df1d
dfa8
df91
dfa7
df6b
dfa5
dfe8
aa7f
aa25
aa18
aa8b
8685
8634
8620
8629
86ff
86b6
8643
f53a
f5d5
f5da
f56d
f57d
f598
f5a8
db9a
310f
316c
31a3
73d3
9432
9457
94c6
94b5
94d8
9463
941d
949b
0b1c
0bf7
0ac1
0a0c
6e01
6e8a
6e89
6edc
c250
c248
c289
c290
c29e
c296
c2a5
2140
21b9
2120
21f5
21ca
2115
2127
2194
21a3
21e0
7ec0
7e37
7edc
7ed2
7e07
7eea
2ba4
2b7e
2b48
2b6d
2ba9
855e
8584
8512
85a5
cf74
cf29
cf6f
cf66
cf9b
4f21
4f72
4fdc
4ff2
4f5a
e9d8
e948
e99b
e998
18d6
18c3
189a
1895
6c36
6cac
6cab
2eb8
2e26
2e3c
2efc
2e59
1fc6
1f35
1f36
1f1e
1f5f
1140
11bf
1133
118d
1195
526f
526d
52dc
5255
81bf
81ec
81ef
99aa
9903
9961
9954
998d
2f22
2f76
2f65
2fe7
2f59
0e0d
0e47
0e7d
3009
080e
080f
6985
6949
69f6
6951
0f73
0f85
0f6d
0fb4
0f66
197b
19bf
19e7
19e3
199a
196b
195a
1959
1e31
1e3a
1e2e
1ecd
1edf
1e3b
1e55
1ea3
6586
6516
6589
65b2
651b
659a
656b
3ea6
3e76
3e3e
3ef5
3ec5
3e41
3e67
3eb1
3e8f
3e44
3e7c
3eb3
3e5c
3ea8
3e0c
3ef9
2d20
2d49
4560
45b8
4511
45be
4548
458f
455f
a110
7a70
7adb
7a78
7a36
7ab6
7ab2
7a87
7ae4
7a96
7a5b
7af9
343e
34c4
34d3
3496
6f7b
6fc2
6f39
6f63
6ff6
6f9d
6f0c
3903
390f
3957
39a4
39c2
39b5
3928
3929
3941
396a
390e
391e
39b4
39d3
3943
39f6
39a9
399a
39ef
395b
8a05
8a8c
8ae4
d911
d916
d948
d9b4
d9f0
d959
b940
b970
b945
b9bb
b961
b9c0
b943
b9f6
b997
bad0
d5f4
d570
d585
d545
d5a4
d5c2
d549
d5c7
d51a
d5b7
d5fe
158f
151a
1514
159d
3a38
3a1b
0973
0914
09b7
0907
0962
09ea
3560
3532
3539
3538
35b3
35f8
250d
25ca
5edd
5e3d
5ed4
5e2c
4e52
4eb5
4e56
4186
4108
41b4
4127
41a1
41e9
41a2
16b9
1650
1a11
1ac2
1a19
1ad6
1a8f
1ad3
1a5c
754f
7535
758b
754c
8e8a
8ec5
8e42
8e1b
8ef0
8ea2
7931
796e
7974
79c5
791a
7999
7995
ce6e
cec9
cec5
ce88
ced3
cee6
7847
7875
78c1
7872
7829
78dc
de1f
ded5
deb0
dedc
dea0
de1c
defc
de12
dee9
3f85
3f35
3fd9
3fbd
be46
be71
beff
be2c
be7c
be8c
be92
bee4
a486
a48a
5906
5952
59ad
2a70
2a7c
2a84
2a90
2afd
c53e
c5f5
c5cc
c569
c5d0
c55e
c558
c56b
c559
c5ea
b504
b548
b5b0
29c2
e593
e581
e54a
e53b
e554
e5d0
e518
e5ac
e590
e551
7486
74bf
a193
a1d1
a148
a18d
c9b8
c923
c9a4
c925
c92d
c95c
c987
c9ad
c99b
c9e1
72d8
3657
3669
ffdd
ff0f
ffbf
ff1c
ff9f
5f40
5f8a
5f69
5fa0
ae78
ae15
aec0
ae27
a914
a9a1
0c03
0c0d
fa3a
89b0
ee11
ee2e
eefd
4af8
5a40
5a31
5a45
5a2a
bf8e
bf6e
bfa6
bf8a
bf1a
bf91
fec3
efd2
a5d8
a569
a55e
7fb3
9e50
9e64
9eec
9ef3
ca06
ca04
ca75
cab3
ca55
caee
88cb
6a35
6ab7
6ae7
fba4
5553
55a9
555b
2672
267f
266a
2875
0df4
0d86
0d6c
0d71
f905
f97b
f9f6
daf4
da3e
da36
dadc
da9c
daf0
9a3e
9a0a
9ab0
8fde
8f1a
95c0
958d
95a1
95e4
7462
246c
24d1
2448
c421
c481
c4d5
c4bf
6d11
6d49
6d25
6d3d
ea40
ea31
eac8
eae3
9fd9
9f27
9f99
9f6b
4bf4
4b31
4b73
4b76
4b64
4b4a
4b67
4bc0
afd0
af8d
afa0
8b04
8bd5
8bcc
8b15
8b7d
c68e
c627
1b23
1b16
1b19
1bc1
1bd1
1b61
3d60
3d45
3d65
3dce
3df5
3d35
3dca
3d48
3d2c
d624
d668
d671
82dd
827b
82c9
1432
1478
14b8
142a
14c7
4dcd
6140
61c2
61c1
6149
8d40
8dcd
8dc1
8d7f
6485
64ba
64d1
643b
64d4
6437
2722
2731
272e
277b
27c2
2720
27c9
616a
3c22
3cc4
4803
48dd
48a6
48d6
48d0
4844
4842
484d
7b4f
7ba6
7b25
7b7d
1db9
1da6
1d74
1dc2
1dcb
5440
54d5
5436
5b40
d43c
ec32
ec6c
ec78
ecc2
ec75
ecc1
ec38
477a
47f5
47c9
5076
6b45
6b79
c140
c1de
c1b6
4660
46a6
3b34
3bc5
e140
e18e
e10d
e136
e1d9
e1b4
bd2c
bba6
bb65
bb6f
bb27
6762
db86
db20
dbc1
dbc8
dbc3
a634
a629
cc01
cc2b
cc7a
ccca
ed40
ed16
ed20
edc8
ed2c
5385
5346
e478
cd25
cd27
e885
e83c
e84d
516e
51cd
07ce
07df
5c45
5c52
5c8a
9c78
91d1
eb0d
eb74
ebc4
9b19
9b36
662b
6611
66d8
6671
6663
2278
22c6
22ca
2272
3270
cb2b
f140
f16e
f1d5
d8cf
d881
d185
5d11
5d48
444e
4429
c845
c8df
c87c
a8aa
a822
56dd
5672
5628
5661
7160
7148
20c3
207c
b4ca
b43f
b4cc
b4c7
7d7b
7d19
7d79
5870
583e
5871
f635
b186
b1b8
b141
b1d0
42f4
42d8
ac40
4c22
4c70
4c21
e723
dcb9
dc31
dca6
dcce
e6aa
e63e
e669
2c40
1caa
1c45
1cc2
1c36
98aa
98c5
98d8
43d5
43bb
3374
e332
e36c
e33e
e336
e3d6
63c2
6334
63c9
b6aa
b646
b671
7c40
7c0f
7cce
84c2
84d6
8441
844a
842d
a212
8c3a
bc05
f8c1
962b
fc40
fc85
fcce
13c6
1377
6285
6245
d381
c750
c779
f485
f41f
a7ca
5740
578e
577b
d0b0
e28a
e2c5
e2c8
2370
23db
237a
8745
7076
70c4
7077
70bb
404f
4093
407b
4077
40c0
f2aa
f257
f285
f757
6040
d201
d240
d2c5
b3bf
4023
c3d1
9334
9278
92cd
481c
4811
4814
481f
2058
f37e
e0b9
e0ca
322d
c0c1
10c2
b07b
a0cd
ece3
1aa8
646a
400d
d8f6
e055
effc
8d10
8d12
2262
4755
e3ef
56e5
c1fb
e31b
0aad
40fb
4363
4362
409d
5041
83ad
83a6
4658
3dd4
5006
406c
704c
704d
7046
90ef
3dec
22e3
22e8
1df8
1dfb
3d90
c228
489c
4891
6264
0763
bddd
3474
347f
347a
e11b
2496
e4e2
229c
6475
c003
e471
416b
d154
d15d
917f
2227
47ec
47e9
82a3
2867
7b5a
4861
66e3
7234
757e
c524
c526
7025
e2b0
a684
221b
3dbb
4bed
4b9d
4b9a
7868
3df3
3df8
3df7
40e3
ecf2
ecf6
0de5
1cfc
1cf6
9b98
0dde
0dd4
275e
d6ee
d6ed
2251
c11f
4038
e86c
e3a1
e3a7
e190
f255
f251
46cd
e011
e211
149c
48e6
7b9d
d8ed
e48f
641c
5359
cdd8
dbe7
c2f0
cdb7
dce5
dce0
e79f
14e5
14e3
247e
2477
4465
4469
78e4
1dd0
e2ee
e2a8
3d53
3d59
c195
c198
bce3
f694
6496
e023
d398
d39f
e1e6
70a1
ccea
4cf7
8327
b0ee
caa3
4bfd
22b2
4dda
4237
423f
423b
e6c5
835e
e041
1cef
1da8
2aa1
3be3
d027
d2e6
e16b
1d62
2174
0ce5
24e0
5362
e069
22a9
d2f1
d04c
2b9b
e154
e15a
3d61
3d69
3d6d
70fc
7be6
e234
fdbe
7dbd
c3a2
e76d
d16f
d4e7
d892
72ef
8cfe
c168
586d
c31d
f21a
2038
47f7
e0fc
e8fc
18e5
87fa
4b55
5ddf
b7e7
0d9c
0d94
43ab
66a0
8be5
67e3
82e0
d2be
d2bb
27a2
331a
4d9d
56c1
8dee
a81f
a3e1
d014
d451
d458
d1a2
e462
e466
fb9d
71e4
9dd6
9395
e6a1
e6ab
121a
edb3
f2ed
6190
6097
83fa
2cf6
44ed
a328
d7a3
10f0
289b
ade7
2235
681c
711a
9db1
f066
f7a7
3f4d
8456
53f2
f052
fcf0
12ed
32fc
b325
4855
d7b6
147f
c0f5
d69f
fddb
7792
a05a
a2a8
623d
12be
12b2
20eb
6359
6be9
b6cd
c45a
5038
97a0
fbf2
fbff
3219
5753
5754
5759
14ad
c6a3
71fd
2579
4471
a6ad
fd9e
8764
c05a
f1a5
20fc
44a9
6159
7ff0
ef54
5234
523f
d766
91e0
4da3
4da9
d0fd
72a8
f45a
32ab
92a9
b034
affc
91a7
b7a0
f0a3
98fd
0f4a
ed15
6012
601a
cd10
d525
5d1a
e52c
bbfa
5f5f
c35d
24a5
24a9
36c5
b15b
ad1b
cd66
f769
f4a8
0ca1
0c10
0d0c
0d44
0d5a
0781
1170
150a
1bfb
1649
1d4c
1d43
1a6f
1d83
1d4d
1cda
1389
1cbb
1b8c
1935
14ff
125a
20df
26f2
2715
27f0
2713
268d
2384
2644
2089
24f3
2c63
22d0
2a6a
234c
278a
28a7
26f3
3cd1
330d
3382
350a
3f48
3c89
3c9b
33c7
3cb0
3c1d
3c55
3644
3c6d
3d0c
334e
360d
3341
3d0b
48a5
403d
4c42
40d5
474b
4c44
4337
4712
4b42
4087
46d4
4a4a
4785
4a4d
4d5f
473c
4a41
4739
488c
425a
441b
48d2
5865
5df0
5d8d
5f41
538d
578d
57d4
5d5a
5489
5487
5659
588f
566b
6288
671e
674e
6baf
64b4
6d5a
634e
63b0
64bb
673d
6a4e
680c
6483
66fd
688b
6b59
644c
7865
7c5a
78a5
7d8d
778d
777c
767d
7cdc
7c61
7d89
7249
7781
76d7
7738
7a6a
7c1b
78ac
7cb6
78ad
78ae
7144
8854
88a5
8406
888d
83d2
828d
8c1c
8308
848b
8bab
8284
8349
848c
8d8b
8342
8a4c
9606
94fa
9743
9c15
928b
9d0c
9c43
934c
96fc
9a61
96fe
910b
a018
ac62
a283
a2b5
a28b
abbc
aba7
a389
abd4
ab8f
a6f7
a734
ac4b
a85b
a662
bcd8
b715
bd43
bc15
bd83
b68d
b64b
bc64
b242
bbb0
bbb6
b0d2
b788
b284
ba4a
b653
b415
c30d
c714
cb54
cf41
c715
c64a
c742
cc55
ccbc
ccda
c889
ca48
c80b
c733
c939
c8ad
c883
c88b
c41e
d00c
d604
d404
dc1e
d2b5
d67c
dc6f
dbae
d3c7
d0db
dc9d
d443
dc96
dc64
dc27
dc4a
d387
dc2d
d60d
d34a
dbbd
dc9a
d287
db0c
d6fd
d184
d8b2
e8ec
e605
e23a
e704
ec20
e382
eca0
e60a
e74a
ec8b
e74e
e7d7
ecd6
e684
e644
e37c
eba7
e407
e4f8
e935
e34e
e289
ecc7
e788
ecb3
e6d3
ebbd
e6fc
ed8b
e20c
e609
e683
e73b
e3b3
e44d
fd6f
f743
f65e
fc90
f256
fd5c
f78d
fc9b
f7d2
fcd7
fc88
fc9c
fc9f
f64b
fd5a
fcbb
f0d0
f6d3
f782
f6fa
f3b1
f607
fa43
f34b
fd88
fd5f
f8a8
f853
f40f
f184
02d5
02ca
02de
02c8
02cb
02b6
028b
02fa
02ed
02e4
01cc
0182
01fa
01f1
01a2
03c2
03c6
03ca
03de
03c3
0394
0387
03f9
06d6
0688
06c7
069e
0695
0540
0547
0535
05d6
05c1
0571
05a1
05e5
05f9
087b
08c9
08de
0861
0827
088d
08a9
08f0
08f9
08e1
dd16
dd74
ddc6
ddc5
dd7e
dd29
dd25
ddcb
dd88
dd18
dd66
ddb3
dda0
ddad
dd96
dd51
dda3
dde5
ddf9
dde1
dde6
17cf
1761
178f
178d
1753
04aa
04b9
04c4
04c9
04ca
0488
042d
0453
0443
04a0
04ae
04a3
492b
4924
49cd
4979
4954
49e3
4994
49a8
499d
dfc0
df37
dfdc
df10
dfec
aa7a
aa7b
aaba
aab6
aad7
aae3
aa5d
aaf9
8623
867b
864e
8689
86ef
8655
f508
f5cb
f599
f591
314f
31c9
31c8
3141
312d
3182
3112
31ed
3192
3155
31fe
310b
73aa
73c6
7341
734b
73e7
73ac
9411
9438
942d
0b40
0b1f
0bbf
0b6a
0b4a
0bf0
0a49
6e3a
6e19
6e71
6eef
f4f1
f4f6
c2dd
c265
c2c8
c26f
c2e3
c2ad
c29f
2116
213e
2139
21bf
216d
21a0
219f
7e7a
7e48
7e13
7eee
7ee2
2b22
2b0d
2b45
2b34
2bd8
2bd2
854e
8589
8598
8596
8551
cf03
cf06
cf6c
cf1f
cff5
cf0c
4ff4
4f0d
4f31
4f24
4f65
4f19
4fb6
4f10
4f9c
4f98
4ff1
4fe0
4fe1
e903
e940
e92b
e968
e97d
e91a
e9b3
e999
e99e
e577
3029
18f4
18c6
18d1
18bf
183c
18bd
18c7
18fa
6c2f
6c85
6cce
6c71
6cb0
6c1d
6cad
6ca1
6c91
6c9a
2e2f
2e46
2e2e
2e8a
2edf
2e88
1f2f
1fc1
1157
11c8
1129
11d0
11b7
1184
11a5
52c4
527e
5254
52e4
81ba
81da
816f
8198
81e9
99b8
9973
9911
998b
99ad
99f0
990b
2f2b
2f10
2f53
0e40
0e50
6945
6920
6969
6943
69e3
69a1
69e5
695b
0f40
0f81
0f08
0fcb
0f53
0fe5
1911
19d0
1e23
1e21
1eb5
1e38
1e67
1edc
1e8d
1e1b
1e12
1ea5
1ee8
6519
6539
656f
653d
3e78
3e11
3e26
3ecd
3ebe
3e3f
3e2a
3e77
3e89
3e63
3ead
3e51
3e5b
3ef3
2d85
2d64
2d41
2d6f
2d4c
2d87
2da8
2de2
4570
45b9
4573
4552
45a4
456a
454a
4558
4590
45f9
a112
7ad5
7a7e
7a88
7ad4
7a27
7a8d
7a90
7a55
7af0
7ae9
7a0c
343a
3476
34c8
34d4
341d
3499
3490
6f32
6f57
6f79
6fe2
39f4
3923
392b
397b
3909
39cc
396f
398f
39d4
391a
39e7
395f
395d
39a5
8a40
8a26
8af5
8afb
d9bc
d9d7
d9fa
d95c
d99d
d9ab
d9fe
d90b
b96c
b989
b982
b914
b9d3
b95e
b9ec
b9e1
bad5
ba75
ba0a
badf
ba89
ba8d
ba9c
ba5d
ba92
baea
d532
d531
d566
d590
d5f0
d55a
1540
155d
1597
156b
15a2
3a70
3a78
3ac6
3ac1
3a33
3a1e
3a92
0986
09ba
0968
09b5
09fb
3534
3564
351a
358d
35e3
35f1
35fe
25f5
255e
25a3
5e03
5e06
5e78
5e52
5e41
5e44
5eb7
4ebf
4e96
4ee8
41aa
4132
4122
4106
41c6
4136
4138
41cb
414a
413d
415c
41ac
41eb
16dd
1671
1633
167d
1a7a
1a16
1a20
1acd
1ac1
1a25
1a33
1abd
1a8b
1a10
752f
7585
7541
756f
7582
7542
75e4
75fd
75e2
8e01
8ed5
8e91
8ee1
7947
79d6
7972
7915
79f8
cec1
ce4e
cef0
cef8
78f4
78a6
787a
7835
787e
78cb
784b
78bb
783c
78c0
78d4
787c
78f1
de06
de46
de0a
de6f
de2d
de6d
de3d
de7d
de89
de8d
de66
de94
def6
defa
de9a
de95
de5d
defd
dea2
3fc1
3fbb
3f6f
3fd0
3fd3
3f1b
3f8c
3f96
becd
be79
be37
be8b
be1b
bef1
bef3
a4aa
a485
a42a
5932
59c6
5975
5979
594c
595a
2a11
2a15
2ab3
2a5a
2af3
c501
c5aa
c503
c546
c5d1
c56f
c567
c582
c5d4
c59c
29c0
29f0
e531
e52b
e546
e5de
e5d7
e5a0
e5f0
e5e0
74b9
7431
7478
7481
744d
a184
a1ab
a1e1
c94a
c9c7
c943
c958
c9f8
c9e9
72cd
a222
36ba
3625
ff2b
ff04
ff16
ff6d
ffb0
ffe3
ff90
5f57
5f9d
ae31
ae72
aeff
ae58
aefd
aeea
a9d4
a95b
0c39
fa1f
fa8a
fa8f
fa51
8921
8943
89f8
eec1
ee62
4ab9
4ab8
4a81
4a45
4a36
4adf
4ac8
4a29
4a82
5a60
5a32
5a50
5abe
5ab0
5a37
bfba
bfb4
bfec
bf9e
fe46
fe35
fe2a
febb
fee3
fe9e
feed
fea5
fe59
ef21
efe9
a536
a5d9
a5c0
a5ac
a5ae
a5e4
7f08
7f3f
7f6a
7f0e
7f2d
7f15
7fc0
7f1d
7f12
9e16
9e33
9e5e
9eef
9e5b
9ef9
ca86
ca73
ca29
ca3d
ca1a
cab6
ca5a
882a
8841
8848
887d
887c
6a40
6a6e
6a16
6a3e
6a20
6abe
6a72
6a2c
6a5d
6ae6
fb7b
fbc2
fbd5
5560
550d
5523
5534
554b
55a8
26b8
26a6
2611
267a
2619
266f
266d
28bf
2871
282d
2844
0d8e
0d78
0d52
0d16
f9db
f989
f9dc
f951
da16
dada
dab4
dab7
da1d
dae3
da9d
dae4
dae0
9a52
9ad5
9aeb
9a51
8f2e
8f34
8f6a
8fac
956c
9548
95e3
95e9
2460
2473
24c8
c426
c4b5
c43c
6d6e
ea70
eac7
eaf0
9f0d
9f21
9f11
9fc9
9f09
9f28
9f6a
9fb0
9fb7
9f1d
9f87
9fea
4b6e
4bd9
4bbf
4b3c
4b15
af24
af75
af09
afcb
af18
af9b
af8c
8b22
8b4f
8b2e
8b35
8bc3
c681
c668
c6de
c638
c63b
7650
1b40
1bcf
1b7a
1bba
1b72
3d6c
3dcf
3d46
3d28
3d38
d686
d636
d672
d6bb
1460
14d8
4d0f
4d23
4d81
4d3e
4dc2
4dce
4d77
4d3d
6123
6133
61c7
8d0f
8dc2
64cf
6446
64de
64bf
64d0
2701
27d5
3c6c
3c31
3c78
3c23
3cc9
48aa
4870
4893
4824
4874
48c6
4820
48cd
7bb8
7b2e
7b19
7bc1
7b4e
1d01
1daa
1d22
1d81
1d19
7752
7779
7772
54c8
5b0d
5bcd
d423
d4c9
d435
d428
ec8a
ecc5
ec79
ec71
ec33
47dd
47a6
684a
6b22
c1dd
c10d
c131
c157
c136
c1c8
c188
c1b1
c137
c1bc
4616
4639
467f
462d
46b1
3b32
3b2f
3bb8
3b45
3bc8
3b33
e121
e104
e1ce
e1d6
e1cb
e1b0
bd60
bd03
bd8e
bd93
bdc1
bdcc
bb7e
bb36
bb39
bb09
bb3f
db57
db65
dbce
a660
a66c
a631
a6d9
a672
a669
a6bc
cc78
cc16
cca4
ed22
ed11
ed19
ed34
ed48
53aa
e401
e486
e431
e416
e42e
e425
cd40
cd06
cd3f
e8b9
e876
e82e
e87b
51b4
076e
0724
0719
5c73
5c7a
5c24
5cc6
5cd5
5c34
5c77
916c
91cd
91d7
ebc2
9ba6
9b3e
66b8
66b4
2270
2275
22d9
3285
cb8e
cb08
cb45
cb47
cb68
cb3f
cb2c
f1cf
f1da
d84f
d8f5
d8d8
d871
d8c0
d18e
d10d
d10f
d13f
5d40
5d3a
5d77
4476
7a4c
c874
a826
a828
a8b0
a843
567f
5669
5633
7146
7138
7149
ab01
ab47
abbe
abcc
20a6
b431
b4a4
b4c8
b441
b433
ad20
7d0d
7d2b
58c6
5825
58b4
f6aa
f6f4
f622
f68e
f62f
f619
f661
f637
b1c1
b138
b1b3
4260
4272
a250
a27b
4c73
4c81
e720
e7d8
dc22
dc78
dc47
e6a6
e676
e624
2caa
2c7a
2c75
2c09
1c08
1cca
1cc8
9803
9829
98c7
4332
437e
33b9
333a
3375
e378
e33a
e3f5
e379
a23f
b663
7c7d
9dc9
84cd
84cb
8c40
8cc6
8c3d
bc78
bc2e
bcc5
bcbe
f840
f822
f881
f834
fd78
fd38
9670
961f
fc34
fc7f
6706
1303
1357
1346
13cd
1335
13bf
6247
d346
c703
c774
c726
c7d1
b20d
f42b
12a4
a740
a74f
a71f
5786
5716
57ca
b7b9
b724
d7a6
d7c0
d0b7
e201
e205
e27a
e2df
e2d8
2385
8706
8772
7060
70b5
70b0
70b6
707c
4060
4032
40dd
408e
4076
4072
40b2
a3c1
a3b5
f2b8
f281
f2c0
f711
f7ca
6032
60bf
8340
83ba
83d1
d28e
d257
d247
d2cb
b33a
b3cb
97da
9365
93ca
93cb
9252
92df
92cc
481e
2049
f365
f371
6938
e074
e0c4
e0b5
e071
706d
c0f4
c0ca
10bf
7268
4f4d
b081
b079
b0b0
b0b2
a0c6
a0c4
a0b5
ec94
07b3
3055
3059
202c
2024
d8fa
c235
c238
c236
747a
e059
4756
1025
776a
8b95
8b92
c1f1
a064
a06a
e0e9
e314
40fe
40f9
dcf6
41fd
4367
6d1c
f223
5049
504a
7001
7176
4653
4654
465d
3dd2
5008
822a
4069
4046
3de9
22e4
22e7
22eb
3d97
3d99
8b89
347b
e110
b09e
40ab
c7a5
c7ac
c7ae
22f0
4b89
4174
1dbf
4aa5
4aa9
16ea
16eb
606e
6474
d213
6529
c005
c00a
c0e5
c0e4
c0e8
c0ef
f2f2
146b
9179
2226
2767
e328
e322
4867
66ee
7239
7575
757b
e39d
3db5
4bee
5325
4b9b
7862
3dfa
ecf5
ecf0
ecff
1cf2
3063
3068
306a
9b9c
9b9f
645c
6458
7052
275a
d6e9
225b
c118
1327
401f
bde0
bde2
70e0
70e7
e210
1496
48e7
48e9
781e
7816
f6c9
f6cd
1115
111f
2466
e482
c4e4
e8ee
535b
cdde
cdd0
d7ef
c2f5
c2fe
c2f2
1d92
dce6
e791
4462
78e7
1863
186e
4397
64ec
e2ef
cde8
d6c1
d6cf
c025
c191
f69d
f69f
e02e
e028
e02d
3b9e
3b90
3dae
e69f
cce8
cbec
8326
b0e2
f0ed
22b3
51ff
9cf1
e6c7
3464
76ea
07fe
1bed
5d9a
5dba
8351
e459
e45a
daa4
d3e5
d3e6
16cf
28ee
4112
921f
0df1
82bd
82b6
9aa4
e16d
1d63
1d66
217f
0ced
24e6
5361
d2f5
d047
e3fd
b061
d3a0
f02c
fbef
07e3
ccfb
3d62
70f3
c764
d794
d29d
fdb5
fdb2
5761
5769
97be
e17b
106f
e76f
d064
13fc
2099
2394
7ddf
7291
c164
e25e
5866
5218
904c
9047
c313
8ce9
a4e3
e8f0
e8f2
18e3
749d
87e3
abec
dbf3
dbf1
dbf9
1053
4795
87f7
4dfe
7f4c
905c
c6c8
e7fd
43a0
ada5
adac
ada9
adaf
b398
10e8
30a3
adfa
bcf7
d315
d31e
e0a0
879e
cd9e
605d
6d99
bb93
d011
66c4
66cd
71e7
939c
c814
e6af
43e8
77a9
0dbb
27bc
27bf
27ba
92f9
92fb
cdf7
4dbc
44e9
63a3
3ff0
3ff6
a6cc
e418
2895
429e
4298
50fd
ade1
b21a
b3a3
421a
681f
7154
7159
adb2
f065
3f4c
4351
435a
53eb
845d
c1ab
33f1
6cf7
87a8
a7e5
c867
c042
3398
d7bf
d7bb
7bfc
7bf7
d69b
61fd
931a
a052
cda5
46a8
6237
8bf6
245d
539d
b226
20a2
6bf0
76ce
9009
f1f7
f398
42fd
c89e
a3fa
b79a
74a1
8314
8f5f
7f5a
b1a3
f2b6
e4a5
ed91
6042
c15b
f1ac
2696
976b
60fa
64ac
f095
57b2
91f7
91f9
c038
16ac
92a3
92a2
5177
721d
a466
431b
9012
91a0
a0a2
48f7
c57c
c572
a8fa
8dad
9868
b468
db5b
42a9
fd63
fd61
1363
a1f3
a1f1
a7f9
601d
5d10
b2a8
e52d
ad64
ad66
edad
b175
f47a
9dfc
62bd
24a1
9d67
b156
f7f2
b0a9
abf1
236f
236a
9dab
61ac
b35a
123d
e264
f031
bd63
5526
9d14
326b
1263
426a
04f2
0749
078d
0727
04f0
074c
0718
0c6b
0935
0cb3
1cd4
1f41
1d5c
1083
130a
1d8f
1bad
1c9d
1d44
1a6b
13b2
1a42
14f6
14fc
130b
1a4a
1cb7
1d5b
1b1c
1418
264a
2727
2cdf
2088
248d
20d1
2642
2737
2936
23d4
270f
24b1
26f7
220b
2609
2207
22d7
2882
323a
3c1e
3248
3d4c
3c49
3c14
324e
3cb4
3cb2
3ba3
34f8
308c
3c63
3bd4
3bd2
33b1
33b7
3c9a
3408
4cd4
440d
464c
4b5e
44a2
485a
44b0
4cd3
471c
4a68
4ccc
4cb1
4cd7
4d8f
474e
464e
4cd6
4c9d
4c87
4d84
4c12
4c54
46f6
4cad
43b0
4787
4a65
480b
4b1d
4d58
4a49
4bb2
4b13
4b12
480e
444d
425e
5172
5610
571a
5710
5d0c
5c4d
5783
5389
5407
5b07
50dc
578a
573e
518d
540c
6d8d
6406
6348
6713
6b43
671a
6603
6d43
688d
6d83
6084
6b42
6d4d
64f7
6781
6bb6
634a
6b84
64b7
6608
6733
66d0
640e
661e
6827
6b5d
68d7
708b
708d
7cd7
7c5e
774e
7729
7ca1
7b42
7c1a
70d1
7b8f
760d
765a
7284
7cb7
7b87
708a
78a1
7a61
728c
718d
761e
780e
7858
86c2
8cd8
8248
8b43
8b14
8cb1
8c88
8bae
8710
8cb2
83c0
8c6a
8389
88a9
8c8f
860b
8d51
878b
88af
9c48
972c
9728
9ca8
9383
9cd7
9ca1
90d3
9407
9a63
98a9
9c54
9ba8
98a1
9b66
925b
961d
9259
a0d8
a68c
a648
abae
ad8c
ad8f
a744
ac27
ac1a
a60d
a0d7
abdc
aba0
a787
ab89
a80b
a8ac
a73a
a883
a414
b010
bcd4
b405
b741
bc67
b603
b28d
bc6a
bcd0
b08c
bc5d
b2d0
b787
b6d3
bd5b
b251
b14d
b184
bb5c
c033
c604
c748
cc8d
ccd3
c88d
c67d
c736
cc27
cc12
c781
cc54
cb44
cc25
c30b
ca4a
c61a
c933
cba8
c8ac
c484
c85c
c8a7
c827
c65f
c184
cb53
dc62
d28f
dc29
d70a
dcd3
dca2
d7dc
dc8b
dc9e
dbb0
db8f
dbb3
dcae
dcc7
d687
d6f7
d6d3
d4bb
d8a8
d80c
d78c
d25f
d254
ecd4
e01c
e3bd
ecd2
e3d7
e71c
e38d
e3bc
ec67
ec68
e333
ecb2
ecb0
e77d
ec27
ec6b
e268
ec63
e687
e209
ec18
e34c
eb44
ec69
ec2c
e4fe
e80c
e939
e20b
e85c
e6fd
e6ff
e82c
e442
f705
f741
fcd8
f406
f20a
f72a
fbae
fbac
f084
fba3
f64e
f77d
f443
fc7c
fc8f
fc9a
f609
f6fd
f183
02db
02cd
02b1
02c7
02b4
028d
02b2
02e5
019d
01ee
01e2
03b2
0398
039e
03ed
0392
068d
06a9
06fc
069f
0531
0581
0546
0524
051f
05ca
0564
0529
05c0
0518
0537
05bc
0512
050b
0886
0899
08f2
08fd
08e2
dd06
dd78
dd6e
dd85
dd2e
ddce
dd42
2325
172f
17b9
1779
17bf
1782
1714
175e
17e3
17ad
179d
17e8
04f4
0476
0424
043e
0419
046f
04bd
04bc
045c
049e
045a
0459
040e
4973
4923
4975
490a
4971
4925
492d
491a
49b3
4956
494d
495f
499b
4951
df01
df60
df8e
df86
df81
df11
dfa4
dfde
dfb4
dfd2
df5f
dffb
dff3
aa22
aa23
aa11
aa68
aa28
aa88
aaf2
aae0
8681
8611
868a
86f5
86b5
8627
8662
86a7
f5a6
f52d
f5b0
f5d7
f5a3
db9e
3101
316e
3185
3108
3167
31c0
3189
31d4
3114
318d
31d3
31d7
3191
3151
31e9
7331
7345
7352
73d5
7334
7377
73bb
739c
7394
734d
7396
73f1
94c3
94b6
948c
94a3
0bbd
0b5d
0a70
0adb
0a76
0a46
0a64
0a90
0a96
0af9
6e52
6ec4
6e0a
6e29
6ebb
6efb
6e90
6eed
6ee9
c281
c252
c276
c27f
c269
c241
c277
c26d
c2eb
c292
c2ee
213f
2114
21bc
215f
7e40
7ef4
7ed5
7e36
7ed9
7edf
7eff
7e10
7ee7
7ef2
2b20
2bb2
8524
85cd
85f5
85ef
85e4
cf01
cf20
cf25
cf8d
cf10
cff6
cfa9
cffb
cfa7
4f22
4fb9
4f7b
4fc9
4fc8
4f3c
4fb0
4f37
4fa7
4f0c
4ffd
4fab
4faf
e9f4
e9b8
e985
e952
e91e
e9b0
e9c3
e918
e9ef
e57b
1845
18ff
1894
6c40
6c0d
6c16
6c72
6c7f
6cc8
6cbb
6c42
6cef
2e4f
2e76
2ec9
2ecb
2e33
2eb0
2e44
2ed3
2ea0
2ea9
2efb
2e55
2e51
2ee9
2eea
1fdb
1f79
1fff
1fd0
1fd3
1165
11c6
1148
11fa
5206
5286
5209
5248
5242
528c
526b
5251
8181
8165
81c2
81ce
8164
818d
81d7
8162
819d
81a2
99c6
99cd
9977
991a
99b2
9907
9942
9955
2f52
2fa4
2fba
2f75
2fd1
2f71
0ef4
0e3a
0e7f
0e49
0ebb
0e2c
0eec
0e9a
0ee8
6932
6923
6952
69d5
6975
6929
69cb
6954
6944
69fe
0f11
0fc4
0f29
0f61
19bb
195c
19f2
19ed
1e32
1e22
1e52
1e46
1e65
1e75
1e36
1e15
1e1a
1e63
1e66
1eae
65c2
6536
65d0
6543
6584
65a1
3e60
3eaa
3eb8
3e20
3eca
3ed1
3e72
3e4a
3e6d
3e82
3e27
3e37
3e8b
3ed7
3e87
3e9b
3e90
3eeb
3e9f
3ef8
4585
453e
4519
45ba
45df
4589
45b7
454c
45ad
459b
4559
7a23
7a76
7ac9
7a2d
7abc
7a5e
7ae7
7a5c
7ae1
7aea
34b8
3446
3441
344b
34c0
34bd
34e6
6f21
6f16
6f09
6fff
6fb3
6f83
6fa1
6ff9
39b8
393a
3974
39d5
39c8
39da
3969
3961
3967
3982
3914
3956
395c
39a0
398c
39fb
3912
3955
396b
39fe
39e1
8a86
8a52
8a7b
8ab3
8af6
d952
d9ba
d9ce
d9bf
d989
d9d3
d9e3
d95f
d95d
d9f7
b906
b9b2
ba34
ba09
ba29
bad2
ba5c
bafc
d5d5
d53c
d53d
d5b1
d5a7
d56b
1570
1545
1569
3a01
3a60
3a47
3ac2
3acd
3ac0
3a89
3ac3
3aee
0921
0945
0965
0975
097e
0929
09ff
091a
0918
099c
0994
09ad
099f
09a5
09ab
35f5
3553
3543
351b
35e6
2578
2535
2543
25a9
25ef
25f0
5ea4
5eb4
5e4c
5ea0
5efb
5e98
5efc
5e97
5e59
4e26
4e34
4ec9
4e68
4ec8
4e2a
4e33
4ed0
4eb6
4ed7
4e97
4e55
4e59
4efe
4103
4140
4135
4129
4189
418d
4143
414c
41ef
410c
1611
1647
16d4
16fa
1a1f
1a09
1ada
1ab1
1ab3
1ab2
1a83
1a98
1a9d
1aef
1ae4
7560
7522
75b9
7581
75c1
753f
7544
75d2
7590
7591
7555
7596
75af
8e40
8ec2
8e38
8e1a
8ef6
8e95
7903
790f
7965
79c9
79cb
7988
79bd
798f
798d
797c
791d
799b
7996
79e9
cecf
ce81
ced5
cebf
cec8
ce28
ce7d
ce2c
ceb7
ce5c
cea3
cef9
ce0b
7860
7886
78b8
7893
7845
7846
78a4
78de
784c
789d
78fd
de8e
de6c
de2b
de7b
de75
ded8
de69
dec7
de18
de14
de1b
de4c
de97
dee2
3f0f
3f08
3fc6
3fba
3fd1
3f72
3f25
3f84
be01
be06
be85
be21
be08
be7b
be36
bec1
be09
be48
beb0
beac
beae
be97
be51
be59
a440
a481
a4ce
a4c5
a4d8
a4d4
a4d7
5908
5974
597e
594a
596d
5982
5966
59fa
59f2
599e
2a81
2a18
c532
c516
c5c5
c536
c53c
c56d
c5ac
c5f1
c5a2
b5c4
b5d8
b5cc
b5d4
b5b6
b544
b5f8
2940
298e
2978
296e
29cf
297f
29cc
294b
297d
29b6
2927
29ac
29fc
29a7
e54f
e586
e511
e519
e5ce
e536
e5d6
e5d1
e5bf
e58d
e553
e51d
e542
e583
e58c
e562
e559
741f
7435
7438
7444
7442
a1de
a129
a141
a10e
a183
a1a7
c94f
c90d
c96d
c92c
c98d
c95e
c98c
c9ac
c9fc
c9e4
7271
366c
3652
3665
3637
ff86
ff21
ff36
ff72
ff2a
ff7c
ff62
ff9e
ffa3
ffa2
5f03
5f23
5f08
5f50
5fb1
5fb7
5f07
ae01
ae03
aedb
ae7d
aebd
aeb4
aee5
aee9
a920
a9d0
a99a
0caa
0c7b
0c36
0c7f
fa60
fa39
fa14
fa8d
89aa
89d5
89f5
8969
890e
894a
89ac
ee8e
ee81
ee08
ee7e
ee09
ee7d
ee9b
ee8c
4a6e
4a11
4a74
4a75
4a3d
4a37
4a9a
4a95
4a96
5a86
5a57
5a14
5a98
5aeb
bf6c
bfcd
bfd6
bf3f
bfbb
bf1e
bfb0
bfd0
bf9b
bfaf
bfee
fe25
fe6f
fe6d
feae
fe9a
fee8
fef9
ef57
ef25
efa1
a561
a590
a5ef
a5af
7f0d
7f86
7f0f
7f7a
7f74
7f68
7fb4
7f18
7fa3
9e21
9e72
9e3f
9e82
9ef1
ca81
ca16
caca
cab5
cac0
ca14
ca87
884f
88cc
883d
6a32
6a70
6a81
6a45
6a52
6a0a
6a0e
6a88
6a1d
6a87
6ae4
6a51
fb7a
fb09
550f
556c
5521
5515
5583
55ae
5590
55f0
2675
2669
266b
2835
2879
284a
2837
28bc
28d2
0d11
0d34
0dcd
0d41
f947
f919
f92c
f91d
f9ed
da8e
da47
dabe
da0e
da3b
da7d
da1b
daeb
9a40
9a04
9a74
9a3b
9ab4
9ac3
9a14
9afb
8f01
8f05
8f21
8fc1
8f8c
9505
95c2
953f
95b6
9537
9587
95ec
955d
746a
2401
24c6
24d2
c4dd
c42e
c41f
c420
c4c3
6d8a
6d34
6dcb
ea2f
ea16
ea35
eac5
ea28
eab0
ead4
9f23
9f7b
9f67
9fdc
9fe2
4baa
4b03
4b4f
4bb9
4b0f
4b2e
4b35
4bd8
4b41
4b61
af40
af73
af11
af52
af36
af79
afc1
af67
afef
8b40
8b0f
8b1f
8b26
8bc4
8bdf
8bb5
1811
c6db
c62b
c674
c67e
c62a
7640
7664
1b0e
1bc3
3d31
3d7b
3d8a
3d34
3dcd
3d7f
3d77
3dc3
d6bf
d638
824f
82b9
82cf
8265
82c5
82cc
8277
14c8
1427
4d22
4d47
4da4
4d75
4d79
4d4b
4d4a
4d3c
4d7d
614e
61cc
6188
6189
8d32
8d7e
641f
64d6
6439
6441
272f
3c7b
3c65
3c3f
3c3b
4845
4876
48c9
4835
4872
48bf
48c8
4849
48c3
4837
7b0d
7bc5
7b68
7bcb
1d32
1d0d
1d75
1d2d
1d7d
7731
77c6
7720
544f
546c
5411
5434
54c5
5b2f
5b78
5b47
5b2e
5bc9
5bca
5b28
d422
d4df
ec8e
ec86
ec04
ec1f
eccd
ec3f
4703
474f
4773
47d5
477e
47d1
47cb
6840
6857
6845
6847
6825
6848
6833
683b
6843
6b06
6ba6
6b24
6bd1
6b3d
c1a4
c1c5
c1d7
c1b3
c1b2
464f
462e
4675
46de
46b5
4667
e14f
e14a
e1c0
bdc4
bd39
304a
bb22
bb78
6764
6768
6767
db40
db08
db45
db47
db19
dbbe
db7f
dbbf
dbda
a626
a66d
cc11
cc0a
cc09
ed85
ed21
edcf
ed81
ed3f
5375
5339
5371
53bb
e48e
e445
e4be
e428
cd57
cd47
cd71
e832
e845
e8d5
e8de
e87f
e849
e877
e87c
e842
510a
5188
0721
5c0f
5c85
5cc1
9c57
9cc5
9c0e
9c77
9185
9193
9138
eb46
ebc5
eb48
9b40
9b06
9b31
9b3a
9b41
9b3d
6657
6685
6646
667e
6633
66b0
2201
2203
2281
2245
2265
32aa
32b9
3278
3276
32d5
cb03
cb52
cb0a
f1d1
f13c
d847
d87a
d8bd
d842
d1c2
d148
d13d
d1d0
d1d3
5d06
5d24
5d4e
4440
4416
44b5
44d1
4448
7a43
c870
c8c6
a83f
a8cb
56f4
56b8
5639
7123
714a
71d4
ab75
20aa
2040
2076
b440
b478
b446
ad81
ad7b
ad35
ad28
7d40
7dc1
7dc3
5840
58dd
5822
5821
5835
58da
584b
5843
30cf
30c6
30cc
3077
30b6
f645
f67a
f639
f668
f671
f62a
f6b1
b16e
b123
b1c5
b1bc
4257
427e
42d1
ac86
ac57
acd5
a27e
a27f
4c03
dcf4
dc70
dc05
dc8a
dcd5
dc35
dcc1
dc09
e6dd
e622
e63c
2cdd
1c8e
1ca6
1c47
9821
98c9
9835
98ca
98da
98cb
98c3
98b6
4335
4339
437f
43c8
3381
3376
3372
33bf
e3bf
6360
6340
6352
a23c
b64f
b66a
b66f
b6b0
b6b4
7cb9
7c31
7c93
7c7b
7c7f
9d40
9d37
9d7c
848e
8478
8473
84c5
84cc
8429
84d0
a21e
8c23
8cc4
bcb9
bc08
f857
f8ce
f8be
f87c
fd08
fd71
96b7
fc72
67dd
676e
677a
13cf
137b
1375
133f
1371
6232
62da
d3cc
c723
c7de
b20f
b2cd
f4ce
124f
128e
12c6
12de
1272
5723
5750
5726
5720
5779
b7c8
d722
d721
d750
d719
d7d1
d085
d081
e232
e2f4
e246
e27e
2393
23b5
874f
8770
87cc
70ca
70cc
407a
a303
f275
f701
f76c
f772
200b
6093
60ba
8347
83bf
83cc
d2a6
d245
d2d5
d27f
b370
b339
4021
4022
9774
977f
97cc
c38e
c3c1
9247
92d5
92d6
2052
e0a4
e0ce
7063
3229
c078
c071
c0b7
10b8
10b4
4f4f
f0c8
f0b1
b0b4
073c
073f
6aaf
90cf
ece7
ece2
ece6
1aae
e7eb
646d
ec98
ec92
ec9b
3058
3324
46e1
bbef
e355
e05e
e058
2261
226b
9be0
12fd
8b93
c1fa
a061
e0ec
e0ee
e0e8
5474
e319
5111
1358
4366
4099
4092
f225
f220
101d
13e0
7163
716d
e36b
465a
703c
2015
201f
c218
4068
4067
4048
36e3
36e8
3dee
5053
22ec
22ea
1df3
3d91
3d92
fffa
c225
4897
489d
4892
489f
32ee
c7a9
7ced
e4e9
e4e6
4176
e007
4aaf
16e3
229f
6477
a692
6116
e6ec
e6e9
e47c
7314
731f
1467
2229
222a
2769
276f
e320
4864
4868
4869
8173
66e9
723f
1d10
1d1a
e397
e39a
f6e8
7024
702d
e2b2
3dbc
3db1
3db0
4beb
d19a
4b9f
7864
7866
30f5
30f3
3dfe
ecf3
ecf9
9b97
645b
3aa9
7055
b6ad
405f
d6e4
2253
2254
2258
c119
7aa6
e3a2
e19e
70e1
46c3
46c6
e21d
d05c
d056
48ed
48ef
c49e
f6cc
111b
2468
52b1
d57e
d577
d8e1
c4e2
e8e5
e8e1
e8e7
e8e2
e8ef
e8ea
47b5
47b4
47b0
47bd
47b6
535c
3179
96e4
1d90
1d99
dce4
dced
78ed
64e8
64ea
3d5d
d09c
f695
f698
6495
649e
649f
3b91
3b99
bdbd
3da7
3da9
9816
d399
e2f3
e2fe
cce2
cbe3
4cf9
8323
8320
832d
b0e3
4bfe
f0e6
22bd
4235
c1e7
e6cc
e6c4
e6c9
3cf7
76eb
1095
1090
109d
d812
281d
281b
c3e5
c3eb
c32a
e45b
16ca
1da5
2aa9
28e3
3d13
3d1e
411e
4116
921c
9691
969f
82be
d023
d022
d2e3
e169
2175
3f59
3095
24e8
5197
5367
a798
a4ac
e061
f191
d2f8
d043
e3fb
10ae
10af
df4e
df42
d3a3
07e5
c095
e151
e15d
3d68
3d67
c762
5795
5790
5797
d298
e23e
e23d
fdb0
13a5
13a0
13a2
576f
5766
98e7
98e6
e17f
e764
e768
c2b0
d06e
d069
d167
d4e0
2095
2091
209f
2096
2399
5b9a
7deb
7298
8295
8299
d499
e25f
904b
f211
47f3
47f1
47f9
47f2
a4ec
c8e3
e0fe
e8f8
749a
87e8
dbf0
1055
419a
419b
5be0
6dbf
4df3
4dfa
7f4f
7f4a
b7e6
e7f8
82fe
ada3
e0a9
719d
7192
8795
8799
bd99
d2bd
68ef
4d99
4d9b
56c5
bb9d
c692
c69a
d01e
d016
d45f
9390
e6a7
58e4
7453
909d
edba
0dba
27b5
27b2
a86f
6094
83f1
83f6
cdf2
ab9a
a6c1
d3fd
54e6
a7a3
e413
e41d
e412
f0fe
10f7
10fb
429c
7d96
a047
a2e1
b211
9db5
9dbd
a00e
adb1
adb4
e7ba
f795
2db4
3f47
f811
33f0
53f0
fde7
902a
d004
fcf6
27f2
32fe
32f0
b321
c04d
339e
4853
96c4
c7b5
c7be
f044
d69a
f3a3
889d
9315
9313
a056
a2ab
b6e9
b11d
cda1
cda7
6b99
279a
9034
9036
12b0
2451
335c
539c
20a8
621e
635a
8862
9005
92b6
c454
5037
5575
6dde
6dd2
97a1
4d64
7697
769d
8315
c6a2
c6ab
629a
7f51
7f58
bdfd
447b
b1ad
f2b1
8dba
c15d
bf4d
44a8
6155
c175
9767
60f3
77b6
b02b
d0fb
42b4
5161
62f5
a0e7
7751
a164
a162
c03c
f45e
92a1
b031
b19a
c7f2
901e
c01a
a039
f0a8
a398
2528
9867
98f0
db5a
c8fe
f153
509a
935d
b3e8
ed1a
42a3
a52d
1315
a7f7
a2b0
b761
28f3
bbf6
f3fa
a57e
a572
26a1
4d14
4d18
9dff
5bfc
b295
f35d
3bf6
b15c
103c
369f
9367
5f45
0dac
836a
e263
f035
f179
a754
b236
157b
9d1d
9263
d264
9576
826f
a542
071b
0c9b
0c14
0c5e
04f1
0c44
0c83
0d87
0b8f
0d5e
04fe
0939
10df
1a69
14fa
1382
1c14
124e
165c
1c9f
1ca1
1308
1d55
1c43
1ba7
10d6
1289
138f
165a
13dc
1487
1a64
20f8
2018
2a69
23bd
285a
272c
271c
2a68
2343
2c61
2c6d
2242
230e
2889
2935
2344
26d7
273d
278b
2d5e
220c
28ad
2618
2b82
224d
273b
280e
3c41
3282
3b4d
3507
33d7
3ca3
3ca2
330a
3c58
3cc0
3cdc
3b8d
3cab
368d
3c64
3c7c
3089
3c10
3407
3c92
3c2d
34f6
3c53
3cb7
3615
3a61
3609
3254
4311
4c94
4b4d
408d
474a
4648
47dc
4cb4
4308
4c55
4c0b
4d0c
430e
4d87
4309
43b2
4cc7
40dc
4209
4b1c
4c66
4341
4c28
48a1
4b0c
4683
44b6
4808
4bd0
440b
4d53
473f
508b
5c5a
5641
580a
5ca9
53bc
5a68
57d2
5d8f
5cc0
5d84
53d4
5b1a
5b44
593c
58a0
5938
5654
578c
585c
5d5d
5b58
544c
6306
64fa
6507
640a
6610
64f1
64fd
6712
6d0c
6489
68a9
6a42
6bd2
66d2
6a62
6d51
678b
68a0
673a
6bb7
624d
6b62
6808
6853
614c
6b5a
78ec
7641
78a3
750a
772c
7248
7a68
7725
7c8b
7c58
77d0
7736
7087
7c4d
730e
7bd3
7cbd
7689
708f
7bab
7a67
770b
778b
7ba8
720c
72d2
7c37
7618
7807
778c
7259
7888
780f
7143
84f2
885f
8b54
8f41
8715
860a
874a
8cd6
8c10
834e
8344
8bd4
8b07
8d07
8cb3
8bbd
8785
84b7
88a0
8c9a
8251
840c
8259
825a
8b55
9605
9741
9690
9b81
9ca0
9c51
9248
97f0
971c
9cc0
9bd3
93b4
93d3
93b6
9b07
9b1a
9a65
9614
96f7
9a62
993b
9b63
92d4
9939
9807
9b0b
9613
9b56
9884
a741
a743
a03d
ac48
aca8
a343
acb2
acb0
a6f0
ac61
acd6
a3c0
a736
ad4d
ac8f
ac18
a487
ad88
abb7
a73b
a887
a40f
a666
b221
b305
bda2
b40d
b382
b083
bc9c
bd8f
bbad
bc5f
bc56
bc43
b643
bba7
bc54
b0d7
ba62
bc66
ba43
b488
bb8a
b44d
b442
b107
c806
c018
c805
c08b
c606
c71b
c348
c85a
cc67
c67c
cb14
c68d
cc7c
cd87
cb07
cd07
cb8f
c60b
cba1
ccb7
c08a
ca43
c34b
cb18
c4b2
cb63
c73e
cd0b
c50b
c409
c85d
c415
c187
d854
d606
d40d
d85a
d71e
df48
dc89
d603
dcb2
dc61
dcab
d28b
d644
db42
dc6d
d24a
db8c
d735
dc92
d3b6
d936
dc5d
dc98
d3b0
dba0
da65
d284
db4c
d34b
d615
db63
d659
d60e
dbb7
d937
db66
d853
d6f9
d410
d8bc
d8d3
d107
e806
e170
e311
e714
e8a5
ef48
e507
e0d5
eca3
ed43
e74b
e72a
ec6f
ec58
ea6f
ed83
e70c
e088
e28d
e4b4
e74d
ebd2
e4b1
e30c
e61a
e7d3
e08a
eb63
e20e
e78f
e651
e342
e8ae
e8b3
f805
f3e3
f641
f690
f714
fd8d
f2b5
f72c
f7f0
f30a
fb14
fc8b
f744
f24e
f742
f736
fc55
fd89
f74d
f243
fca7
f737
fa63
fc95
f8a9
f289
f349
f24b
f61e
f655
f10c
02b9
0285
02cf
02d9
02f6
02a0
029b
02e1
02e2
01db
01d6
01a0
01a9
03dd
03c5
03bf
03d4
039c
039a
039f
03e0
03e6
0685
06c5
069b
05c2
0525
052d
05ff
05b1
0544
0510
059e
05eb
0555
0832
0803
08cf
08d1
086a
086f
087d
08c7
0837
089d
0855
dd40
dd23
dd3e
dd19
dd0a
dd39
dd6d
ddb4
dd27
dd14
dd1d
dd1c
dd59
ddfd
1778
1708
1716
1720
1775
173f
172a
1729
1767
17b6
1743
17fb
1798
17eb
0447
04c2
04b5
04c8
048d
04d3
0458
04ee
4932
4952
4936
4939
492a
493d
49b1
4966
491b
4995
dfb8
df85
dfce
df20
dfcb
df6f
dfd4
df8b
df99
df8c
df98
dfa1
df51
dfe1
dff7
aa57
aa24
aa26
aaca
aa3f
aa41
aaff
aab1
aa8f
aad2
aa58
aa4d
aafc
aaf1
aafd
aae2
8640
8615
86b1
868d
869c
8698
86f0
8659
aaa0
f52e
f55f
f5eb
f5e2
3103
3157
3124
3126
31c6
31ba
31c1
31da
3128
313b
31ff
31c3
31bc
3143
3194
3187
3184
31ae
3190
319f
315a
31f1
7340
7364
73c7
7363
7343
738c
73e4
7351
9428
94d0
941a
9466
94e3
944d
94ad
94a5
94e8
94ab
0b6c
0b7b
0bc1
0bd1
0b4e
0b5e
0bb3
0b62
0b59
0af4
0a65
0a1f
0ac8
0a71
0a5a
6e06
6e2f
6e78
6ece
6edf
6e09
6e49
6e0e
6e3d
6e9f
c286
c278
c208
c2d1
c264
c209
c2c3
c25e
c25c
c2a9
c25d
2136
21c1
21df
21c8
2125
21fa
21a9
218c
21f8
21e6
7eaa
7e16
7ec6
7ec1
7eca
7e41
7e4b
7e55
7eab
2b40
2b49
2b2d
2b67
2bd3
2b5e
2b62
2bef
2b5a
2b5b
8504
8535
85c5
85b5
8548
8582
8563
8553
8507
8595
8597
8555
85a3
85f8
cf8e
cfb9
cfa6
cf93
cf24
cfa4
cfb5
cf8b
cfad
cf90
cf9e
4f85
4fa6
4fa4
4f36
4f79
4f6a
4f89
4fb7
4f1c
4f9d
4fef
4f97
e94e
e98f
e97c
e98c
e997
23a4
23ad
23ab
188e
18d5
187e
18c1
18da
18cb
1844
187c
18fb
6c78
6c74
6c15
6c89
6c94
6c95
6cea
2e0d
2ecf
2e7b
2ece
2e72
2e15
2e43
2eb2
2ee3
2e5f
2e8c
2e84
2ea1
1fc4
1fcd
1fc5
1fd9
1f09
1f71
1f3d
1fc3
1fb3
1f99
1f8c
1f5d
1f55
1f5b
1103
1193
11c5
11da
1138
1161
112c
11f6
114d
1199
119e
11e1
5240
528e
520f
5231
52c5
5272
5243
52a0
81d5
81c5
81d8
81cc
8187
819b
99a4
99c2
9926
99cc
9925
990e
994a
9915
9918
9953
9943
999d
999a
2f23
2f7b
2f0a
2fc0
2f89
2fb6
2f27
2f14
2f87
2fad
2f84
2f55
0e70
0e76
0e16
0ebe
0e8f
0e62
0e90
0eed
6903
6957
6921
6993
69c8
6988
69b4
69fa
0f60
0f03
0f6c
0f87
1903
19f4
19ba
19cd
19de
19d1
1969
196d
19b4
19d3
1998
1997
1e20
1e69
1ebb
1e37
1e44
1ee7
1e5b
6522
6514
6558
655d
3e8e
3e2b
3e46
3e68
3edf
3e6a
3e33
3e3b
3e3d
3e7d
3e54
3ed0
3e14
3ed2
3e94
3e58
3e8c
2d3e
2dc4
2d79
2d77
2d9c
2d8c
2de5
454f
458e
453a
452b
45c4
45f5
453b
454d
45f2
4597
456b
7a22
7a24
7af5
7ac5
7aca
7ad1
7acb
7a33
7a37
7a94
7a1c
7af1
3428
3444
34e3
3442
34a5
34e9
6f65
6f0a
6fca
6fd8
6f28
6f7d
6f8f
6ff7
3908
39c1
39c0
397d
39b0
3966
3907
399b
39e8
39e9
39fd
390b
8ab9
8a23
8a19
8ac1
8a2a
8abb
8ad0
8a9b
8a5b
d98e
d9b9
d986
d9df
d971
d9b1
d953
d95a
d9f8
d9e0
b9a6
b9d5
b9cd
b9d8
b969
b948
b9a1
b9e8
ba6c
ba73
ba04
ba46
bac4
ba79
baff
bab7
ba8c
ba98
ba96
ba51
d52f
d593
d565
d5ba
d5df
d5cc
d588
d594
d598
d592
d5f7
1522
1557
152b
1516
156d
15a9
15a8
15e4
15e1
3a8e
3a73
3a50
3ad1
3ab0
3a1a
3a37
3a83
3a9b
3a8c
3aef
3a55
094f
0952
09d5
09c9
0979
0949
096f
0915
0967
092c
0953
0943
09e3
099a
0995
095a
356e
353a
3511
3516
35ce
35d8
354a
3566
35a8
35e5
35ab
25db
256f
25ac
259a
5e8e
5e48
5ee7
5e58
5e5f
4eaa
4e03
4e8e
4eb9
4e3e
4e2e
4ec2
4e7d
4ebc
4e1d
4ea0
4e91
4ef0
4efd
41dd
412f
4152
41ba
41cd
41c1
41bf
414b
41bb
41bd
4154
4137
41dc
41ae
41e8
41af
1620
162d
163d
1666
16fd
1a40
1a6c
1a45
1a52
1a24
1ad5
1a75
1a39
1a3c
1aff
1a54
1a99
1ae9
7501
750d
7593
75c6
75c4
75c9
754b
7588
75b6
7537
7594
759b
75fc
759e
7597
8e8e
8e6c
8e23
8e04
8e76
8e50
8e20
8ecc
8e8b
8e8d
8e94
8e8c
8ea5
8efd
8ef9
7906
796c
7957
79a4
797b
79c6
7944
799c
7958
7956
ce05
ce21
ceca
ceda
ce38
ce1e
cea0
ce9b
ceac
ce9e
cef7
782f
7870
78b9
7831
7876
788a
78be
78d8
7838
7837
78d3
789b
deb8
de52
dea4
dece
de48
de6a
de1e
de43
dee3
de9b
de84
de51
de9f
def8
defe
3f93
3fc9
3f77
3f3c
3f3d
3f89
3fad
3f6b
3fa5
3fa3
3f0c
beaa
be2b
be74
be68
bed1
be69
beb7
beb3
be87
befb
bea7
a4dd
a48e
a46e
a421
5985
59ba
596a
598f
59c3
59a9
591c
59e8
59e5
2a3d
2a53
2a96
2a51
c504
c5e3
c5a0
c5e4
c5fe
b593
b538
b569
b563
b514
b5ec
292f
2931
29b8
298a
290a
294a
2989
292c
298d
295f
299d
e5f4
e508
e5ca
e5da
e5cc
e5ff
e5a2
74c2
74c9
7433
a152
a1dc
c922
c970
c9cf
c908
c916
c90a
c94e
c948
c9d4
c966
c990
c99a
7286
7252
72ce
72d1
727f
7277
366f
3662
ffb5
ff69
ff29
ff6f
ff1a
ffb3
ff94
ffad
ff12
ffed
5fdd
5f6e
5f11
5f52
5ff5
5f35
5f3c
5f18
5fae
aedd
ae06
ae70
ae16
ae65
ae8a
aec6
aec9
aede
aed1
ae48
ae6a
ae67
aedc
ae63
ae5f
aef2
ae1c
aefc
aeed
a922
a9b8
a923
a9be
a964
a94b
a92d
a9e3
a9ac
a99f
a9f1
0c70
0c3a
0c38
fa4f
fa6c
fab8
fa73
fa74
faca
8945
89d9
8949
8948
896a
898b
89f6
899d
89a3
ee3a
ee7b
ee71
eec3
eed4
eed2
eefb
eef9
eef7
4a52
4a7b
4a0a
4ade
4ab1
4a8d
4afb
4a9e
5a06
5a34
5a7f
5ad0
5a2c
5a58
5aed
5a9f
bf2f
bf52
bfd5
bfce
bf75
bfb5
bf33
bf82
bfeb
bfed
fea6
fe26
fe5e
fe07
fe84
fea8
fe9d
ef0f
a5aa
a505
a547
a5ca
a5bb
a56d
a515
a5b4
a5dc
7f03
7f21
7f50
7fbd
7f27
7f14
7f2c
7fa7
7f0b
9e8e
9e86
9e45
9eb5
9e48
9e4b
9ee3
9e42
9e87
9e84
9efd
ca0d
ca52
cac6
cac5
cabf
ca28
cab1
ca90
ca9d
cae2
88dd
8847
888a
88bb
cfef
6acf
6a79
6ada
6a8b
6afb
fb21
fb11
fb26
5531
5545
5547
5565
55ce
5568
55bf
55bd
55e7
55e3
5594
2685
2676
2616
2626
26d1
26bb
28b8
282e
2820
28cd
2825
287d
0d22
0d73
0d45
0dce
0d2d
0dc0
f98a
f9c6
f97d
f9e3
f9eb
da50
da26
dac4
dac1
da3c
da2d
da15
dabd
dac3
da8c
daec
da92
dae5
dae1
9a22
9a0f
9a81
9a72
9a15
9a7d
9a90
9ae0
9a0b
8f0f
8f81
8f7b
8f8a
8fd5
8f35
8f25
8fe5
95a6
95bb
9515
955e
951b
959b
95fc
95ed
95a5
746b
24ce
24b5
2443
c460
c4aa
c457
c439
c428
c429
c427
6d79
6d72
6d2d
6d2c
ea0d
ea50
ea36
ea33
ea88
eaec
9f40
9fc6
9fc1
9f72
9fcb
9f9b
9f98
9fa1
9f9d
9fed
4b8e
4bb8
4b23
4b16
4bc4
4b36
4b79
4bdf
4b4e
4bc3
af01
aff4
afdd
af78
afbd
af2c
af9c
afad
8b05
8b78
8b6e
8b36
8b41
c611
c6d6
c628
c66d
c63d
76f4
76d9
762a
7627
1b50
1b49
1b27
3d32
3dc6
3d79
3d09
3d0e
3d7c
d6b9
d63a
d646
d6f5
d6d1
d637
82ce
144f
14cf
1445
14c5
14be
1439
4d21
4d2b
4d35
4d3b
6103
6106
61c8
613d
61c0
6182
61d7
8dc0
64dd
6431
643a
6476
6419
64cb
277a
3c01
3c0f
3c11
3c45
3c46
3c24
3cc8
48c4
48ca
484e
48c7
48b6
48dc
7b03
7bce
7bd6
7bd9
7b33
1d2f
1d86
1d85
1d52
1d24
1da4
1dcd
1df5
778e
77c2
5b7f
d4a6
d4be
d4bf
d4c8
d44a
d42d
ec23
ec3a
ecd5
ecc9
470d
47b9
472e
47cc
6885
687a
6835
687f
683f
68da
68c3
5077
6b4f
6b31
6bf5
6bc1
6b71
6b49
6b4a
c1b9
c1df
c128
c148
c1bb
c13c
c13d
c1b0
4640
4665
46d5
46f5
4677
46bb
3b22
3bca
3b29
e16c
e16e
e1c2
e1de
e1cc
bd2f
bd73
bd74
bd75
304c
bb60
bb20
bbc4
bbc1
bb33
db46
dbc4
db49
db25
db61
a640
a616
a664
a66a
cc40
ccdd
ccb9
cc81
cc65
ed6e
ed47
ed35
ed49
ed4b
edc0
53ce
5377
e460
e423
e446
e4a4
e4b5
e448
e4d0
cd0f
cd45
cd35
cd09
cd2a
cdc3
e822
e8d6
e871
e838
e848
e87d
e844
51cf
51d8
51bf
0722
077a
072e
07cc
9c70
9cdb
9c31
9c2b
9c04
9c45
9c16
9c75
9c39
9c71
9c3d
9160
9145
91b5
914e
913d
eb47
ebba
eb35
eb7f
eb2a
eb33
eb2d
9b32
9b05
9b16
9b75
9b29
666c
663a
6675
6664
2293
2252
22d5
cbb9
cb74
cb38
f1db
f145
f1d3
f1b3
d840
d8dd
d82f
d8c2
d835
d8c1
d83d
d160
d16c
d108
d146
d1bb
d188
5d60
5d70
5d75
5dc9
5d41
5d0e
4421
4439
443c
c878
c82b
c8a6
c881
c84e
c849
c83c
a835
a838
a848
a833
a8d4
5631
5623
56a6
5636
7124
71c5
718f
71b3
ab05
ab24
ab79
207b
20c4
b43e
b43c
ad32
ad40
ad76
ad3c
7da6
7d09
7d49
7d7c
5857
5881
58c5
5828
5838
5841
5837
30ce
30be
f631
f62b
f646
f67e
f6df
f628
f625
f66a
b18a
b14e
420d
4285
427a
4274
42ce
42cb
acb9
acb8
ac73
ac45
ac1f
ac0a
a240
a28e
a20d
a2d8
4c01
4c06
4c71
4c7d
e7b8
e7c0
dc23
dccf
dc0a
dcbe
dc71
e681
2cc2
2ccd
2cc8
1c52
1c7b
1c34
1c7e
1c7d
9847
982e
9836
98b0
4331
43ca
33b8
e331
e346
e335
e3df
e33f
63aa
6303
b670
b631
b657
b652
b62e
b67b
b635
b629
b637
9d08
9d7f
9d2a
8486
8445
848a
843d
a21d
8cf4
8cbf
8c09
8c0e
bc2f
bc47
bc75
bc3c
f876
f8ba
fdaa
fd6c
fd81
fd46
fd2d
962e
9665
96f5
9671
9669
962c
96b2
fc8e
fc35
fc36
67f5
67c9
1332
1347
1334
62d8
d340
d331
d3b8
c701
c760
c752
c7cb
b206
b247
f401
f481
f4a4
f419
f435
12b8
a750
a7ce
a77e
57dd
5778
5746
57c9
57d8
d706
d72e
d77b
d070
d0cf
d0c8
e293
e252
e2c4
23b8
2335
23c8
8757
877f
87cb
70f4
70a6
4073
40b4
a340
a3b9
a350
a3d6
f231
f2d5
f2c5
f272
f774
f720
f7c9
f7c0
607c
838e
83b8
833e
83f5
d231
d285
d250
d271
d2cc
d2c7
b3cd
4020
972f
97de
926e
92c7
4818
2053
f36c
f381
f37b
f3c6
f338
e040
e076
706e
706b
c060
c070
c072
c0b0
c0b2
f032
f081
f076
f0c5
b04f
b0c4
b0c9
b07c
073d
a078
a085
a071
6aa5
904f
90c7
e7ed
ec9c
ec90
3054
3327
332a
46e5
d8f8
c239
c23d
c23f
0d14
7323
eff9
475c
e3ee
56e3
56e4
7761
7767
8b98
8b9d
c1f9
c1ff
3ce0
3ce2
e0e7
e0e6
e310
f7e8
6325
1355
dcf5
dcf3
4368
409a
7161
83a4
3ddc
404d
3de4
3de0
3de8
5056
22e1
1dfa
3d98
686a
0762
bdd6
8b8a
e89c
e890
b09d
b09b
40a5
c7a7
c7a2
22f5
4179
e006
1db3
1dbd
16ef
647b
d21d
ed5e
e47d
e472
e47a
c0e9
e29a
ddd4
dddf
ddda
d153
43f9
43f6
5062
1461
2228
47e5
286d
486a
c4af
8174
817d
a0f3
a0f0
66ed
1d1d
e396
f6e1
f6ea
7026
2219
221f
2216
3db3
3dbe
3dbf
5320
d197
786d
3dfc
3dfb
40ed
ecf1
ecf8
3064
6456
3aa7
b6a3
0dd8
4053
2753
c111
c114
4019
401d
7aa2
e86e
e3af
e199
f259
f25f
f25b
bde9
bde6
bdeb
70ec
70ef
46ce
46c0
46c8
e219
e212
7811
781f
c490
52bf
e487
f6af
47b3
47b7
47ba
47bb
535f
dbee
dbe0
c2f8
c2f9
c2fd
dce9
e798
14e8
2471
247f
4466
1dd1
1ddf
e2a3
1173
1177
3d56
d6cd
602e
6027
602a
c021
c022
c02a
bce7
f69c
f692
f290
f299
f29a
f29b
5de6
6497
6499
3b97
bdb0
e7ac
9812
e1e2
70a0
3452
4ce0
b0e6
d324
30ef
4bf0
4bf9
4bf6
22bb
4dd0
4ddb
4234
51fd
c1ef
e6c1
3cf8
3465
76e9
07f3
1be9
1094
5d99
835b
9ce5
add3
add8
c3ec
c326
d3e1
d3e8
16cb
2aa5
2aab
3d1c
3d1a
9215
9698
0dfc
3be0
3bed
3be6
9aac
e162
3f55
3f5a
0ce3
5191
5199
5368
a79f
b4a5
b4a3
f197
22a2
22ab
d046
b066
c6e9
d3a1
fbeb
ccf1
ccf8
c099
c09b
63e7
8394
c76d
c76b
5791
83e2
a6e2
a6eb
e23f
e178
1065
7db4
7db0
c3a4
d06b
d89d
5cf0
5cfd
61e8
61e2
93e9
93eb
d0e3
d0e1
2397
239b
7ddc
72ed
7de5
7dee
c165
c16d
c16b
d494
d49a
e258
e25d
26e3
26e9
5868
5214
979f
979b
f21d
f212
f216
203a
8cea
a4ef
bff9
c8e7
e0f1
1059
1056
6db1
87f8
4b53
4b5c
4b59
87b2
87bf
82f5
ada0
10e6
adfc
d316
719c
879d
92ef
cd95
cd94
d2bf
26c0
26c7
515a
eb9f
f328
27a5
27ae
3313
4d95
63f3
8de2
d01a
d1ab
5896
6220
6226
9dd9
9391
e6a5
e6a0
1216
58ea
745b
a7b0
0dbe
a869
1223
1229
83ff
63a0
c799
c796
c392
ab9c
d3f6
54e3
a7a5
aced
d7ae
d7a2
f0f2
f0fb
2898
50f2
7cff
7d98
7d9f
a044
a2ea
b216
b3ac
b3a6
2233
223d
2236
53a6
715d
adbb
f79a
4356
53ec
53ed
8454
8452
d2a1
6cf0
911e
9112
acf3
acfa
b4e9
b4ed
fde4
fde2
a2f1
f059
9021
d008
d009
e220
485c
96ca
f04a
7bf3
7bf2
7bfa
c065
c0f3
d22d
f7b0
f7ba
7795
f115
f116
27e8
46ab
b0f0
b1ed
d173
8bf0
8bf8
903a
3355
a29c
f49c
6bfd
900a
f1f8
f1fd
5035
5036
557b
97ad
cbff
fbf7
fbf9
47ae
4d63
575a
9ffe
a3fe
b7bd
d7f7
d7f6
14af
2ddf
8316
8f56
c6ad
12a1
12a7
336a
6299
7f55
7f5b
2571
9f45
a6a2
b1ac
b1a9
d475
d47d
d472
9ded
fd9b
57a7
68f7
68fa
8db3
876a
d03e
d03b
bf45
bf42
20f2
a178
a17d
ef5e
269e
5233
6f46
8ffc
8ffb
d76d
67a3
8f47
d239
4da5
4da1
64a1
77b0
c75c
f89d
f89b
57b0
72a3
d869
775d
c039
32a1
c7fc
c7f7
62a3
f01b
48f3
48f6
c575
c57f
457f
bdae
bdad
72b3
8dae
986f
0f46
c8fd
f15f
f15b
1f42
509e
689c
752e
7524
935c
93fb
c3f0
c3f7
ed14
42af
5013
501b
1316
1366
a2bc
cd1a
d529
d526
5d18
e52e
f23c
eda5
a57b
b17b
f475
f479
4d12
51ab
84af
9dfd
a454
a45a
a761
c475
c471
c35c
62b6
b2b4
56ab
f351
f7f9
9366
32bb
67f9
abf8
b47b
33ae
ed69
fda1
fdae
ad14
6dad
b751
b756
8367
e261
3571
a361
bd62
857f
9163
fd1d
5d62
6df1
4262
8d67
0c41
070a
0c90
074a
0c82
0c49
0ccc
0c15
0d8f
0c5c
07d7
0782
0c4c
0b83
093e
0b8a
1641
1690
185a
1c42
10d5
1a68
1cd7
14f1
1333
164b
1384
13b6
1307
1cad
1bdc
193c
1c97
1938
1ba2
1b5d
1b55
2221
201c
2741
22b5
265e
2507
2ca8
271a
2ccc
2cdc
2c7c
2643
2243
2783
2b8c
28a9
26f6
2687
2782
248c
2d5f
280c
2a66
260e
2a4c
3354
3641
3b81
3bae
34f1
365c
3c9f
3d83
364e
337c
3c4d
3c12
33b4
368b
32d0
30dc
3bb4
3b1e
30da
3c37
361c
3b59
44fb
43e3
4283
4c5a
4641
468c
438c
472c
4507
4ca8
47d2
4c8c
4c5c
4742
468d
4c64
4c7c
4089
44b4
433c
4737
44f8
4a63
43b6
468b
448b
4bd4
44fc
4c53
4782
43b1
4ba9
4c1b
42d3
42dc
48ac
4484
48ad
4809
450b
4bb7
441a
424b
441e
425d
4662
56c2
58ec
5c41
5cd8
585f
585e
5c90
574e
5333
5cdc
57d0
568d
564e
5c0b
5a6b
5bb1
534e
508f
5cad
5c69
5c4c
54bd
50da
560e
593e
56ff
518b
6da2
628f
630d
6777
678d
64f0
6bae
6443
633c
624a
6688
66d3
661a
648c
6b63
62d4
630f
64fe
6bbb
620b
6682
6b55
618c
68b7
760c
774a
740a
764a
771a
7cac
774c
7934
764b
7308
7708
7242
7936
760b
730b
7d5b
7933
7ba9
7659
7b13
780c
778f
7809
720b
788c
7855
725f
7255
8b88
828f
84fa
8b6b
8c8d
8ca2
830a
8383
872a
8c14
8d8f
8c9f
8337
8c5f
8242
8bbc
880d
824a
8307
833d
84b1
893b
8a48
8b1c
878a
8b1d
8a4e
82d3
8734
820c
893e
8d5d
82d7
8b51
841c
9854
9a69
9804
928f
9404
901c
975f
93bd
950a
960a
9cd2
938d
9648
9c6f
9a6d
9a6f
9934
9cb4
9388
9c0b
934d
9268
9c2a
9289
9bb3
9d59
9ba0
98a8
98ad
960e
93b3
98b3
9b59
a40d
a64c
ab4d
a08d
a728
a7d2
ad83
a742
a089
ad44
a249
a24a
ac4a
acc7
a788
a3b0
a65a
a784
a38b
a2d3
a2dc
a6f8
b4a2
b714
bca0
b348
b08d
bcd3
b728
b38d
b64a
b648
bcac
b77c
b74c
bba3
b388
b48d
b0d3
b3b4
b935
b34e
b4b3
b3d0
b4b7
bd51
b3b7
bd58
b73a
b4b6
b207
b666
b144
c574
c354
c804
c4f2
cc29
c743
cca0
c85e
c33b
c71e
cf48
c3bc
c71a
cd42
c72a
c7d4
ccc0
cc8c
c65c
c337
c6f0
c088
c64e
c77d
cc64
c80d
c389
cc2a
c3b6
cc63
cbd4
ccae
cd59
c687
c6d4
cbb4
c3d0
c607
c38b
c659
c78f
c682
c653
c859
cbd0
ca4c
c50e
c61d
c884
c8b2
c183
d172
db88
d865
d3e3
d30d
d714
dc84
d241
d7f0
d64a
db14
dc8c
d934
dbaf
dcdc
dca1
d68d
dc83
d4f3
d0d1
da6b
d34e
d3b2
dc54
d4f6
dc5b
d784
db89
dc4c
d933
da64
d8ac
d807
d4b6
db0b
d73b
d85b
d3c3
d655
d259
d827
d48f
d14d
d415
d44d
d18c
d8d2
d442
d258
d10b
e08b
e40d
e405
eb5e
ec84
e70a
e256
e715
e4b0
eca2
eba3
e242
e243
e24a
e3b4
e781
e70f
ebd4
ecde
ea62
eba1
eb84
e6fa
eb1d
e2d2
ecb6
e8ad
e618
e682
e88c
e73f
e142
f224
f305
fc82
fb43
fcb1
f7d4
fcc0
fc1d
fc64
f489
f307
fb8f
f0d7
f787
fcb3
fba9
f7d3
fbb2
f20c
fa66
f64d
fd5d
f882
f6f3
f41b
f14c
fb51
f18b
f410
f8d2
02aa
02c2
02be
02d8
0288
02bc
0287
01ed
03a6
03ce
03c9
03df
03d0
03e9
0686
068a
06c6
06c8
06cb
06bc
06d3
0699
0687
0683
06fe
06f7
06f3
0523
05cf
0545
0579
0548
056a
0515
05c3
05ad
08b9
0893
08c5
0836
08be
087f
08c8
0829
0833
08ff
089c
0853
08e4
08e0
dd70
dd2b
ddc2
dd1f
dd36
dd4b
ddff
dd7d
ddbd
ddc7
dd1a
dd37
dd2c
dd8d
dd44
dde3
ddfa
dd13
dd83
dda9
ddac
ddec
232e
1732
17dd
173a
1711
1750
17d5
170a
170e
17c0
171a
17e7
17fa
04a6
04c6
04bf
0438
043b
0454
048f
047c
04b2
0483
04ad
0455
494f
4986
4921
4911
4908
4934
49d6
49be
49de
49b5
496f
49b6
497c
491d
4958
49fc
4992
49e8
49f1
490c
49fd
df7a
df7b
df34
df0a
df5e
dfe7
df5c
dfa9
df90
1007
aa2f
aa21
aa3a
aa71
aa44
aa1b
aa1c
aaf0
8670
867a
867e
8636
86d6
86d8
8625
8614
8684
86ac
869f
86a3
86e5
2f4c
f8e4
f522
f531
3123
31bf
316d
313d
31a7
31e4
31af
73dd
734f
738e
7378
7393
73a4
7335
7379
73b5
733d
73b4
73b7
739d
73ef
7355
73e5
947a
94a4
9479
94de
944e
9418
9413
0bf4
0bd5
0bc4
0b7e
0b54
0bfe
0a06
0a35
0a7c
0aeb
160c
6e6c
6ea6
6e08
6ed9
6ed8
6e88
6e6d
6e8f
6e14
6e8d
6e66
6ee7
6ef6
6efc
6ef3
f4fd
c201
c203
c20a
c2ca
c2de
c24b
c2c0
c254
c207
c2e7
c2ac
c26b
c25a
c2e9
c2ea
2135
2128
212a
2141
21b0
212c
2107
21a7
21f9
7e0d
7e11
7ecd
7e83
7eac
7ea5
7ee9
7efe
7ea2
2bf4
2b3a
2b26
2bce
2bd1
2b37
2bdc
2b63
2b2c
2b51
2be5
2bfd
85f4
85db
8505
8573
8520
8528
850e
856d
85b0
85d4
85bc
85f6
8587
cf0d
cf86
cf31
cf73
cf75
cf35
cf3f
cfff
cfb1
cf53
cf94
cf1b
cf59
4fdd
4f6c
4fb8
4f0a
4f7e
4fca
4fd1
4f2a
4f61
4f6d
4fbd
4f1e
4fd2
4fe3
4fa8
4f90
e986
e9a4
e974
e98a
e9d5
e949
e989
e9c7
e9f6
e983
e9a3
e90c
e57c
e576
1878
183a
1835
1871
18b0
18d3
1897
6c86
6cc2
6c34
6cd0
6ce3
6c1b
6c9b
6c92
6c96
6caf
6ca2
2e60
2e8e
2eb9
2e7e
2e77
2ebb
2eff
2ed4
2e9c
2ee7
2eac
2eec
2e9e
2e97
1fa6
1f52
1fcc
1fb4
1fd4
1f5e
1ff2
1f96
1fe8
1ff9
1fe6
11b9
11c1
1189
11b0
118b
1166
11e7
1142
11e5
11e9
11f3
520d
526e
5252
5247
5241
524b
52d0
52ec
5296
81a6
818f
8192
81f3
9922
996c
9952
9924
991f
9972
9909
9928
9914
994d
9998
9990
999e
9995
995d
9997
2fa6
2f69
2f6d
2fb2
2f56
2fa0
2fae
2fec
2f51
2ff8
0e8e
0e11
0ec5
0e82
0eb6
0e63
0efb
0efc
0ea7
0ea3
0ef1
6901
6970
6919
69c4
69c9
69d6
6955
69f9
0f78
0f16
0fc9
0fbe
0fd9
0fdf
0f6a
0f83
0f98
0f6b
193a
198a
19c9
192a
1948
196f
19b6
191d
1958
198c
195b
1e60
1e47
1e26
1ed5
1e33
1e89
1e8b
1e1d
1ea9
1e1c
1e91
1e9d
1e92
1e51
1ee2
1ef7
654f
6506
6521
6545
65cd
65c5
65be
6542
654d
65a0
65f0
65f1
6559
65e2
65f3
3e32
3e06
3e6c
3e81
3e7b
3ed6
3e79
3e69
3e6f
3ebc
3e66
3eb2
3efc
3e12
3eef
3ef0
3ee8
3ee5
3eab
2dcd
2d7f
2d61
2d37
2da7
2da5
4586
4557
4545
45c9
4582
4537
458d
4584
4591
459e
4595
4551
45fd
7a31
7a73
7a11
7a16
7a7b
7ac4
7acd
7ad9
7a3b
7abd
7a8f
7ab4
7a8b
7ad2
7a56
7a13
7aed
3460
34dd
348a
34c6
34cd
34ca
344a
3482
348d
3443
6f06
6f1f
6fc4
6fcc
6fb4
6fa0
6f99
6f12
6f9f
39aa
39be
39d1
3972
39cb
39ff
39b6
392c
3944
39d2
39b7
39b3
39e3
391c
39a7
3951
39e0
39e6
8a0f
8a2b
8a45
8a77
8ac7
8a27
8ae0
d90d
d9db
d9c9
d9ca
d954
d9d4
d910
d994
d958
d9ad
d99b
d9a1
d991
d9f9
b96e
b904
b908
b9c9
b968
b9ff
b94c
b99d
b99a
b9ef
ba8e
ba7a
bac6
ba2a
ba9e
d568
d5ca
d5d0
d59f
d5a2
d5f9
15db
15bd
15b3
15a5
1559
15af
15ee
3a03
3a86
3a79
3ad8
3acc
3ad0
3ad2
3a13
3a5f
3a91
3af0
3aea
09c2
091f
0919
0928
0948
090e
09b1
09b4
09d4
0927
095e
091d
0999
0913
09a9
09fc
099d
09e9
09f9
3515
3567
35bd
35b4
35b6
3542
3513
3555
35e4
3551
35ea
25c4
2539
2537
2584
5e4f
5eb9
5e46
5e20
5e61
5e7d
5eb6
5ee3
5e87
5e62
5ee1
4e0d
4e81
4e7a
4e16
4ec5
4ed9
4e18
4e5c
4e87
4e83
4eef
4e5d
4ea5
4e5a
4ee2
4160
41db
4157
412b
41c2
4139
41d8
412a
4188
414d
4151
415b
1631
16ba
1635
16de
1615
1add
1a4f
1ac4
1a7e
1ac8
1a29
1a0e
1a27
1a2c
1abc
1af6
1afa
1a51
1a5a
75cd
75d6
7538
754a
75b1
7518
7587
75a1
8e06
8e31
8ebf
8e88
8e6f
8e8f
8ed7
8e83
8e84
8efb
8e9e
8e9a
7960
79b9
7973
793a
7968
79b5
79ff
79d2
7966
79e7
79e3
7942
79a3
79ab
ce0d
cea6
ce11
ce50
ce16
ce74
ce1f
ce72
cecb
cebb
ce3c
ce67
ce1a
cee7
ce0c
ceaf
7840
784f
78db
782b
78c2
7828
783d
78b1
7827
78f2
789e
789a
7895
78f7
de40
dedd
de86
de57
de93
de81
de20
decc
de2a
de54
ded7
de87
defb
deab
deea
3f40
3f6c
3f2b
3fa6
3f11
3f52
3fc4
3f7e
3f68
3fd8
3f2d
3f6d
3fb1
3fbc
3fd7
3fe3
3f94
3f1c
3f62
3f97
3f9f
3fea
bedd
be73
bec2
beca
becb
be0e
be7d
bebd
be82
be8d
be44
beb2
be56
befc
be9d
be55
be5a
beaf
a478
a476
a434
a44e
a4dc
5940
5922
5931
5957
5981
5976
59c5
5909
59cc
592a
5948
592d
597c
5959
2af5
2ac0
2ab6
2abc
2ae8
c5b8
c585
c53a
c593
c5c2
c5c8
c5b6
c563
c544
c594
c5a9
c59b
c5fb
c5a7
c5a5
b506
b586
b557
b546
b519
b5f5
b5c7
b58d
b59c
b598
b5fc
b5a1
b59d
b5fd
29a6
29bf
2969
29b0
2914
291c
29ed
29fd
29fe
e578
e573
e547
e58a
e535
e5b5
e515
e589
e5b0
e51a
e543
e54c
e591
e5e5
7457
7421
7426
744a
a103
a1f4
a12e
a1a4
a136
a109
a128
a133
a13c
a1a0
a1ad
a1ac
a1e4
c901
c98e
c931
c926
c9be
c9b4
c927
c98b
c953
c9eb
c9fd
7240
72c1
3621
3676
367a
36bf
3629
ff6e
ff81
ff74
ff75
ff0a
ffbe
ffde
ffcb
ff88
ffc0
ff27
ff37
ff10
ffb2
ff99
ff83
ffa9
ffae
ffeb
ff95
ff97
ffe8
ffe9
ffab
ffee
5ff4
5f0d
5fcf
5f81
5fa4
5fc2
5f9b
ae40
ae08
ae50
ae77
ae3c
ae14
ae5e
ae9c
aed7
aeb3
ae62
a94f
a9c4
a9c9
a968
a98d
a9f2
a9fc
0c57
0c81
0c74
0c3c
0c7c
fa06
fa47
fa50
fa7e
facc
fae1
faea
8931
89a6
8916
897b
89be
8925
899c
89ec
ee0d
ee57
ee04
ee24
ee3e
eea4
ee3d
ee82
ee07
eead
4adb
4ac6
4a35
4a33
4a3c
4ac0
4ab4
4ad2
4af2
4a90
4aec
4afd
5a2f
5ab9
5acf
5a0a
5a39
5ad1
5a38
5a29
5a77
5ac7
5ab4
5a5c
5a8c
5afc
5a9a
5a95
5a55
bf40
bf0d
bf85
bf26
bfcb
bf15
bf14
bfbc
bfa0
bf13
fe81
fe11
fe47
feba
fe7f
fe29
fe48
fe6a
fe4b
fe1d
fe42
feac
fee5
feea
fee2
ef60
efde
efd8
ef7c
ef98
efe4
efa3
efab
efaf
a58e
a581
a58a
a519
a5c6
a5be
a5cb
a5b2
a558
a599
a5a8
7f01
7f35
7fbf
7f3c
7f3d
7f8d
7fa9
9e06
9ec6
9edf
9eed
9e92
9ef0
ca4f
ca31
caf5
cad6
ca39
cac1
ca7f
ca09
ca38
cab0
cab4
ca18
ca8d
ca5e
ca9c
cae3
ca95
ca5d
cae4
cae0
cae9
887b
887f
88c8
8829
884b
88c7
88c3
6a08
6a19
6a33
6a77
6ad0
6adc
6ae3
6a58
6a5c
6a9b
fb32
fbdb
fb23
fbd6
fbd8
fbda
fb3c
5511
55c8
5589
55b4
5518
55b2
5556
55f1
2640
266e
2635
267e
2671
262d
2662
2846
287a
287b
2836
28c8
28c3
0d65
0dc6
0d7f
f978
f9bf
f92a
f96d
f943
f9a9
da03
dadd
da4f
da86
da05
da21
da76
da46
dace
dacd
da39
da09
da3d
dac0
dad0
da1a
da58
da84
da98
9a32
9ac5
9adf
9ad1
9a3f
9acc
9a2c
9aef
9aed
9ae6
8f86
8f38
8f69
8f33
8f63
8fe7
8f97
8f0c
9532
9519
95cd
9535
95be
95bf
9510
95d7
958c
9595
2422
24c4
24cd
2449
24d3
c48a
c4c5
c4df
c4d1
c42a
c42d
6d24
6d7b
6d1f
6d35
6d77
6d7c
ea6e
ea2b
eac2
ea26
ea75
eac9
ea09
eac0
ea1a
ea8d
ead3
eafa
ea58
ea5c
ea9a
eaf8
9fb5
9f3f
9fc8
9f3d
9fc0
9fec
4bdb
4b3a
4b3e
4b1f
4bf5
4bbe
4bde
4b77
af86
afb8
af23
afc5
af7e
af68
af29
af7d
af37
afa7
afe0
af0c
8b32
8b23
8ba6
8b08
8bc2
8bc5
8b72
8b48
8b6d
181c
c669
c66f
7632
7621
7667
7666
1b03
1bdb
1b73
1b26
1bc4
1b68
1bde
1bbf
1b28
1b2c
3db9
3d78
3d73
3d21
3d2b
3d19
3d36
3d39
3d27
d64f
d66e
d6ba
d629
d6bd
d6bc
826c
8231
8257
143a
4d6c
4d31
4d78
4da6
4d45
4d7b
4d34
4d0e
4dc0
612f
6157
6145
61c6
6139
8d05
8d85
8d65
8dc4
8df5
8d0e
8d3d
64b8
64a6
6481
64c0
274f
2723
2719
3c52
3c1f
3cce
3c3d
4873
4857
4846
484a
48c0
48b4
7bdd
7b6e
7ba4
7b7b
7b1f
7bba
7bcd
1d49
7703
770d
77b9
7747
77cd
77de
54f4
5485
542b
54c6
54c0
5b73
5b57
5b50
5ba4
5b74
5bda
5b2a
5b77
5b3c
5b2d
d4cf
d448
d427
eccf
ec11
ec45
ec76
ec47
ecbe
ec72
ec7f
ec09
ecc8
ec0e
47f4
47c6
47da
6822
682f
6870
683a
6834
68f5
68cb
68d4
50b5
6bdd
6bb9
6b68
6b38
6b48
6bcb
6b4b
6b2d
c132
c105
c16c
c1a6
c193
c126
c1c9
c1be
462b
46a4
46d6
3b8e
3b31
3b11
3b46
3b7b
3bc1
3bc3
e186
e13a
e1c5
e1da
e14e
e189
e1d0
e1d4
e1bc
bd0f
bd05
bd78
bd11
bd16
bd0a
bd36
bd0e
304e
3047
304b
bb50
bbcd
bbcc
676b
db05
dbb8
db73
db23
db52
db4e
db67
a62a
cc22
cc7b
ccc6
ccbe
ccb5
ed05
ed78
ed93
ed08
ed0a
edcc
ed3c
536e
5357
5376
53d9
53c8
53cb
e493
e48a
e429
e43c
e4c0
e4d3
cdaa
cdf4
cd4f
cdcf
cd11
cd1f
cd34
cdf5
cd3d
e8aa
e8b8
e8c9
e84e
512f
5157
5185
51c6
0732
0706
077e
07d6
0779
07ca
5cdd
5ca4
5c1f
5cce
5c7e
5c09
5c33
9c23
9ca6
9c1f
9133
918f
91d3
eb06
eb72
eb64
eb09
9b22
9b08
9bce
9bc4
9bde
9bbf
9b09
9b48
9b0e
6673
666e
6623
66ba
66d9
6667
6637
2260
22ce
22cd
22c5
3240
32cf
3274
327f
cbdd
cb06
cb2f
cb23
cb3a
cb7b
cbf5
cb09
cb25
cb0e
cb61
f1ba
f1b0
5468
546b
d860
d88e
d8a6
d876
d8ce
d8c9
d83b
d8b4
d844
d843
d101
d1aa
d140
d122
d186
d104
d145
d126
d1ce
d1d9
d1df
d141
d189
5d21
5dce
5d4b
5d2d
5dc7
5d2c
443e
44be
44cc
4441
44d0
44d2
7a4e
c860
c822
c8db
c873
c82e
c826
c8c1
c8cc
c848
c83d
c8d0
c8b6
c844
a83a
a8c8
a8bb
568e
562f
5611
5646
567b
710f
716e
71ce
710a
71d9
713c
7189
aba6
ab74
ab20
abd9
abb5
ab48
ab4b
20b4
b460
b470
b4a6
b4c9
b427
b437
b4dc
ad06
ad24
adc2
ad09
ad77
7d76
7d8a
7d7f
7d38
7d41
7d3c
58a4
5879
58ca
58c8
58dc
3073
3074
30b4
f6b8
f62e
f674
f665
f61f
f636
f6d9
b1c6
b1d6
b1cc
b14b
b12d
42c1
ac8e
ac78
ac2b
ac33
ac3d
a2c1
a2ca
4c86
4c6c
4c23
4c3a
4c39
4cc1
e732
e773
e72b
e745
e77b
e71f
e7c9
dc03
dc8e
dc16
dc19
dcc6
dcb5
dc7f
dcbf
e6b9
e647
e626
e68a
e6f5
e67e
e633
e63b
e6bd
e6b2
2ca6
2c8a
1c11
1cbe
9893
982d
984c
4378
437b
43c2
43ce
4379
43df
33c6
33da
e38e
e381
e350
e37b
e3c2
e38a
e375
e3de
e37f
e3cb
e3bb
63dd
6350
63da
b6dd
b623
b664
b625
7ca6
7c0e
9d73
9d3f
9d28
9d49
9d4a
84f4
8421
843a
8419
84c9
84be
8449
8c79
8c3c
bca6
bccd
f84f
f8df
f844
fd03
fdc2
fd25
96b9
96a6
9693
9675
9667
fcb8
fc47
fc16
67d5
1374
138a
13c4
13be
13d8
62aa
6240
6206
626e
62ce
62c9
6271
d3db
d37e
d3d9
d339
d372
d33f
d3cb
c740
c7f4
c731
c721
c72b
c77f
c771
f434
f436
f4cb
1232
1240
1247
127b
12d5
12d6
12df
a701
a706
a7c4
a7c8
57aa
5732
5711
57c6
57c5
577f
b78e
b771
d70d
d723
d720
d7d6
d77f
d0b9
d086
d076
d074
e2aa
e286
e257
e2a4
23ce
2339
2371
8786
87d1
8771
70aa
708e
707e
70c0
70b3
4086
40c2
40b0
407c
40b7
a374
f278
f245
f246
f2cd
f27e
f746
f7c2
604f
6085
6075
83d6
83d9
d20d
d26c
b378
b3c1
402b
97f5
97df
c301
c378
c381
c38a
c3ce
c3c4
c3c9
c37e
c3b5
c33f
9340
937a
93ce
92db
9275
6362
f379
f3ca
e077
e0c7
c075
c0c7
c0b4
10a4
4f44
4f47
4f49
f0aa
f070
f0b8
f073
f085
f0a4
f079
b093
b0ce
b0b5
a0f4
e7ef
4007
400f
ec91
07b5
305e
46ea
bbe1
bbe8
bbeb
6176
617b
7325
475b
e3e8
393e
56e9
56ed
352e
0755
104c
1041
9bee
a094
a09f
12f3
c1fc
3cea
e0ed
e31f
0aaa
40fd
6323
41f8
4369
6d67
6d66
4090
f4e3
f4e1
f4ed
0795
0791
1011
101a
83ac
e36a
4655
465b
3dd0
3dda
baae
500a
8216
8223
8228
7043
4041
4042
3de2
505e
505f
1dfc
9223
4890
6863
f2a2
bdd4
8b8f
e116
e89d
b095
b094
40a3
4b8b
2497
1db4
4aad
4aa6
4aab
2299
229b
6069
6062
d21c
6528
ed54
e6eb
4168
e295
e290
731b
dddd
d151
43f0
43f7
43ff
5065
506c
5064
5068
1463
146f
b004
276b
82ae
2864
e32f
c4a3
817c
8171
8176
4458
757d
757f
e494
e391
e399
129e
f6ec
7027
4de1
4de8
4de9
2213
221c
221e
3dbd
3db6
d195
4b92
7863
40ef
ecfe
ecf7
0de4
0de7
0de2
1cf0
3069
306f
645e
6454
3aa8
3aaa
4056
2751
d6e5
d6ec
d6ef
c11b
a895
7aa1
7aad
e3ae
e3a0
e3a8
bde5
bde1
70ea
46c7
a498
a492
d1e6
1490
48e3
48e4
48e0
7b97
7b92
781a
9236
c495
c497
f6c6
111a
246f
7095
7098
709f
d8e3
d8e4
c4e5
c4e3
c4e8
c4ea
e8e8
6415
e1ab
cddc
dbe4
d7e7
d7e9
3177
3176
cdb3
cdb0
dce3
dcef
14eb
2474
247a
446d
446a
78e0
78eb
1dd7
1869
64e7
e2e9
e2e2
e2a9
1174
117b
cde7
d6c0
6023
c199
c19d
d09e
d090
f691
f298
5de7
5ded
7019
701f
e021
3b95
3b9d
e7ab
e696
981a
d1f0
d1fd
d1f6
e2f0
e2fa
e1ed
cce9
3458
33ee
33e4
33e9
a15b
caa1
caa4
caa9
30ea
22ba
4dd3
4dde
51f9
c1e4
c1e9
e6c0
e6c8
3cf3
3cfd
76ed
07fd
1097
5d98
835c
8359
d815
2818
52f8
add1
add4
add2
b49c
b492
b49b
c329
e451
e456
84ea
d3e2
e04e
e049
16c7
16cd
1ce9
1cea
1da1
28ed
9212
969a
fce7
fcef
3bef
82b1
e163
e164
3094
679c
0cea
24e3
5369
536b
a796
a4a1
b4af
e06e
f19d
f196
22ac
a02e
a020
a029
b064
c6e4
df43
2cee
f023
f021
f02e
f024
ccfa
63ec
63e8
c761
5796
579b
7be9
83e5
83e7
83ef
a6e7
d297
d29b
e239
13af
5762
97b3
106e
7dbf
c3a7
e765
e766
e090
e097
e09d
e092
e09f
d068
d16a
d4ef
d895
13f2
13f6
5cf3
61e1
93e2
239a
72e3
7de7
7295
8cf1
8cff
9292
929f
929b
c162
d49c
521d
9794
c314
c316
c31b
203c
203b
47f6
8ce3
8ced
bffb
c8eb
e0f5
e0ff
e8f1
87ea
abe1
105a
419c
6db6
6dbb
1b95
1b96
5dd5
7f4d
7f46
87b7
9051
9058
9052
e7fe
e7f2
82fb
b39d
b39f
30af
66a3
8be7
8bef
adfd
d310
d31d
d312
7190
879f
92eb
bd91
bd98
cd91
d2b3
26ca
eb99
eb9d
f322
331c
56cb
5816
605b
6d90
63fc
93a6
a811
a3ec
a3e8
bb9a
d1a7
e465
e46f
5894
6222
622b
66ce
71ed
9dd4
9899
422d
4491
58e1
51e8
77a1
77ae
77ab
9097
a7bc
edb5
f2e9
a86d
b31d
c461
83f7
92f7
cdff
2cfc
2cfb
63a8
63a6
ab95
ab99
d6ac
54e0
54e8
a327
a7a7
d7a0
42ec
a2e2
b3a8
2239
421d
4216
53a5
53a2
7151
7156
715a
adba
e7bb
f7a5
ff51
ff5e
f792
2dbf
8458
c1a1
d2a3
d2ae
d2a9
8aa0
87ad
9063
a2f0
f05e
f056
849e
8492
d001
b322
97ef
77e0
77e9
77e2
7bf6
c06b
d691
f3af
a05d
a2a0
a2af
b6e3
b6ed
b119
f113
f11c
46af
50e5
86cd
d174
903b
23e8
88ed
a292
b223
b222
6213
6353
6bfe
886b
900f
92b3
b6c1
d75a
cbf6
3214
47ad
47af
4d6a
9fff
a3f2
b7bf
14a9
7695
8f58
8f5b
145d
12ac
5229
522b
6297
bdf1
bdfe
bdf8
257b
447e
4472
d471
f2be
d463
d468
e4a3
e4a1
e4a0
6695
6692
68f3
72f9
9d9e
c05d
c159
d031
c0af
edd3
f1a1
20f3
20f0
6154
c171
ef5f
ebe2
169e
169f
269f
5237
6f45
6f44
6f4d
9f59
e75b
4da8
c753
c754
ff44
516d
72a1
72a7
d369
96ab
a166
f45f
16a9
b03a
5175
5176
721b
a463
a467
c7ff
901a
a03e
a03b
c571
7df1
2529
252a
72bd
b46b
db5c
db58
db59
c8f1
f15c
1f4a
88fd
af5f
af56
d0af
d0ab
ed10
f463
f466
67b4
67bd
ebf3
ebf6
1369
b3fc
cd15
cd1c
d524
5691
5699
e529
f23e
28fe
8751
ad68
5315
a194
b17f
f47d
26ad
8d9f
5f58
84ae
a76d
62be
71ac
71ae
71a8
90af
56a9
af4c
3bf7
3bfd
9d66
d35c
f7fd
9363
152c
5f43
5f44
5f4b
9da3
ed66
a355
a353
6035
603e
6034
823f
b753
76a2
e26f
a363
f174
a01a
a01b
0d69
8577
b234
b23b
54a0
9751
3263
4267
957e
9529
0c1e
0cb4
04f8
0b89
078b
1c62
1c84
1c48
1f48
1cd2
138d
1ccc
1c44
1c61
1c6b
1643
108c
1687
1a6a
134b
1c1b
1251
1d5e
1a41
1b82
185c
1207
1b66
185b
141d
1255
125c
26c2
208b
24a2
230d
208d
2cd3
2c9c
224e
2c9f
2cb4
2cab
2308
2736
2c55
2c6a
24b4
2c4e
2a6b
2307
2387
2289
2c98
2a48
2341
2a4d
22d4
2734
228c
2682
2a44
2887
3241
3c51
333b
360c
338d
3610
3084
36f0
3c61
3d4d
3cda
3389
3d87
3cad
350c
3bbd
3607
3c2c
360f
3cb6
3651
340e
324d
3ccb
3b12
3342
33c3
3b55
402f
428f
4c20
4cd1
4a4b
4777
450a
4c8d
4728
4ca3
4c9b
43c7
4baf
4cb2
470c
4ba3
4c96
4c9e
44f7
40d3
4642
4bb1
4407
4c99
40d6
4cde
4d59
42d0
4614
430b
4a67
473d
478a
44bd
44b2
4251
48af
4b62
4b66
461b
42d7
425b
46f8
4d56
4413
48bc
4442
5d6f
5b5e
5743
52b5
5bfb
57f0
5713
5727
5d43
5c8b
54f1
5ca1
5337
5084
537c
5bb0
5738
5d59
5614
5b4c
5c0c
5789
5a4e
5a61
593d
5b8b
580e
6743
608d
672c
6bac
63d2
6736
64f3
630e
6d87
64f6
60dc
6788
66f7
665a
6782
6607
6ba9
60da
62dc
628c
6618
6683
6409
68b3
6d56
6254
7854
7df0
7ba5
7709
7507
7ccc
724e
7c9f
7d83
728d
7c6d
780d
7ca5
7407
74f8
7c54
7c5d
76f6
7209
7b1d
7c97
7733
7a66
724d
724b
76f8
7b8b
788b
7d56
714d
7410
8865
8269
8170
8606
8304
8704
8c59
8df0
8c29
8a4b
88a3
871b
838d
8c49
8c6f
8742
87d0
8d0c
8d5a
848d
8783
8936
83b2
838f
834c
830c
84bb
8ba8
8b18
880b
8c28
8488
8938
860f
840b
840f
882c
8255
844c
90df
90f8
98ec
908b
9304
9288
9241
9348
9c90
985a
9f41
908d
9ca3
967c
94f0
90d4
9cdc
9cd6
971d
977d
9d55
9c1a
94f7
9b8c
9c12
94f8
9c4a
9935
960d
93b0
950c
93dc
9b84
961a
93b1
9d51
9a64
973e
9734
920e
9a41
9207
9682
98a7
96f9
914d
980f
9187
925f
9662
a705
a305
a304
a777
a406
a709
af41
ac42
a72c
acd2
a4f0
a88d
ac9c
abac
acdc
a7d0
a71d
a644
ac95
a307
a509
a4f6
a6d4
a34a
ab84
ac4c
a607
aba8
a659
a739
ad56
a410
b172
b23a
b28f
b641
bd8d
b71e
bf48
bc89
bca3
b67c
bcdc
b736
bc0b
b087
bc27
b783
b642
bcbb
b344
bc99
b0d6
b60b
b65a
bba9
b4bd
b93c
bc9a
bd5e
b0da
ba49
b484
b444
ba4c
c6c2
c854
ca69
c082
c2b5
cc90
c649
c749
cca2
c30a
c610
c7d2
c725
c74b
c744
c710
c74e
cc9f
c643
c48d
cca5
c489
c3d3
cc92
c307
c60d
c788
cba0
cbab
cc5b
c0de
c73d
c4bd
c8a0
c488
c408
cb13
cc4b
c64d
c856
c61b
d0df
d704
d64c
d382
dc94
d743
dca0
d20a
d507
dca3
d343
dcaf
dc9c
d0d4
d337
dc5f
d308
dbbc
d489
d33c
d889
dbb1
dc2a
d344
d738
dbd4
d38f
dc91
dc53
db44
db84
d30c
d93c
d73e
da61
dc97
d93d
d938
d733
d809
db1b
d6d0
d683
dccb
d883
dba2
d613
da44
d858
d8b7
e221
e018
e269
e64c
e406
eba5
e6f2
e33b
e282
e08d
ecaf
ecd7
ec88
e4f1
e337
ec6d
e4f3
e642
e738
e3d4
e08f
e6f6
e2d0
e34a
e65a
ebb4
ec5b
e70b
e4bb
ec66
e341
e408
e24b
e61b
e613
e85b
eb58
e184
eb51
e18c
e8d3
e107
f6c2
f854
fc41
fb81
f3bd
f241
f68c
f282
f38c
fca9
fcd3
f343
f67c
fc15
fa6f
f7d7
fd55
fc10
fcd0
fbbc
f80d
f889
f309
fbb6
f6f6
fc98
f4b1
fa6a
f784
fa4a
f0de
fc4c
f4bb
f73d
fba8
f3b7
fc0c
f80b
f73e
f659
f408
f6d0
f651
f24d
f6f1
f207
f682
fba2
f859
f855
f8d7
fb5b
f8b2
02b5
02c0
02b0
029c
028c
029f
02af
01f4
01c2
01ca
01ff
01f3
03b8
03d5
03c8
03e7
03e3
038c
03ac
03ae
03eb
03f7
06a6
06d5
06de
06bb
06b6
06dc
069c
06e3
0696
06fd
06a2
054f
0509
0577
0588
053b
0554
05d2
051d
0594
055f
05a9
059b
0584
05a5
0559
05e9
05f7
088e
08c2
08c4
08df
083b
0844
089f
dd8e
ddb9
dd31
dd21
dd81
dd08
ddb5
dd64
dd49
dd33
dd15
dd63
ddbc
dd8c
dd9d
ddeb
dded
dd5a
ddf8
ddaf
dda2
232d
1731
177a
1719
17c5
177f
17da
1748
17bb
1715
1727
174d
1713
17f2
1796
17a3
17e9
175b
17ea
170b
04cd
0435
0436
04b6
0437
04d7
0494
0462
04a8
0491
04a2
04e2
4960
4926
49c1
49cc
4918
49e7
495c
49a9
4984
495d
4996
df73
df21
df74
dfd9
dfdf
df7f
df69
df3c
df2d
df67
df54
df82
df1e
dfb0
dfbc
dff6
df13
df9b
dffd
df5b
aab9
aa86
aa20
aac5
aa7e
aadf
aa72
aa6f
aa27
aab2
aaec
aae6
8622
8678
862e
8674
866a
8682
862c
864d
865c
86eb
86e6
2f45
2f4d
aaae
f8ec
f8ee
db93
db90
318e
3146
311f
3149
314a
3161
311b
3198
319d
3195
73db
73d1
733c
736d
73bc
734c
7359
9431
94b8
9473
9423
9452
9416
9427
945f
0bdb
0b24
0b09
0b48
0b3d
0b14
0b66
0ba8
0be9
0b0c
0a45
0a24
0ad9
0a44
0a5e
0ad7
0a8c
0ae8
6e54
6e8b
6e07
6efa
6e58
6e13
6e84
6ee8
f4f3
f4fb
c28e
c245
c267
c2d4
c2d7
c287
c283
c291
c2a7
c2e6
2103
212f
2124
212e
21c6
2134
21c9
214e
2169
210e
211e
21c3
21d4
2166
21f2
7e03
7ecf
7e7b
7e34
7ec9
7ed6
7ed8
7e71
7ef6
7efa
7ea9
7e8c
7e1c
7e91
7e9d
7e9f
7eaf
2bb9
2b6c
2ba6
2b52
2b39
2b68
2b71
2b41
2bbd
2bc7
2b43
2bf6
2ba8
853a
8547
8565
85c9
8549
8533
851d
8558
85ed
859f
cf60
cf23
cf16
cf2e
cf65
cf34
cf39
cf64
cf6a
cf54
cf83
cf84
cf12
cf5b
cff3
cf0b
4f60
4faa
4f86
4f78
4fc4
4f7f
4fda
4fcb
4f0e
4f54
4f1d
4f1b
4f99
4fee
e9cf
e90a
e928
e9c0
e927
e9d2
e994
e942
e9ac
e962
e9a8
e995
e9e8
e9f1
e57f
1832
18dd
1885
18de
189f
6c2b
6c0a
6c7e
6c39
6c41
6c1e
6c63
6c43
6cec
6c12
6c5b
2e24
2ec2
2e20
2e79
2ed8
2e2d
2ec0
2eb4
2ec3
2e07
2eae
2e5a
2ea3
2ee8
2ef8
2ee0
2e0c
2e0b
1f78
1fb8
1fc9
1f72
1f69
1f77
1f7d
1fbd
1f1a
1f37
1f8d
1fbc
1fd2
1f1b
1f58
1fa0
1f9b
1f90
1f92
1fa3
118e
11a6
1146
1168
11ca
11de
114b
113c
1182
11dc
11b3
11f9
524f
5270
527b
5249
528b
5299
52a9
52ad
529b
81c4
81d9
81c8
81bd
81e0
81e6
99dd
9906
9957
9908
9974
99c9
990a
99c8
998f
991e
99c3
9944
99d3
9910
9994
99a9
99a1
99a7
995a
2f50
2fca
0ece
0ec1
0e77
0e2d
0eff
0eb1
0ed3
0e5e
0eb3
0e5f
0eeb
0eee
0ef9
3001
69f4
690d
6916
694a
69ff
69c0
69d0
69d4
69b6
69b3
6913
698c
6912
69a5
0f32
0f86
0f31
0f50
0f38
0fc7
0fb0
0fd3
0fb3
0f5f
0fef
0f97
0f96
0fe1
19dd
196c
197f
1941
197c
19f6
19fa
1913
1962
19a7
19f9
1eb9
1e57
1e81
1e3e
1e74
1ec4
1e71
1efa
1e42
1e83
1eec
1e9e
1e95
1eee
65bf
65b4
651a
6599
655f
65ed
65a5
65f9
65ea
3ef4
3e93
3e47
3e24
3e65
3e1f
3ec4
3e7e
3ebf
3eda
3e61
3e18
3e56
3e4c
3e99
3efb
3ea1
3eec
3e5d
3ee4
3ef1
2d0d
2dcf
2d81
2d52
2d69
2d15
2df1
2de0
2dab
4547
4564
4515
45d4
45d2
45e7
45ae
45a8
455d
45a5
45a3
45f8
45fe
45ee
a113
a11a
7a3a
7a72
7acc
7a7d
7ae3
7a8c
7a9d
7aeb
7a9a
7afd
34f4
3423
3481
3419
34df
34bf
34cc
343c
34c3
34ac
34ae
34ec
6f2f
6fa4
6f36
6f29
6f1e
6f07
6fe0
3906
391f
39de
39bf
39bb
39bd
39c3
39d0
39d7
39ad
39ae
3996
39a2
8a03
8a22
8a31
8a81
8a16
8a20
8ac5
8acc
8a25
8a95
8a97
8a5a
d932
d940
d96c
d923
d946
d9d1
d9cc
d969
d941
d977
d9bb
d9ff
d967
d98b
d9f6
d94c
d9a0
d998
d951
d90c
d9ee
b9dd
b9b8
b911
b91f
b9ce
b9b5
b964
b9cb
b97d
b9bd
b9b0
b9b4
b9b7
b9e7
b94d
b999
b95f
b962
b95d
b9f1
b9f8
b9e9
b9fe
b9af
ba23
ba21
ba3a
ba19
baba
bace
ba20
bac9
bad6
bad9
bac7
ba10
ba87
d560
d5aa
d5db
d504
d5d6
d5be
d5b5
d564
d567
d554
d514
d544
d59b
d59d
d5eb
d5f8
d5e1
15a4
15cd
15c9
1536
1533
15d0
1563
1510
15f6
1587
1583
15ec
15ea
3a36
3a28
3a3c
3af6
3a97
09aa
0923
09bf
0977
096d
098d
09f0
090b
3565
35c2
358a
35c6
35c4
35de
353f
354b
35c3
35d0
35dc
358b
3514
355f
35ac
35a1
3591
355d
35fd
25d5
25d9
2564
253c
25c0
25bd
25b6
2510
255f
258c
25ae
2595
5e0d
5eb8
5e76
5e7a
5e50
5e34
5e3f
5e2a
5e6d
5e15
5ebd
5e8d
5ee8
5ea2
4e86
4edb
4e6c
4e23
4ea6
4e11
4e1f
4ec6
4e25
4e6d
4e14
4e44
4ed3
4e4c
4e12
4ea7
4e6b
4ef1
418e
4123
4147
41ce
4120
41cc
4125
410e
413b
41d4
412c
415e
41b7
41b2
41e7
4142
41a3
16b8
1645
1616
1636
1628
1625
166a
1667
162c
1610
16f3
1a03
1a85
1a46
1a47
1ac9
1abf
1abb
1ae3
1a58
1a56
1a12
1a55
1af0
1af8
1afd
7586
75db
752b
75f5
753b
7515
75e7
75fa
755f
75ac
75f1
75ea
8e05
8ef5
8eb5
8e71
8e33
8eb0
8eb4
8eb6
8eb7
8eb3
8e1d
8e87
8e92
8ef8
7981
7945
7961
797d
791e
79b4
79d0
7953
794d
79ad
79e8
790c
ce40
ce23
ce04
ce46
cec6
ce79
ce7f
ce29
ce15
ceb1
ced0
ceb6
ce8b
ce5e
ced7
ceb3
ce5f
cea1
78dd
78b5
78da
78cc
7833
782d
782c
78fb
7897
de4f
deb9
de6e
de11
de47
de8a
de68
dede
de10
de53
de58
dead
deae
de62
dea8
dea1
deec
de92
def0
dee8
dee1
de0b
3f2f
3f78
3f81
3f2e
3f1f
3f75
3f7f
3fda
3fcc
3f6a
3fd4
3fb7
3f1d
3fac
3f0b
be22
be8e
be6e
be81
beba
be7e
be3f
be29
be41
be77
beb1
be54
be27
be9c
bee3
be42
bead
bea8
beed
a446
a424
a4c7
a437
59f4
5978
596e
59d5
59d6
597f
594b
5967
591e
5956
59a0
595f
599d
5996
59f3
2a32
2ab9
2a6c
2a73
2a74
2ace
2acd
2a79
2a7d
2abd
2a8f
2a2c
2ad7
2ae7
2aea
2af7
c5b9
c586
c511
c5ce
c535
c5d9
c539
c5ca
c5b5
c53f
c53d
c583
c5ae
c598
c590
c512
c5f0
c5ab
c5af
b5aa
b522
b531
b53e
b5c1
b5df
b53b
b5b4
b51d
b5fa
b587
b5f7
294f
29cd
29d1
298b
29b7
298c
29f1
29ab
29af
295b
e560
e506
e5b8
e56e
e5cf
e545
e5f5
e5c5
e549
e548
e54b
e561
e567
e58f
e563
e514
e5d3
e5e7
e51c
e598
e5e6
7440
742f
7485
7411
74c5
74d1
74c3
a140
a12f
a10f
a146
a1ba
a1c4
a1da
a188
a1b7
a1a5
c960
c932
c940
c96e
c924
c97f
c9cc
c9c3
c910
c9b3
c9fa
c999
c913
c9ab
72d5
72c4
72d6
3623
363a
3645
36de
36d1
3677
36b7
366b
ff8e
ff2f
ff6c
ff23
ff76
ff7b
ff20
ffc1
ff09
ff71
ff67
ffc3
ffd0
ff63
ff9d
ffe0
5f8e
5fbd
5f8f
5f1e
5f14
5fe3
5fef
5f6b
5f0c
ae57
ae2e
aeba
ae0a
ae36
ae28
ae8b
ae66
ae99
aea9
ae96
ae0c
aeaf
aef9
aef7
a901
a906
a9db
a9a4
a97b
a926
a9cd
a9bf
a98c
a99d
a9f7
0c40
0c85
0c47
0c7a
0cba
fa70
fa31
fa81
fa7a
fa75
fac9
fa36
fac3
fa07
fa9d
fa9e
8901
8906
8976
8926
89cc
8941
89d4
89b6
8927
8963
89eb
ee40
ee21
ee7a
ee50
ee39
ee2d
eec7
ee1a
ee18
ee66
eea0
ee9e
4acf
4ad6
4ad1
4acc
4a0e
4a77
4ad0
4a5f
4aeb
4af0
5a8a
5a72
5a8d
5a5a
5afd
bfcf
bf7b
bfbe
bf68
bf64
bf28
bf6d
bf6b
fe8e
fe0f
fecf
fe34
fec4
fecd
fe09
fe2d
feff
fea9
fe95
feef
ef8e
eff5
efc1
ef72
ef69
efbb
ef27
ef14
efbc
efb3
efec
ef9f
efa5
a503
a522
a5b8
a573
a56e
a504
a511
a535
a5d1
a589
a556
a583
a5a7
7fdd
7f16
7f38
7f29
7f89
7fef
7fa2
9e6c
9e35
9e0a
9e68
9e49
9e7d
9ebd
9e1e
9e7c
9ead
9eac
9e96
9e51
ca2f
ca05
ca57
cad5
ca34
ca20
cac4
ca7e
ca79
cadf
ca33
ca89
cad4
cab2
ca13
ca84
ca97
caf3
cae6
882e
8874
8834
887e
882d
88ff
88b7
6a01
6adb
6a78
6af5
6a71
6ab4
6a8d
6af6
6aed
6af0
6af1
6a0b
fbdd
fbb8
fbcf
fb47
fb16
fb34
fbc5
fb7e
fbd1
fb49
5503
558a
55c6
55c5
55de
55bb
5599
5555
262f
2673
26be
26d9
2664
2666
28aa
28cf
2839
28d1
2872
28b1
28dc
0d40
0dcf
0d24
0d75
0d36
0dcc
0d4b
f9cf
f9be
f9ca
f9c0
f9d4
f99c
f953
f94c
f9f2
f9e9
f9f7
da60
da22
da2f
da73
da08
da7b
dac2
da8a
dac6
da35
dad6
da79
dab5
da71
da51
dae9
da0c
da5b
9a16
9aba
9ad8
9ac8
9a3c
9aff
9a7c
9ad7
9af1
9afd
8f0d
8f2f
8f6e
8f65
8fc6
8fcd
8f15
8f14
8fb3
8f1d
8f1c
8fa3
952b
9504
95c5
9533
954a
953c
9594
95f2
95ad
95ac
95a8
959d
95eb
95a7
246e
2493
241f
248a
2439
24cb
243c
2437
c470
c4a6
c4ce
c4c9
c4cb
c4d4
c4dc
c442
c44d
6d0d
6d78
6d37
ea05
ea21
eacc
ea3c
ea89
ea1e
ea99
ea51
ea0b
9f2b
9fa4
9f74
9f7e
9f79
9fd1
9fd4
9fe3
9f9f
4b32
4b57
4bc6
4bc1
4b3f
4b33
4b2d
4b3d
afa4
afca
afdf
afd4
afbc
af92
afe4
afa3
8b0d
8b70
8bb8
8b52
8bd9
8b7f
8b7c
c622
c631
c657
c61f
c6d5
c636
c679
c6d1
c666
768e
766c
7675
7639
76b5
7638
766f
1b22
1b31
1b6e
1b75
1b35
1bb5
3d57
3d4b
3d4a
476b
d621
d681
d61f
d619
d669
d66d
657f
82f4
820f
82b8
8274
82c7
82c3
14aa
14b9
14c9
14bf
143f
4d0d
4d6e
4d7e
4d39
4d7f
4dcb
4dc3
61aa
6181
6134
61c4
61d8
6138
612d
61d2
61b7
8d6c
8d35
8d39
8d09
8d3f
8d38
8d4a
64f4
644f
6457
6421
6436
64b5
6438
6429
6433
64c3
64dc
64d2
272b
27ca
3c32
3c2e
3c74
3cd5
3cbe
3cca
3c3c
4832
482b
482e
48cb
48b1
7bf4
7bbe
7b09
7b69
7b0e
1d0f
1d78
1d3a
1d2b
1d45
1d34
1dca
1dc8
1d4a
77f4
77c1
77c8
54bf
544e
544b
54c7
54d2
5b52
5b24
5bce
5bd9
5b3b
5bc0
d416
d43e
d4ba
d43f
d433
5455
5456
ec06
ec08
eca4
ec74
ec39
4701
4721
472b
47ce
4775
6881
68ce
68be
68bd
50a6
50bb
50c3
50b6
6b57
6b20
6bc4
6bc9
6b3f
c108
c146
c134
c1c4
c1d8
c18f
c1c7
c1b7
462f
463a
4647
467e
3b60
3bdd
3b0f
3b6e
3bba
3b7f
3b64
3b49
3b67
e1db
e123
e124
e1c6
e1c4
e139
e149
e182
bd0d
bd31
bd45
bd76
bd47
bdce
bd20
bdc9
bd71
bdcb
bd3b
bdc7
3049
bb23
bb2e
bbce
bb38
db2f
db21
db04
db74
db75
db39
db3c
db3b
a6d8
a6bd
a6b0
a62c
cc23
cc52
ccc2
ccce
ccc9
ccc5
ed01
ed23
ed04
ed65
ed26
edc4
ed36
ed28
ed7d
5335
5372
e4aa
e4c6
e42a
e44a
e42d
e43d
cdb9
cd78
cd6e
cd23
cd04
cd41
cd3b
cd7d
cd37
e886
e87a
e8ce
e8cd
e835
e8cc
e8bd
5131
51c9
5148
510e
51dc
51b7
074f
070d
0720
0771
5c06
5cb5
9cb8
9c0a
9cca
913a
91a6
9104
918a
9135
91c5
9109
91c8
91bb
ebdd
eb4f
eb2f
eb57
eb21
eb0e
9b60
9b03
9bb8
9b21
9b7b
9b1f
9bd5
9bcc
9b4b
6647
667a
66d1
6638
662d
66bc
1408
224f
22c4
328e
320d
cb4f
cb05
cb78
cbcf
cbce
cb28
cb4e
cb29
cb3b
cb67
f14f
f18e
f157
f1a4
f1d9
f1bf
f1c3
5462
d8db
d831
d87e
d8d1
d8c7
d132
d1f4
d123
d152
d1d5
d1ba
d1c8
d12a
d12d
d13b
d182
5d08
5d52
5d47
5d20
5d7e
5d7f
5d09
5dc8
5d27
442f
4470
44b8
44d5
44cd
4449
c803
c824
c8c5
c836
c872
c82a
c8bb
c837
a8db
a857
a847
a87d
5621
5650
5679
5667
5637
562c
7140
7121
7145
7136
7182
ab03
ab40
ab22
ab31
ab3a
ab7a
abde
ab64
ab6d
ab7d
20ba
20cd
2075
20bc
b4b8
b493
b424
b4bf
b43d
b4d2
b4d7
adaa
ad22
ad72
adc3
ad7c
7d8e
7dc9
58b9
5823
5845
5876
5846
5834
58d6
58d1
58d0
304f
30b9
3093
30ca
f679
f6da
f63c
f63b
f6b3
f6b2
b1b9
b1c2
b126
b13c
b1b7
4270
4250
42c6
42cd
42c9
4271
ac60
accf
ac81
ac8a
ac09
a273
a2a6
a276
a2c8
4c32
4cdd
4c8e
4c0d
4c31
4c85
4c11
4c2e
4ca4
4c3c
e7f4
e706
e731
e7c1
dcaa
dcdd
dc4f
dc11
dc45
dcc5
dc39
dc0e
e632
e68e
e621
e646
e6bf
e638
2c39
2cc1
2c3f
1cf4
1c22
1c70
1cd5
1cb5
1c77
1c3d
9846
98c1
98de
9849
437a
43c6
43c9
4338
33b5
3377
e3aa
634f
6331
6385
63c6
6336
63b5
637f
b6b9
b6db
b619
b6b5
b63c
b6bc
7c6e
7c85
7c11
7c7e
7c36
7cbf
7c09
9d70
9d86
9d16
8416
84c8
8448
844b
843c
8c8e
8c6c
8c31
8c73
8c7b
8ccd
8c7e
8c77
bc0f
bc3a
bc7e
f801
f860
f870
f82e
f87b
f87f
f8d8
f849
f8b1
fd23
fd8a
fd49
fd3d
964f
9678
9645
9646
9647
96d6
96d8
fc01
fc04
fcc9
fcc1
6776
6747
6750
67c6
67c4
67ca
13ce
6278
6208
62d5
d38e
d370
d3b9
d350
d3c2
d3ca
d3d1
c78e
c793
c77b
b205
b278
b2d9
b2de
b272
f432
f440
f4dd
f46c
f423
f43f
f449
1286
127a
128a
12cd
12c9
12c7
a711
a776
a774
a7cc
574f
576c
57d6
57cb
57c0
b70d
b7db
b745
b7d5
d7aa
d7dd
d7db
d757
d72b
d752
d726
d7d5
d77e
d7de
d0f4
d0ca
d0bb
d0b1
d0bd
e2c2
e271
23aa
2386
2376
23d5
23cd
23da
23cb
87b9
876e
8776
872e
707b
70c2
70c6
70c9
70bf
407f
a301
a332
a336
a3bb
a37d
f203
f293
f27b
f2d9
f740
f72b
f745
f7d5
f77e
f7c1
f7c8
6078
607a
6074
6071
60b2
83aa
8378
8346
83cd
8379
83c1
83b5
d203
d2f4
d2db
d293
d246
d27b
d2c4
d2d6
d27d
b340
b3f4
b379
b3cc
402a
9740
9745
9746
97c5
9772
97cb
c377
c3bb
93dd
9357
9335
93be
9232
928e
920d
9286
9285
92a4
928a
92c5
92d8
927d
4812
f3dd
f37a
f3c1
f3de
e073
e093
e081
e0b0
3227
c093
c0c4
c0c3
10c1
10b1
f0f4
f0b9
f07a
f0cd
f0bf
b073
b072
b07f
b0c3
b0b7
073a
073b
a060
a07b
a0ce
a0c9
a07f
a0b0
a0b4
6aa4
6aa7
206f
9070
90bd
ece4
400e
3323
332b
46e6
bbe0
d8f3
d8f9
c233
617d
7329
8d18
e3e5
56ee
56ea
075f
075b
104a
9beb
a099
a09a
12f7
7764
c1fe
c1fd
c1f2
a06b
e0eb
547f
e313
e31a
f7ee
0aa2
40f3
511e
6f5c
6f56
dcfe
dcfb
41f0
41f9
4364
f4e6
f226
f22a
5043
700d
101f
13e4
7165
7169
e36d
e36f
7171
3dd3
3dd7
baa4
5007
201e
c21c
822c
4061
36e2
3de7
505c
5057
5052
22e5
3d96
e816
f2ad
0761
076b
32e3
bdd9
bddf
7228
b099
40ac
22f2
22ff
e1f0
7cec
7ce1
7ce0
4173
417d
417f
e008
1dbc
4aa0
4aa8
2291
2290
229d
2292
6068
606a
d21e
d219
6526
a691
4166
c0ec
c0e0
c0e6
e298
c362
f2f1
ddd5
ddd3
ddd8
43f8
506b
b007
47e3
47e6
82a5
82a8
82a2
2861
286b
e32d
e326
e32a
1ded
486d
66e4
7235
7238
4455
445b
1d1b
e49d
129a
f6eb
7021
702b
e2bd
4de2
4de6
2214
3db7
3dba
4be3
4be0
5327
d198
4b93
4b98
786b
30fe
3dfd
0de0
1cfa
306c
9b99
9b96
645a
3aa2
7056
b6a0
0dd5
0dd9
d6e3
4031
4036
403b
4015
7aaf
e862
e3a4
e3a9
e192
70ee
46cb
a497
e01f
d1e9
d1eb
d057
d05f
d05a
48e2
7b9c
7b9b
7812
9233
c492
f6c0
f6cb
709b
d8e6
e488
f6a9
47bc
74ec
74e9
74ef
dbe3
3174
4323
c2fa
c2fb
cdbb
247d
1dd9
1861
4394
3d51
cdec
cde0
cdea
c02e
c02d
c190
d09d
d09b
f29c
f297
5de1
5de4
5de2
6498
6492
e024
e029
3da1
e7a0
e7a8
e7a2
e694
e699
d1fe
d1f8
d395
e1ee
e1e0
ccee
cbe7
cbe2
cbef
345d
33ec
4cf2
4ce8
8322
a15f
b0e7
caa8
caaf
caa6
d32d
4bf1
22b1
22b4
4dd8
4dd2
51fe
9cfe
9cfa
c1ea
3cf9
3463
3469
346f
1be5
1be3
109f
5dbd
5db6
9ce2
9cea
d81b
2812
281a
52f9
52f6
c3e4
c3e9
5ce4
5ce0
5ce7
5ce9
e45c
e45f
84e4
daa8
e045
e046
f1ee
f1e8
f1ea
16ce
16c9
1ce3
1ce8
1ce6
5023
3d18
9214
fce3
fce1
fce2
0dfe
9aad
9aaf
d02b
e16a
1d68
3f53
3f5d
6796
24e1
24e4
5190
e064
22a1
22ae
a02a
d2f2
d044
d04a
e3f1
e3fa
2b99
2b9f
df4c
df4a
d3a4
d3a6
2cec
fbe0
ccf3
ccf2
c092
c096
e158
0b9f
70f5
839d
d791
d790
d798
d797
7be5
7be1
a6e8
d294
13ad
5763
98e0
98ed
97bc
1061
7dbe
c3af
e76b
e099
5aa3
5aa9
d066
d162
d166
d4e8
d4e9
d890
5cfc
5cf8
61ec
61e7
93e8
d0e4
d0e6
5b9e
7dd0
7dd2
72e6
8cf7
8291
829b
9298
c16f
d491
e039
5869
5211
904a
c318
c319
c312
f210
8ce4
c8e2
c7e6
e0f3
e0f2
e8f7
7495
abee
abe9
4192
479f
5be4
5bea
6db7
6dba
87f3
1b99
1b92
1bf6
4df2
7f42
87bc
87b0
e7fb
43a1
43a4
b395
faa3
10e7
66a7
bcfe
d31a
e0a2
8794
8790
92e7
bd9c
bd9d
cb90
cb99
d2ba
26ce
26c6
5159
515d
68ed
f32d
56cc
5815
5810
5812
6d92
63f7
63f2
93a2
a819
a3ef
bb9b
c694
c699
d45e
d1a1
d1ae
e46d
5890
589f
622f
66cc
71ec
c81d
e6ac
e6a2
4228
43e1
43e7
449c
a7be
a7b4
edbd
f2e5
b31e
b312
c463
c464
1225
619d
609b
83fe
cdf6
2cf8
4db5
4db6
44e2
63ae
c798
c79f
a6c5
a6c0
d3fb
d6a0
d6a9
ace3
acee
acef
e415
e41b
f0f7
42e7
7d9c
7d9d
846d
8466
a04c
a04e
b210
b3a0
2237
4215
4213
7111
711d
9dba
a00d
a006
adbe
e7b3
e7bc
f068
f062
2db0
2dbd
3f4e
3f49
3f4f
435e
4359
435d
435b
53ef
c1ac
c1ad
d2ac
d2af
53fe
53f6
6cf6
3294
8aad
906c
a2f6
f054
8499
849d
a7ec
b32e
c868
3390
4856
96c5
96cd
97ed
d7bd
147e
1474
c06e
c064
f3ac
f3ae
889e
8896
d222
9316
a057
ad91
ad9a
b6e1
b11a
b1f0
b1f8
cdab
27e7
46ae
46a9
50e3
6b93
6238
623f
6236
6de0
86c3
b0f6
d17f
2794
8dd4
8bf1
8bfe
eaa3
eaa8
3359
3356
88ef
a29d
20a5
20a7
6219
6216
635f
6356
6bfc
6bf7
76c5
76cc
9006
932d
9326
932b
92bd
d756
f39a
42f6
cbfe
cbf8
cbf7
c89d
fbf1
47a5
4d62
5756
a3f0
b7b6
b7bb
2dde
769b
74ab
8312
c6a9
c6af
0cf6
1394
12af
6298
71f5
71f7
71fb
bdf9
bdff
4477
9f46
a6a7
b1a2
d47f
9de8
fd95
57ab
6694
68f8
8dbf
ed90
c055
d038
58f1
58f8
44a5
44a0
44ab
7ff8
7ff2
c176
1691
2699
d76a
60f0
67ad
60ac
60a8
8f43
91ec
d235
d23e
e75a
64a3
64a9
77bd
b02e
c75a
d0f0
f003
ff43
ff49
f097
62ff
d861
d86d
775b
96a3
a161
a16f
c031
469a
92ae
b035
b19d
62ad
9015
91af
a0af
b7a7
48fe
a03c
c577
f0ac
457e
7df7
bdac
bda1
bda7
72ba
b465
0f42
c8f7
1f4e
1f49
5097
752c
7520
9359
935a
93f9
b3e6
c3fc
f467
f46a
5014
5019
5016
67be
ebf0
fd6d
1364
136a
a7f8
a7fd
23fa
601f
a2b4
b762
b76f
b3fb
cd1e
cd12
5698
28f0
36ad
6318
6316
bbf9
eda7
5314
a57c
f471
4d1b
51a1
84a9
9dfe
a45c
cf43
c35e
ef47
edf6
71a0
8df8
8df9
90a5
50a3
57fc
b155
b696
d358
1529
abf0
0dae
0da0
ed63
ed64
ed68
fda9
d4a1
d4a9
7da5
452d
452a
823c
ad12
b35c
6da9
5dad
8479
8369
fdf8
1233
76a1
76a9
e262
9bf1
b7f1
5ff0
a36d
a011
77fa
bd1a
5524
f168
f166
a479
a47f
7d13
157c
1571
f8f7
9d18
9d12
6df6
b369
9261
9267
3264
1266
126b
826d
826a
f36a
a26a
7d62
8d6b
a54d
04fb
0ca0
0c84
0cd3
0d42
0934
070c
0712
0d55
0c6a
0c43
0c4d
0c4a
0d59
0d5b
078c
1269
1da2
1c59
1c29
13bd
1282
1c07
1c5e
1ba3
134d
1cbc
1242
1c87
1243
13b4
134e
1344
1c63
1b1a
1cae
10d7
1cc3
1a67
1b84
108a
130f
193d
1658
14bc
1c26
1851
1d53
1b5b
2cd1
2082
2641
2c90
2c82
2c89
23d2
228b
20db
2087
2cbc
260d
208f
2a42
2c91
250c
23d0
270b
20de
234b
22d3
2484
278c
28ab
23c3
293f
3172
3221
365e
3c8d
3c07
3ca8
3cd7
3088
3c1c
3388
3684
3c27
3c4e
324a
3a63
3c95
3c2a
36d7
338f
3687
3688
36d4
3cb3
36f7
3c5b
3a48
3b18
320c
3c4b
3a66
360e
3613
36fe
3655
36f3
36f9
3b58
3b51
3b5a
3255
325c
3258
4c62
4033
46dc
4ba5
4348
433b
4282
47f0
43bc
4c67
472a
47d4
4744
44f1
4d83
44fd
4ca1
4c1c
471d
4736
4c27
4249
4cda
4ca5
4a6b
4735
43b4
4c95
4344
4c63
438f
4bd2
4c98
44ff
424c
44b3
4a6a
450c
461a
48a0
4d5e
461d
4827
4482
4418
4666
4258
5033
5c59
53e3
5714
5b6b
565e
5c8d
5c89
5ca3
5c9b
5603
5cb1
588d
5729
5384
574d
5c13
530e
5b8c
5c63
56d7
50d6
56f7
5c25
5c5b
53d0
53b1
573d
538b
5341
534b
5b1d
58ad
5809
5856
5483
56f1
5bd0
58a7
5c26
561c
5b5b
58d3
66c2
602f
601c
6df0
62b5
680a
6248
6343
624e
628d
677d
6242
6249
60d1
6a6b
6b8c
6737
670f
6387
6b07
633d
6244
6a67
6487
6707
6d54
63b7
6615
6789
62d3
6bb2
68af
66fb
6a41
6739
673b
6259
644d
6442
7018
7da2
70d8
771b
785e
7241
785a
77d4
7cc0
7cb0
7cd6
7c1c
7089
7c9e
7c83
7c87
7bb0
70d3
7cbb
7735
7bb1
708c
7bb3
7b1a
7cde
761a
74f5
77d3
7c9a
7287
7251
7d8b
7488
72d4
78af
74f9
785c
7937
7808
7653
7882
7482
7852
788f
7418
840d
8804
8604
8404
8c20
84a2
8d8d
82b5
8282
860c
840a
83d7
8713
8603
8cd7
8bac
8a6f
872d
8c5c
8ca1
8d55
8d84
8889
84f8
8c92
8781
8738
860d
8bd2
8bdc
834a
8c69
8707
84f5
8a43
82d4
8856
824d
8b59
8414
8b53
9805
9865
93e3
9c20
965e
9c8d
9649
971e
938c
9c89
9727
967d
93c0
9cbc
9d5a
9c13
970f
96d2
9c25
970b
9b87
9a43
9287
9bb2
973a
920c
9618
9b82
96d0
9184
9b51
9253
918b
a0df
a306
a354
ad6f
a033
a3e3
adf0
a082
ac51
a33b
ac8d
ad5c
ad4c
a30a
acd7
ac1d
a308
a0db
ac64
acd0
a489
a0d3
ac63
a0d2
abb3
abab
abb4
a3dc
a4bb
a287
ab10
ad5e
a733
a93e
ad0b
a41a
ab58
a413
ab5b
a25c
b605
b304
b704
b311
bc5a
b0d8
b256
bc8d
b72c
b749
b713
bb14
bccc
bbae
b74e
b729
b443
bd0c
b268
bc9e
b30e
bbd3
b3b6
b689
b68f
bcc3
ba6a
bc18
ba67
bc69
b4bb
bb1c
bb87
b287
bb10
b73c
bc2c
b938
b654
b4f9
bccb
b50e
b61d
c4fb
c00c
c3e3
c64c
cb5e
cc5a
c4a2
c641
c6dc
c406
c50a
ccd2
c71c
cb43
cccc
cc88
c4f0
cc68
ca6f
cc5c
cc44
ccb2
cca1
c712
ccab
cc56
cc10
cd89
cb8c
c735
c48b
c3d4
c688
ccad
c3dc
c785
c78a
c341
cbb2
cbbb
c618
cccb
c4b6
c342
c61c
c93f
c6ff
cb56
c41b
c88f
cb5d
cb58
c8d7
c18b
c143
cb5a
c142
d4fb
d08b
dcd4
db5e
d641
d71b
df41
d749
d3d7
d71c
d648
d383
dcb1
dcac
dc88
dc14
d72d
dc9f
d084
d712
dba3
d77d
d718
d37c
d4f8
d209
d787
dba1
d3d0
d73d
dba9
db10
da66
d40e
d444
d61b
d6fe
d882
d852
d888
d41d
d41e
d25e
e0df
e805
e305
e804
ec1e
e777
eca8
e67d
ebad
e742
ecdf
e308
e708
ec7c
e089
ec43
ec83
ea6b
ebd3
e936
e4f6
ecad
eb89
ecb7
e3b1
e78b
e3b7
e4b2
ec28
e70e
e608
e6fb
eccb
e4b6
e8ab
e61e
e883
e409
e61c
e612
e827
e187
f604
fdf0
f4a2
f748
fc84
f6f2
f715
f71e
f60a
fc07
f38d
fcac
fd8c
f74c
f27c
fb8d
fc9d
f388
f708
fd0c
f242
fc4d
fd84
f389
f935
fc99
f68b
f3d4
f70f
fb07
f0d2
f60d
f614
fc5b
f284
f78a
f341
fb18
fa49
f28c
f20e
f658
f656
f8b3
f482
f44d
f143
f8bc
f666
02dd
0289
02eb
02ee
01d4
01a7
03cd
03d8
03c7
03b6
03b3
03f2
03f1
03ab
06dd
06c2
06d2
06a8
05b8
0557
0552
0538
056f
051e
0527
058d
057c
05ac
0598
059a
05af
055b
0840
0831
08ca
084b
088f
08b0
0866
0898
089e
08ef
dd76
dd47
dd65
dd75
dd3f
dd48
dd3d
ddae
dd6b
dde4
ddfe
ddf7
176e
1745
1752
1746
1724
178a
17ce
17d9
176d
17b0
17c3
17dc
172c
17b7
1787
17ae
1712
17e0
17ee
17e1
0460
04a4
046d
0467
04c7
041e
04b4
045f
049b
04ed
49b8
49ce
49c4
49c9
49df
49c8
49c7
491e
49c3
49d0
498b
492c
49f7
df0d
dfb9
dfdb
df23
df3a
df08
dfba
dfbe
dfd1
df09
dfda
df61
df63
df7c
df56
dffc
df62
dfa3
df59
df0c
dfee
dfea
aa32
aaf4
aa8e
aa50
aade
aa14
aa8d
aab7
aa66
aaf6
aafa
aa5f
aa9a
aaed
aae9
aaea
8631
8693
8619
86ba
86be
863b
861a
8637
86d3
8683
8697
86ab
2f43
2f44
aaa3
f8ea
f5f5
31cf
31ce
31c4
31cd
3148
3118
3163
3142
3156
31ad
31fb
311c
240b
73c2
73c4
73be
7382
7344
737c
73a0
73a9
7390
735d
73e8
73ee
9460
94ba
94da
94ac
94e4
0bc6
0bd9
0b7f
0bc8
0b29
0b77
0bbb
0b1b
0ba0
0b13
0bec
0b0b
0a4f
0a2f
0a11
0ac9
0a79
0a72
0a3f
0a25
0a67
0a82
0a18
0ab2
0a1c
0a9e
0a6b
0ae9
0a5b
0af7
1607
6e50
6ec2
6e1f
6e36
6ebf
6e4b
6e77
6ed3
6e1b
6ea9
6ef2
6e8c
6e62
6e51
6ea3
6eab
c2b8
c204
c2c4
c2cd
c268
c2c7
c28b
c2e1
c2e2
21f4
2122
210d
211f
21be
216a
21bb
21b3
2143
2113
2184
21fc
21a1
21e8
21fd
7e0f
7e93
7e08
7e72
7e3f
7e29
7e6f
7e89
7ed4
7e18
7e66
7eb3
7eae
7ea1
7e51
7ea3
7ee1
2b16
2b24
2b74
2b1f
2b75
2bf5
2b1d
2b56
2b1c
2bfc
2bea
8540
85b9
852e
850a
85de
85d1
854a
85dc
852c
859c
8543
856b
855a
850c
85a2
cff4
cf22
cf0f
cf85
cf52
cf50
cf26
cfba
cf79
cf7f
cf69
cf2a
cf0e
cf15
cf63
cf5e
cfa0
cfae
cf9a
cf51
cf5a
4f8e
4f6e
4f57
4fc2
4f1f
4fc1
4f64
4f88
4fb1
4f8f
4f27
4f66
4fe7
4f5c
4fa0
4fae
4fa1
4fec
4feb
4fed
4f9f
4fa5
4fe2
e922
e90f
e908
e916
e909
e929
e9cb
e961
e9b4
e963
e914
e943
e9e7
e95f
e9ad
e9fb
e9fe
23ae
1893
1847
18ce
18ca
182a
184b
183b
188f
184c
18ae
1891
18a5
18ab
6c60
6c22
6cb9
6ca6
6c7b
6cd5
6c20
6c88
6c6d
6c8f
6c1a
6cb7
6cb3
6c13
6c98
6ce8
6c59
2e03
2e7a
2ecd
2ef5
2ed6
2eb5
2ecc
2eb1
2ef6
2e1c
2eab
2ef3
1ff4
1f8e
1f73
1f57
1f7a
1f34
1f20
1f75
1fdf
1fcb
1f7c
1f66
1ffa
1f83
1fae
1ffc
1ff0
11a4
11f5
11d6
112a
11b4
11c3
1127
1187
118c
115d
5246
52c2
52cd
520a
5269
5277
52c3
528d
52e7
524d
524c
525d
81cb
81ff
81ad
81ac
8190
8195
8196
81f9
81e2
990d
992b
9981
9919
99c1
997f
996f
99c7
99d0
995c
99a8
99a5
99a3
99ab
99af
2fb8
2f57
2f20
2fc4
2f79
2f6f
2fb0
2fc3
2fd0
2fd4
2fd2
2fd7
2f90
2fa5
2fe1
0e26
0ec6
0e79
0e25
0e48
0ecb
0e15
0ec0
0ed4
0e53
0e58
0e96
0ee0
69aa
69b8
693a
6911
690a
6968
6948
697d
694d
6987
699a
69a7
69a2
0f22
0f21
0f65
0fd8
0f77
0f88
0f3d
0fb1
0f8f
0fe0
0fee
19cf
19d5
19be
1971
19b0
1963
194d
195f
19fc
19fd
190b
1eaa
1ef4
1e8e
1e86
1e7a
1e7b
1ef5
1e39
1e54
1e1e
1ed4
1ebc
1ef2
1ea8
1e9a
1e97
1efe
65f4
6546
65d1
654b
65bb
65c7
65d4
65fa
65ae
659d
3e03
3e45
3ec2
3e36
3ed9
3e7f
3e4e
3e38
3e25
3ec0
3eb4
3e5e
3ea0
3eae
3e98
3e9d
3eed
3e6b
3efd
3e0b
2d06
2d7c
2d1b
2da3
45dd
45cf
45a6
4539
45d1
4561
4567
45bd
45d0
451a
45d3
455e
459c
455c
458c
459d
459f
7a0f
7aba
7ad8
7a0e
7a9c
7aec
7af8
34cf
34be
34b5
34d1
34bc
34b2
3484
341c
34a1
349e
34af
6f85
6fa6
6fc9
6fc5
6fc8
6fcb
6fc0
6fb7
6f87
6f8c
6f84
6fab
3970
39cd
392a
3994
3987
39ed
39e4
8a8a
8ace
8a35
8ad6
8a7d
8ab4
8a1a
8ad2
8a5e
8ad7
8a90
8a91
8ae9
8aee
d903
d993
d975
d9c1
d949
d92d
d9bd
d98f
d927
d99c
d9ac
d9a8
d9eb
d995
d96b
d996
d9ea
b9b9
b921
b946
b920
b9c4
b9f5
b972
b928
b92a
b98f
b91a
b97c
b9f2
badd
ba4f
ba6e
ba74
ba7e
bade
bac8
bab6
badc
ba2c
ba1d
bae3
bafb
bae4
d581
d5ce
d5c4
d5d8
d548
d54b
d5b4
d5b6
d5d2
d55e
d5d7
d5e7
d5ae
d5a8
d55d
d555
d5e9
d5ea
d5f3
1578
15b8
1552
15df
1589
15c3
15b6
151d
159b
3af5
3a39
3ada
3a0e
3a27
3a10
3a12
3aeb
3ae8
0932
090f
09cf
0993
092e
09d8
098b
097c
09a0
0998
0990
09a7
09ef
09a3
0959
09af
3586
3521
35cd
35da
3518
3563
3544
35e7
354d
354c
35a9
35f2
3584
35e8
35ee
25dd
252f
2593
2552
25c9
25bb
2518
25dc
2544
25a0
25ed
5eaa
5e70
5e0a
5e68
5e64
5ebf
5ecb
5eff
5ed3
5e9c
5e53
5ef6
5e5c
5ea9
5e1c
5ea1
5e5d
5efe
4edd
4e22
4e4f
4e0f
4e78
4e74
4e19
4ed5
4e35
4e7f
4e64
4e28
4e69
4e4a
4e61
4e89
4eb3
4e13
4ea8
4e95
4ea3
4eaf
4ee6
4146
41c4
41c9
41be
41df
41b3
4156
41a7
4155
41ab
168e
163a
1693
163f
163c
1637
167c
161b
1613
161c
1612
16f8
16f7
1a60
1a22
1a2f
1a0f
1a3a
1a08
1a50
1ac5
1acb
1a82
1a1e
1ad4
1aeb
1a9f
1ae8
1ae5
1af9
75b8
756a
75cb
75d3
7553
758c
75ae
755d
7551
8e26
8eff
8ec7
8e27
8e18
8e7c
8eb2
8e13
8efc
8e5d
79aa
7923
7952
79cd
79d1
79d8
7909
796a
7918
7914
7943
79fa
795c
7913
79fb
7962
79a1
799d
7997
79e5
79a2
795b
ce52
cecd
ce35
ce0a
ce69
ce3b
ce66
cef6
cefa
ce58
ce4d
ce83
ce98
ceef
ce6b
cea5
cee1
7881
783e
7834
78cd
783f
784a
78bc
7890
78f9
de31
de21
de3a
de45
de3e
de65
de26
de36
debe
decb
de0e
de3b
de8f
de2c
ded3
de07
de56
de98
dee4
de0c
de5b
3fb9
3fdb
3f21
3fcf
3f24
3f74
3f65
3f34
3fbe
3f79
3fca
3f69
3f88
3f8f
3fb6
3f63
3f8b
3f2c
3fb2
3f98
3fec
3fa7
3faf
be60
bef4
beb9
bedb
bea6
be1f
be34
be75
be38
bebb
be88
be3b
be6d
be1a
be5e
be4d
be84
bea3
bef8
be5b
a44f
a4c1
a4de
a444
592b
59c2
591f
59d9
5968
59de
59b5
5928
59bb
596f
5954
591a
5927
59e7
5913
5990
59eb
595b
59e1
2a01
2add
2a0f
2ac5
2abf
2ac8
2a89
2ac7
2a37
2ad2
2afa
2a92
c5f4
c5dd
c50f
c534
c5de
c5da
c589
c514
c5f2
c59f
c5e0
b560
b5a6
b51f
b5c6
b536
b5cb
b5e7
b55c
b5a0
b5ac
b512
b596
2932
29f5
29be
2979
292a
2948
2967
29b4
297c
29d7
2953
29ad
29a8
29ec
29a5
29e0
290b
e540
e523
e516
e539
e5c1
e541
e588
e5b4
e5b7
e5b3
e594
e5ad
e5af
e5f9
e5ea
742b
74df
a1dd
a1cf
a147
a1cb
a1bd
a182
a144
a1a8
a1e6
c96c
c978
c985
c93a
c97b
c91f
c9ce
c920
c9c9
c9d1
c909
c969
c929
c954
c98f
c9b2
c956
c984
c962
c912
c9ef
c996
c9f0
c9a5
c9f9
7201
72b8
7293
72c9
72c3
368e
3611
363e
361f
3679
3672
363d
36b6
ff60
ff40
ff22
ff31
ff24
ff34
ffba
ffc9
ffc5
ff64
ff28
ff33
ff3b
ff15
ff3d
ff7d
ffdc
ff2c
ff8c
ffa1
ff91
ff0c
5f06
5f85
5fc4
5f7e
5fbe
5fa9
5f98
5f62
5f9e
5fee
5fea
ae3e
ae7b
aed9
aed8
ae3d
aec7
ae18
ae43
aee7
ae12
ae5a
ae59
aea2
a9aa
a9dd
a905
a973
a974
a97f
a90e
a915
a9b1
a963
a9e7
a9ad
a955
0c23
0c76
0cce
0ccd
0cc5
0cca
fa05
fa7b
fac6
fa7f
fa09
fa28
fa15
fabd
fa1a
fa9c
fae7
fa87
fafc
fa92
fae5
faf8
fa0b
8940
8970
89a4
8920
8964
898f
891a
8918
8914
89a9
895a
ee76
ee74
eed5
ee0a
eec5
eed0
eed3
ee9c
ee43
ee83
eefc
ee92
eef0
4af4
4a57
4a2b
4af5
4ad8
4a8f
4ad4
4ad7
4a1d
4ae3
4af9
4aea
4ae2
4ae6
5a0d
5a70
5a0f
5a2b
5a46
5a24
5a74
5a1f
5ac6
5ad6
5ad8
5a3c
5a89
5ad4
5a5e
5a07
5a0c
bf04
bf3e
bf20
bf0a
bfc8
bfda
bf25
bf3b
bfbd
bf37
bf66
bf1d
bfe7
bf94
bf12
fe01
fe32
feb8
fe93
febf
fe69
fec0
feb4
fed4
fe14
fe9b
fe62
fe96
fee9
fe0c
fef7
efb9
ef08
ef65
ef34
ef20
ef36
ef68
ef1e
ef63
ef8b
ef2c
efb7
ef9c
ef99
ef13
ef62
a501
a516
a5cd
a5c1
a5ff
a554
a51a
a5a1
a597
a555
a5f1
a559
a5f8
a5a2
7f73
7f76
7f1f
7f36
7f39
7fc8
7fcb
7f33
7f61
7f37
7f9c
7fec
7fed
7faf
9e01
9e40
9e4f
9e0f
9e08
9e46
9ed5
9e34
9e20
9e75
9ed6
9e09
9e4a
9e1a
9e8b
9ed3
9e4d
9e5f
9ea9
9e1c
9eab
9eea
ca32
ca22
cab9
ca0f
ca3e
ca3c
cabd
ca1e
cad3
ca7c
ca1d
ca94
ca83
ca5f
ca98
caf8
ca0b
88ce
88c9
8835
88d6
88d1
8825
8833
88bc
6a60
6a06
6a50
6a24
6ab5
6ad8
6a3f
6a28
6a3c
6aff
6a15
6ad4
6ad7
6ab3
6a53
6a83
6a9e
6ae8
6aee
fb01
fba6
fb50
fb7f
fb38
fb33
fb3d
fb7d
fb63
fb66
5557
552b
5593
5516
55a4
55d5
55cd
55da
554a
553b
558d
5512
55ef
555d
556b
55a3
55f8
55a2
55f3
264f
2693
26de
26da
2628
2667
2822
282f
28db
2821
2847
28d5
28f5
28c9
2828
284b
283c
283b
0d85
0d7b
0d35
0dc8
f903
f90d
f965
f9c4
f9c9
f9c8
f948
f94b
f96f
f915
f94d
f9fb
f95b
da31
da57
dacf
da81
da1f
da19
da34
da38
dac7
dab3
dab2
da07
da13
da90
dae8
daf8
9a73
9a23
9a46
9a47
9ab5
9a2a
9a89
9ad0
9a8d
9a94
9ae2
8fdb
8f04
8f16
8f64
8f6d
8f7d
8fb1
8fc7
8fe3
8f94
8f9b
8f62
8f9d
8fe1
9522
950d
9573
9523
9552
9547
9534
9539
9568
95cb
95d4
9518
95dc
95b2
95e8
95f8
95e1
95ea
24dd
244f
24db
2423
24d4
24dc
c4f4
c4b8
c4cf
c493
c445
c419
c425
c433
c437
6daa
6d32
6d2b
6da4
6d41
ea81
ea11
ea46
eac4
eab6
ea8b
ea87
ea5f
ea98
eafc
ea91
ea9d
ea97
eaf7
eae6
9f05
9f6e
9f16
9f3e
9f26
9fce
9f35
9f68
9f61
9f6d
9f1a
9f37
9fe7
9fa9
9fae
9faf
4b60
4b21
4b26
4b19
4bca
4bcc
4b29
af60
af34
afd6
af6f
af82
af8f
af66
af62
af96
afe5
8b8e
8b31
8b7a
8b75
8b0a
8b7e
8b79
8bde
8b71
8bcb
8bc0
181f
c623
c652
c676
c63e
c6f5
c6b0
c663
762f
7673
7647
763e
76a4
7636
763f
7625
763d
76b6
1b01
1b86
1b46
1b3c
1b3b
1b15
1b3d
3d85
3d47
3d24
3d75
3d2d
d6aa
d632
d640
d62b
d6a6
d676
d647
d650
d675
d67e
d6df
d63f
d677
d66f
d6b7
8246
8247
827a
827e
827f
1457
1419
14c4
14cd
1425
14cb
144a
4daa
4d8e
4d76
4d26
4dc4
4d27
4d2c
6101
618e
6147
61ba
610a
61bf
6148
61bb
61b0
6107
610c
8d70
643e
64c4
64c5
64df
64da
64cc
2740
27b9
276e
2793
2752
2726
6168
3cc2
3c8a
3ccd
3c75
3c35
3c79
4822
487b
4839
48de
487f
4871
48ff
7baa
7b8e
7b21
7b16
7bd1
7b2a
7bc3
1d73
1d39
1d28
1d4e
774f
77cc
5460
54dd
5493
5429
5448
5b03
5b86
5bb8
5b16
5b19
5bc4
5bbe
5bd1
5b64
5b4e
5b48
d486
d421
d4c2
d434
d4ce
d420
d4cc
d441
d4c0
d4d0
5453
ecdd
ec70
ec24
ecbf
47de
4771
47c7
47c3
68dd
6824
687b
688a
68d1
68d8
50dd
50cd
50b1
6b8e
6b08
6b52
6b1f
6bcc
6b2c
c185
c104
c18a
c14b
c133
c1c3
4670
4652
462a
466d
46b4
462c
3b03
3bdb
3b2e
3bc2
3b26
3bdf
3bcc
e1f4
e12e
e1d5
e109
e188
e18f
e1b6
bd32
bd6c
bd08
bdc6
bdf5
bd28
bd4b
bdc0
bdc3
bb8e
bb76
bb47
bb29
bb4a
bb2d
bb7d
db03
dbf4
db8e
dbb9
db0f
db31
dba6
db11
db7b
dbcd
dbd8
db33
db77
db2c
a62f
a645
a6be
a639
a6df
a6de
a638
a63b
cca6
cc93
cc45
cc1f
cc72
cc7f
ed8e
edb9
edc5
edca
ed7f
534f
5370
53b8
5352
537a
537e
537d
e440
e470
e4cf
e419
e4c4
e4c8
e4c7
e437
e42c
cd8e
cd2b
cd20
cd75
cd38
cd49
cd29
cd0e
cd3c
e8dd
e8db
e847
e874
e8c2
e834
e8c5
e8cb
e837
5136
51ca
514e
51b3
07d8
5c86
5c23
5c0a
5cc5
9cdd
9c85
9c7a
9c65
9cba
9cce
9cc4
9cbe
9c3c
918e
9131
9124
91d9
9149
eb86
eb08
eb45
eb76
eb50
ebcd
ebcb
eb6d
eb7c
9b35
9bd9
9b68
9b71
9b3c
9b7c
6601
66f4
66a6
6652
6650
6634
6672
66bf
663f
66bb
66b1
66b7
2286
22b8
228a
22d1
22cc
22c0
3257
3293
327e
3272
cba6
cb11
cb3e
cb20
cbd6
cbdf
cbc8
cb69
cb77
f103
f193
f152
f146
f12e
f120
f1c1
f128
f138
f1bb
f12d
f18f
f1d2
5464
d8f4
d822
d821
d846
d874
d8c4
d875
d836
d8df
d83f
d841
d848
d877
d8bb
d14f
d16e
d134
d10a
d1d6
d133
d1b0
d127
d1b3
5d86
5d31
5da4
5dc4
5d0a
446c
4481
4426
4419
44bf
443f
44c8
4437
c840
c885
c879
c8d1
c828
c8cb
a831
a8d5
a8be
a8df
a8c0
a8d0
a8dc
5693
567a
5674
5675
5629
563b
56bc
7106
7139
71c1
71c0
abdb
ab50
abf5
abc5
abc1
abd1
ab72
abd8
ab2a
ab3b
ab7c
208e
20c9
20b5
20c8
20bb
20c7
b4f4
b4c2
b419
b4ba
b435
b436
b448
ad31
ad78
ad04
ad45
ad2e
ad36
ad79
ad48
ad2d
adc7
7d03
7d20
7d2d
58d5
58cd
58cc
58ff
587d
5844
3078
3085
307e
30c3
f632
f686
f624
f6ba
f675
f66f
f6b7
b132
b106
b10d
b1a4
b149
b189
b1c7
b1b2
420f
42b8
4273
4252
42c0
ac06
ac52
ac7a
ac16
accd
ac72
a278
a204
a27a
a2c2
a2ce
4c78
4ccf
4c93
4c16
4cc6
4cc8
4c33
e701
e757
e7c2
e726
e7c6
e7c7
dc32
dc0d
dc21
dc3d
e660
e6a4
e665
e6d5
e634
e6d8
e671
e6bb
e62c
2c52
2c16
2c2e
2c3d
1c60
1cb9
1c7a
1c7f
1c3c
9801
98d6
98bf
98cc
9838
9848
4370
4386
436e
4365
43ba
3345
3352
337a
33c2
33ce
e301
e37e
e3c8
e371
637a
638a
63c8
6371
b63a
b645
b647
b650
b63e
b62a
b6bd
7c60
7c70
7c78
7ca4
7cc9
7cc5
7c72
7c77
9daa
9d0d
9dcf
9d2e
9d65
9dc4
9d77
9dc7
84dd
8423
84df
842c
a21a
8cdb
8c85
8c93
8c04
8c76
8c16
8c7d
bc01
bcf4
bc85
bc11
bc45
bc46
bca4
bc7b
bc34
bcc9
f8dd
f88e
f831
f87a
f8c4
f835
f8c8
f82a
f848
f83d
f842
fd35
fd7e
fd79
fdc8
fd4b
fd77
fd3b
fdc3
9611
967a
9668
963c
9661
fcdd
fc0d
fc93
fc7a
fca4
fc8a
fc75
fc33
6732
674f
678e
672f
67db
6711
6752
6716
6726
67d1
67c8
1386
1350
13c2
1339
13de
13d1
6231
628a
d386
d36c
d378
d376
d3d5
d334
d3c4
d3c9
d371
c732
c7c5
b232
b28e
b2a4
b2d8
b2c3
f4c2
f4c6
f4b5
f4d0
1285
1252
12d9
12d8
1271
a719
a7f5
a7c5
5701
572f
57c4
b722
b786
b7b8
b76e
b746
b7f5
b77e
d778
d77a
d7f5
d7ca
d0dd
d075
d07e
d0b6
e273
e2d5
e2d6
e2cc
2378
2381
23bf
2377
87f4
8752
871f
87ce
87cd
87d9
4070
40cf
4071
40c3
a386
a3db
a334
a3c5
f2a6
f78e
f770
2007
60f4
60c5
60b7
83f4
83dd
8352
83ce
8336
83c8
83bb
d2aa
d232
d24f
d286
d274
d2ce
d2c1
d2df
d2da
b3c2
b3d5
9770
9721
9711
9752
972e
97d6
97c8
c3aa
c33a
c352
c346
c375
c3c5
9360
9347
9374
9339
93df
920f
92cf
9276
92c4
9279
205f
f3db
f350
f3d6
f3d8
e0c5
e07e
e0be
e0c1
e0b6
3222
c0aa
c085
c0cd
c0c9
c0c5
c0be
c0b6
c0bc
1077
10b2
7263
4f48
4f4a
f0c1
f07d
f0b7
b0f4
b0cf
b07a
b0c0
b0b3
a040
a0a6
a07d
6aa0
6aa9
6aab
90a6
90ba
90ce
90cc
90b0
ece5
ecec
ece1
eced
eceb
e7ee
6462
ec96
305b
46e3
d8fd
6178
7322
eff0
e3ec
1023
1026
0753
1042
7768
c1f0
a066
3ce7
3cef
e31e
f7e9
f7e6
f7ea
511c
5114
6326
135a
dcf7
41f5
41fc
41fe
6d68
409f
f4ee
f4e9
7008
7007
700b
101e
7166
716a
717c
baab
201b
c219
c21a
8213
8210
821b
8222
90e4
4044
36e7
505d
22e9
1df7
1df6
fffc
e81d
e81a
922d
9222
c22e
c229
c226
4896
6862
6267
6266
32ef
e11e
b098
40a1
40a2
c7a1
e1f8
e1fa
7cef
2495
249b
e4e5
e4ee
4177
e00b
1db5
6065
6067
606b
d215
d214
652c
c009
c00d
611a
e6ed
4163
c369
c36a
f2f5
7313
7319
d15e
43fe
43f2
506d
506a
b00f
2223
47e0
82ac
e325
e32c
e32b
8179
a0f7
a0f2
e490
e498
f6e5
7023
7028
e2b1
3db2
4b95
4b91
40e1
40e0
0de9
6451
6452
3aa1
705b
b6a2
0dd1
0dd2
d6e1
225f
4035
4039
a898
a89a
7aa5
7aa7
7aab
e3a5
bdec
70e3
70e6
70eb
46c5
46ca
a49c
a494
d1e7
1495
149e
1492
48eb
7b94
7813
9238
c49a
c49b
f6c8
f6cf
111d
2462
52b4
709c
709e
b04d
d8ee
d8e0
c4ee
c4e6
e8e6
47b1
6418
e1ae
535a
74e1
74e2
dbe5
dbec
dbe6
dbeb
d7e4
3171
317d
4320
96ec
1d94
cdbd
cdba
e795
e790
e797
e799
2472
78e3
1dda
64ee
e2e1
e2e6
e2ea
e2a1
e2a0
e2a2
e2ab
1176
cde6
cdeb
c02c
bce1
bce9
bcef
d095
f295
f29d
5de5
649c
7014
bdbf
e695
e69e
e69b
d1f5
d1fb
d391
d39a
e2f1
e2fd
e2f2
e2f6
e1e3
e1e1
70ac
cceb
cbeb
3455
4cf5
4cf6
4ce4
4ce9
4ce2
832c
8324
832b
b0ea
d320
d328
d326
30e4
30e2
4bf3
f0e0
51f6
9cf5
9cfc
9cf8
9cf2
c1e8
e6c3
e6ca
3cfe
3cfb
3462
57e7
76e6
5d95
5d97
5d9f
5db3
9ceb
d81a
addf
5ce2
5cef
5ce6
5ceb
c321
c324
c328
c327
e453
e458
84e0
84e2
daad
daaa
e044
e04a
f1e4
16cc
1cee
1dab
28ef
5022
a3a7
a3ad
411c
969c
969d
9692
969b
fce6
0dfb
3be2
3bea
82b3
9aae
9aa7
9aa9
d028
d2ec
d2ee
d2ed
d2e2
e165
e16f
e166
217e
217b
309a
6798
0ce1
24e7
5363
a79e
a790
a799
a4a3
f195
f198
f19b
d048
d04b
e3f2
10a1
10a0
10a7
df47
df49
d3af
f025
f026
fbe3
fbee
fbe9
07ef
ccf7
c09f
63e1
63e2
8392
c76f
d79f
5799
7be0
83e4
83e0
83eb
a6e3
a6ef
d291
d296
13ab
5767
576b
98e2
98eb
97b4
97b0
97b7
97bf
e171
e176
106b
60e4
60ef
7dbc
7db7
7db6
7dba
c3a3
c3ae
e763
5aa5
c2b7
c2bf
c2bb
d065
d06d
d16d
d89c
d894
13f3
13fe
5cf1
5cff
93ee
d0ed
d0ea
d0eb
2398
5b9c
72eb
7de0
7de2
7def
7290
729d
729a
8294
8298
829f
e25c
e25a
e25b
26e0
5863
5864
979c
979d
c315
c31a
f21b
47fc
47fa
8ce6
a4ed
bff6
c8ee
c7e8
7492
87ee
d114
d118
dbff
419f
479d
4792
5be1
6dbd
87fb
1b91
1b9d
1bfc
4df8
5dd9
87b5
87b4
87bd
905d
905a
b7e8
c6c1
c6c9
e7fa
0d99
0d96
43a3
82f0
b390
b392
faa4
faad
10ed
66ad
8be0
bcff
bcfb
d319
d31f
e0ab
719b
82e5
92e1
bd97
cb91
cb9a
cd9c
cd92
cd9f
5156
68e3
68e6
eb90
f32e
f32f
27a4
56c3
5814
6d9c
6d9d
6d9f
63f1
8dec
8de8
8deb
93a4
a816
bb97
d019
d01f
d45a
d1a3
d1a0
fb90
fb9f
fb96
66c6
9ddc
9dd8
9dda
9398
989e
9892
43e9
43e2
43ea
4498
51e2
51ea
7458
77ac
a7b5
a7b1
27b4
27bd
b315
b314
1220
1228
6198
6196
6391
92fc
b2ed
b2ef
cdfc
2cf5
2cff
4dbe
4db7
4db2
c39e
c39d
c39b
3ff3
3ff7
3ffa
ab9b
d3fc
d3f2
d3fa
d6a1
d6a7
d6af
a7a9
d7a4
f0f9
10f1
289d
42e3
42e6
429f
50f3
50fb
a045
a043
adec
223c
6815
7114
7116
715c
9dbc
a00b
e7b5
e7b1
f7ab
f798
3f46
53ee
53e7
c1a0
d2a5
f815
33fd
33f6
53fb
6cf3
9114
acf1
acf7
acfb
b4e8
3292
87a7
87a9
87ab
9067
a2f8
a2f2
8495
849a
9023
9024
9194
e225
fcff
12e3
27f8
27ff
27f6
c86a
c044
4851
4852
c7bd
f04e
f04d
f046
147c
77e4
c0fe
c0f9
fdd5
f3a7
8898
d225
d22e
d22a
f7b1
f7be
ad9c
ad98
ad92
b6e8
b1ff
cda8
f118
27e5
50e1
50ef
6b92
6dec
6ded
b1e4
b1ea
9031
903f
23e0
3353
88e7
f495
f499
f49b
20ac
20ab
20e2
6bf8
886f
900e
9004
92bb
b6c3
b6ce
c453
c451
f399
42f2
503a
5577
6dd9
97a3
cbfd
c89a
f86e
f868
fbfc
fbf8
47a3
4d6b
9ff0
9ffa
a3f3
b7b3
b7be
b7b4
d7fe
d7fd
d7fa
2dd5
2dd0
74a9
145a
12a2
3366
336b
522f
5226
7f5c
7f59
bdfb
9f4d
f2bc
d461
e4ae
e4a7
e4af
fd94
57a3
669b
8dbb
b05c
ed98
6049
72f0
8768
9d9d
9d9f
d03a
bf4c
bf4b
c0a9
c0a2
f1a3
f1a2
20fa
44ac
6156
7ffd
ef5a
ebe0
ebeb
523c
5239
523b
6f4c
6f49
8ff6
9768
d763
d76f
60f5
67ac
60a0
60a2
d233
d23f
e755
e758
4da0
64a5
64ae
64af
77ba
c758
c759
d0fa
f008
f006
ff45
f09f
f895
f897
516f
62f6
72ab
a0e3
a0e1
a0e8
a0e9
7755
96a1
a16d
c034
c036
c03a
f452
16a5
469e
b038
517f
7215
7214
4310
91a1
b7a2
f01e
f0ae
f0a0
a8f8
a8f7
b2fb
bda0
bdab
72b1
72b4
9864
98fc
98fb
b467
db5f
0f44
1f43
88f9
9356
93f1
af55
c3f9
c3f6
d0a5
d0a0
ed12
f468
a52a
ebff
fd64
fd69
fd6b
a7fa
23ff
23fb
6016
a2b2
b3f3
b3f1
b3fe
cd13
cd14
d527
b2ab
e524
f236
28fc
36ae
6310
8755
ad6a
ad6b
f3fd
531c
a195
a197
a192
b17c
f47e
f477
f47b
51a3
51ad
8d94
5f5b
84ac
84ad
cf42
a8e5
ef49
8dfb
bf53
bf54
bf59
bf56
57f3
57fd
57f2
57fa
56a1
af47
af49
af4a
f355
9d62
103f
103a
d351
d35e
3691
3699
369d
a31b
1525
152a
32bf
6756
8811
b47f
9da9
d4a5
7dad
a35c
a359
a35f
a35a
603c
6037
823d
b353
b351
cd67
6dab
b572
b75d
5df3
5dfb
8471
847e
fdff
e267
f03c
9bf8
b52e
b52a
b7fe
b7f7
b7f9
3577
f173
a01d
bd64
bd69
bd6d
bd6a
5528
f164
8579
97f8
97ff
f8fa
f4ab
6dfc
9753
9264
9262
9266
d261
d26f
f362
b267
f263
5544
554d
0c59
04fa
0b81
0713
071a
0cb1
072d
0729
0c27
0c87
0cda
0783
0c95
0c5b
0c0c
0c4b
078f
0937
101c
14f2
1248
1b43
1cb1
1d0c
1cd0
133c
10d3
1b8f
1c2d
13b0
1244
1ba0
1bab
1a48
14bb
1d51
1ba9
1bbb
1d0b
14f9
1856
1bd7
125b
1853
1855
1259
1b56
1412
125f
125e
2224
28ec
2574
2854
24fa
2690
2c67
2725
27dc
2c14
20d4
2742
2c1d
27d7
264b
2c96
2c83
2ca5
2c2a
23b6
2688
2784
2b84
2d58
2658
24b6
241a
288c
26fd
285d
273f
2414
2418
241e
3283
3c42
3c67
3ccc
3cb1
3c9c
327c
3a6f
328d
3cd6
3b42
3087
3c9e
3bb0
3d84
3642
33b2
3cde
3cc7
324c
3bdc
3a67
3b4c
3349
3c4c
36fc
3ba8
3c28
3d88
3b10
3b1b
36d0
3c26
3b8a
325a
325f
325e
4018
4010
44f2
4082
4382
485e
4709
4c90
4715
4d4c
4343
4c8b
44f0
4c14
4c9f
4333
428d
47d7
464b
4384
4c10
434d
4d5a
4bb0
4c4e
4489
4c13
4bd3
4387
4d07
4bb3
433d
40d7
46d2
4bbd
4707
46fc
4a43
48a8
4733
4b1b
420b
46f1
48ae
43c3
441c
5b88
540d
5a4b
5ba5
585a
508d
5383
5c67
572d
5c9f
5cb4
5712
56f0
5cd6
53c0
50db
5388
5c10
5c27
5cbc
5c4e
533c
5c95
5935
5a42
5bd2
5a6a
56d3
5782
5b89
56fc
5ba8
548c
58a1
5a64
5c97
580c
5342
5b66
5882
5b85
582c
5414
514c
5413
58bc
58b7
58d2
5183
623a
6283
66dc
6241
668c
6d4c
6728
664a
6727
67dc
66f0
671d
6d55
6089
637c
6783
6642
6bb1
66d7
6689
648b
6509
6bb3
608f
6787
650c
6bb4
63dc
6b1d
673c
6a66
6658
640c
66f1
6656
62d7
63b3
6a44
6655
6851
66f9
685d
6b58
6187
6662
7224
76c2
7c62
7606
7cd4
728f
7c29
7714
7b81
7256
7d5c
7c82
7c89
7083
7648
77dc
7c88
772a
7c14
772d
7084
7c0b
7a63
7c2a
7bd2
70dc
768f
7cb3
7ba1
7b83
7b0c
7d5e
7d58
7bbb
7484
760f
7651
740e
7b12
7d5d
72d7
7739
7c26
725b
785b
7853
78a2
765f
725a
7253
741c
725d
8172
8221
88ec
8306
8a69
8cd4
823a
8405
8777
8256
872c
84b0
871c
8c89
8ca3
8a68
8ccc
8a6d
8c58
84fd
8cb0
877d
8c9d
8243
84f3
8d87
8387
8c98
83dc
8b44
8a4a
8b0c
8d58
8bbb
893d
8b66
8859
8855
8b56
841e
8b5c
96c2
9306
9704
9d6f
9a4b
9cd8
9b6b
985e
968c
9ca9
9f48
9083
9343
97d2
9caf
9d8c
9c5e
9d8f
93d2
9d83
9337
96f0
97d7
9308
9c6d
9c10
9c27
9643
9c9e
9c4e
933c
968b
9cc7
9c98
9687
9c53
9bab
930b
965d
93d0
9707
9ba9
9b10
9b1d
973c
9c97
928c
96fb
924d
9883
98ae
9b8b
993f
9b85
985d
98d2
a311
a85f
a75f
a85a
a71e
a38c
a60c
a7dc
acac
a7d4
a710
a0d4
a24e
a333
aba3
a64b
ac96
acbb
ac99
a3b2
a3d4
a70f
a33d
a6f6
ad59
ac98
ac91
a614
a50c
ab4c
a65d
a785
a73d
ad54
ac1b
a2d4
abbb
a2d2
a654
a60e
ab82
a50b
a85c
a88b
a61d
a85d
ad53
a415
ab5a
b6c2
bd6f
b033
bdf0
bc20
bc84
b33b
bc42
bb4d
bd5c
b4b0
b7f0
bc82
b0d5
bb43
ba68
bcb1
bc8b
b4f0
b7d4
bcb0
b7d7
bc1a
b249
bc87
bca7
bc12
ba63
bcbd
bb07
b6d2
bbdc
b487
b0de
b38b
b20c
b939
b651
bbd7
b6f8
b612
b413
b25d
c172
c010
c02f
c705
c305
c704
c40d
cc20
c690
cb81
c85f
c777
cba5
c74a
c713
ca68
c648
ccb1
cd8c
cc58
c934
c72d
cbaf
c0db
c089
cc6b
c4f3
cd82
c30e
cbd3
c0d6
cbb3
ccde
c0d7
c4b1
c0dc
cc91
c50c
cd5b
c3b7
c7d3
c93c
cc9a
c30f
ca41
cb0b
c853
c40b
c6f9
c40f
c82c
c14d
c8b7
d269
d02f
d304
d4a2
d75f
d6f2
d50a
db4d
d72c
dca8
d30a
d4f0
dc5e
d3d2
d67d
dbad
d729
d6f0
d088
d087
dc1a
dc4e
dcbb
dc12
dc95
dc99
d0d6
d48b
d307
dc8f
dbd2
d2d0
d68f
d93b
d34c
d785
d73c
d20e
d8af
d64d
d856
d609
d40c
d85c
d207
d859
dbd0
d8ae
d88b
d61d
d6f3
d85d
d418
d253
d8d7
e6c2
e288
ec29
e4fa
e748
e690
e8a3
eb6b
e6dc
e241
e80a
e30a
e610
e7d2
ed42
ebac
e084
ecd0
e643
e4f7
e0d3
e783
ecae
e4ff
e688
e782
e284
e3d0
e785
ec4c
eb1c
e73d
e607
eba9
ec0c
e30f
e28c
ea41
e50b
e807
e78c
e207
eb66
e859
ebd0
e6f8
e6fe
e8a2
e6f3
e851
e65b
e8bc
e8d2
f64c
f0d8
f03d
fc51
f70a
f85a
f648
f71a
fc5c
fcb2
f70c
f3c0
f684
f089
fc43
fd4d
fc87
fc4e
fa6b
fb8c
fc4a
f34e
f6d7
f387
fa42
f33d
fbd2
f687
f60b
fc53
f34c
f487
fc66
fd51
f789
fb13
f733
f78f
fb82
f85b
fa44
f409
f887
f61c
f6fe
f93f
f858
f612
f65f
fb5d
02f5
02f2
02a5
02ab
03aa
03a4
03c4
03f5
0399
0383
039d
03f8
03e1
06c1
06ca
06bf
06d4
0692
06e5
05b9
0516
0536
052a
0533
0561
05b4
0507
0551
059f
0870
0826
0879
08b5
0871
0869
0877
084a
08bb
0867
08b1
08fa
0858
08fb
08a7
0892
dd01
ddf4
ddb8
dd46
dd4e
dd77
ddb7
dd58
dd98
dda7
dd92
dde9
232c
1757
172e
17c6
1734
17cd
1735
17be
1739
17d1
1709
1771
1749
1733
174a
173b
17d0
1763
1744
177c
171d
175c
17ed
1797
17f9
0470
04b8
0485
0445
043f
0429
04e7
04a7
0497
49db
49c2
4982
49a7
49e4
49e5
49ab
df32
df8a
df39
df64
dfb2
df1b
dfa0
dff2
df1c
df9d
df55
dfe6
aa6c
aa04
aa08
aa46
aa47
aa3e
aa2e
aacd
aa94
aa83
aa9b
aa90
aa6b
aa51
aa5a
aaf8
8632
868e
862f
863a
8635
86bf
8649
8633
86b4
86e7
861b
8656
86a9
86e4
aaa6
f8e1
f8e6
f594
db9d
3152
3165
31c5
3109
3129
316f
31bd
31b4
311a
31b2
31e7
31ef
31f0
31e5
31e1
73f4
736e
7347
73f5
73d9
734e
7338
7388
73dc
738b
73d2
735e
739b
739e
73a7
7397
73a3
73e0
73f7
94f4
94c5
9439
94ca
9472
9464
943d
94c0
94b1
9414
9443
94b2
9442
9456
94a0
9490
0b32
0b4f
0b06
0bb9
0b57
0b45
0b16
0bcd
0b2a
0bb6
0b10
0bb7
0bad
0bee
0ab9
0a16
0a74
0a34
0ace
0abe
0abb
0aff
0a4d
0a9b
0afb
0a0b
6e60
6e22
6e81
6ea4
6e7b
6ec6
6e34
6eda
6e48
6eb1
6ed2
6e4d
6e98
6e95
6e97
f4fc
f4f2
c2db
c293
c27b
c2c2
c2d6
c2dc
c258
c256
c2ed
2181
21d5
21ce
21c5
21b1
218f
21b6
218d
211d
2142
219b
211c
2198
21a8
219e
219a
21e9
21af
7e32
7e8e
7e3e
7e65
7e20
7ec5
7e68
7e15
7e8b
7e12
7e9e
7e5d
7e5a
7e0c
7ee6
2b01
2b76
2b46
2b36
2b4b
2b33
2b77
2b4a
2b44
2b66
2bf2
2be8
2bf9
2be2
8578
8585
8546
85ba
85be
854b
85d0
8518
85d3
8594
85f2
85ac
859d
85f1
8559
85e5
85fd
85ab
cf40
cf05
cf8a
cf6d
cf67
cf27
cf14
cfb7
cf5c
cf99
cff2
cf91
cf9d
cfa3
cff8
cfab
4f01
4f23
4f81
4f76
4f8a
4fc6
4f69
4f25
4f6f
4f3b
4f15
4fc0
4fb3
4f13
4f8c
4ffb
4f92
4f6b
4ff3
4fe6
e90d
e93a
e945
e97b
e97e
e972
e925
e94a
e99c
e907
e958
e984
e91c
e996
e99f
e9f9
23a6
18aa
18a6
182e
18df
183f
184e
1877
182d
184d
1884
18fd
18f9
6c81
6c11
6cc6
6ccd
6cc5
6c68
6cb5
6c09
6c4e
6cc0
6c44
6c55
6c6b
6ce1
2e93
2ed5
2e7f
2ed2
2e90
2e95
2eef
2e9f
1f70
1f31
1f50
1f19
1f0a
1fd6
1f68
1f2a
1f89
1f10
1fd7
1f94
1ff6
1f87
1fec
1122
11b8
1123
1126
11d8
116a
114a
11d4
115e
1158
1156
11a1
1196
11f0
5232
5285
5245
5265
5275
52df
52da
526a
5267
5289
52d4
5253
5256
5287
52a8
529d
52eb
52ef
52ed
5292
529f
52e8
52ab
52ee
52e6
81db
81b8
816e
81df
81c7
81d0
81d4
81b6
81b3
8194
81a0
81f2
818c
81ae
81a8
81a1
81e4
81e8
99b9
9923
99cf
9946
992e
99be
99df
99b5
99d8
994e
9949
99cb
99bb
99bd
99b6
991d
991b
9999
2ff4
2fb9
2fdb
2f78
2f85
2f21
2f26
2f19
2fdf
2f3f
2fc8
2f82
2f8d
2fb3
2f9d
2f9e
2ff0
2fa3
2fe2
0e01
0e22
0ecf
0e24
0e2e
0e74
0ef5
0e3c
0e3b
0e18
0e8b
0ed7
0e07
0ef6
0efa
0ead
0e9b
0e12
0e51
0ee2
0ef7
698e
69be
6979
69b5
6977
69bd
69c3
6907
6999
69ae
69ed
6959
69f8
0f70
0f36
0f79
0fb5
0f09
0f8b
0f8d
0f94
0f8c
0f84
0f1c
0fed
0f92
0fab
0fea
1908
19ce
19c5
1964
19cc
19cb
194b
1989
1927
198d
19a0
19ad
19a8
19a1
19a5
19e8
19ab
1e6e
1e85
1e76
1e7e
1ed6
1e72
1e64
1e4e
1e41
1ee3
1ef6
1e62
1ea2
65b9
652b
65b1
6582
65d2
6556
65fc
65a8
6512
65a7
6551
65e0
655b
3e0f
3e6e
3e21
3e50
3e19
3e35
3e39
3eb5
3e64
3e71
3ebb
3ebd
3ed4
3eb6
3eb7
3e97
3e55
3e96
3ea3
3ee9
3ef7
3ee6
2d2b
2dc2
2d36
2d25
2d4b
2d1e
2d2c
2de7
2de3
2da1
2d90
2d95
2dfe
450f
45db
4521
4508
45bf
45cc
456f
45b3
451b
4556
4587
4598
45ec
45a7
45ab
a11b
7a01
7a4f
7ab9
7a6c
7ac6
7a35
7a39
7ac1
7ade
7abf
7aff
7ab1
7adc
7ad3
7ad7
7a98
7a5d
7a5a
34ce
3427
34a9
349b
34ed
6fcd
6f7e
6fbf
6f3f
6f71
6f69
6f33
6fb0
6f98
6ffc
6f6b
394f
390a
39d9
3949
39eb
39e5
8a8e
8a70
8a08
8a74
8a75
8ad1
8a7f
8a09
8a28
8a3c
8a82
8af2
8a1c
d960
d94f
d905
d93a
d981
d904
d945
d976
d947
d965
d919
d9c6
d9d5
d90a
d94e
d925
d94b
d988
d9c0
d97d
d982
d9d0
d97c
d91b
d987
d983
d99a
d955
d9a3
d9e6
b901
b93a
b976
b94b
b915
b9c7
b9dc
b9d2
b9ac
b912
bab8
ba18
ba8b
ba7c
ba5e
ba83
baef
ba55
ba9f
d501
d58e
d5b9
d5a6
d53e
d5c9
d5de
d5bf
d515
d5bd
d51d
d558
d5ac
d5a1
d5ec
d5ed
d5a3
d5ab
d55b
156c
1519
1539
15c1
154a
1561
15ff
153d
15c0
15b1
15d7
1512
15e9
3a22
3a7a
3a2e
3a35
3ad6
3ade
3ab5
3a72
3a14
3ae3
3af2
3a84
3a5d
3a0c
3af9
09f4
09dd
0931
0978
0957
09a4
09c6
0925
098f
09d7
095c
0955
35f4
354f
35b9
35a4
351f
35c9
35ca
3569
35b1
35c7
35bc
3558
359b
35ec
359e
356b
2532
25f4
258e
256e
25cf
2547
2519
25c1
25de
25c8
2538
2548
25cb
258f
259c
2591
255a
2559
25f3
5e22
5e7b
5ed5
5e35
5e4e
5e77
5e4a
5e82
5e63
5eb3
5e42
5ead
5e9b
5eab
4e01
4e06
4e50
4e65
4ecd
4e7e
4e36
4e09
4e38
4eb1
4ed4
4edc
4e5e
4ee7
4efc
4ea1
4eed
4e9f
4ea2
4eea
41a6
4126
412d
41c7
418b
4153
4107
16aa
16db
1673
1657
163e
162e
1665
161f
168a
16df
1669
16b3
166b
16f1
1ab9
1a93
1a2e
1a7b
1a8a
1aba
1ade
1ad8
1a71
1a2a
1a89
1a7c
1ab7
1a1d
1a13
1af2
1a9b
1a84
1afb
1a91
1a5d
1aea
7516
753e
751e
75b2
75e3
7599
751c
75a5
75e9
8e60
8e0d
8edb
8e73
8e85
8e21
8e2e
8ed8
8eda
8e41
8e2d
8edc
8e58
8e5c
8e9b
8ea7
8e55
8ee8
8ef1
8ee0
798e
7908
7916
7924
79d5
79ba
79df
797f
7929
7925
79c7
79b0
79d4
79b3
7907
7987
79ae
7912
799a
795a
79f1
79ea
79f3
ceaa
cedd
ce22
ce2f
ce70
ceb9
ce19
cec4
cef5
cebe
ce49
ce4a
cec0
ce89
cebd
ceb4
ceb2
ce07
cee3
ce42
cead
ce84
ce91
cee0
ceab
cee2
7821
783a
78c4
78c9
78d1
782a
7891
7892
78f8
de70
de05
de85
de23
de7a
de16
dec2
de19
ded6
deb5
de28
de38
de49
de4a
dec3
ded0
de5e
de13
dea5
deaf
3ff4
3f8e
3f70
3f7a
3fd5
3f36
3f64
3f1a
3fa1
3feb
3fe2
be32
be0d
be86
be31
be11
be24
be8a
bebe
be25
be6f
be3d
bec0
be89
be1e
be63
bed3
beec
beee
a473
a419
a436
a429
a44d
594f
592f
5986
596c
5949
590e
5961
59b0
59b4
592c
5953
591d
5907
5998
599a
59a7
59a5
59af
2a23
2acf
2a16
2ac2
2a20
2a35
2a29
2a0e
2ab4
2ad0
2ad4
2a14
2af6
2a9d
2aef
c506
c50d
c505
c537
c5b2
c599
c5a1
c59d
c5f7
b5f4
b58e
b50d
b573
b508
b547
b5ba
b5ce
b5c5
b5de
b564
b51a
b518
b510
b51b
b55f
b584
b5ed
b5f3
2960
2922
29df
2972
2977
2961
291a
295e
291d
2983
29ae
2995
2951
295a
29e8
e52f
e5b9
e521
e5a6
e5b1
e5b2
e5f6
e5fa
e54d
e5a9
e5ec
e596
e5a5
e5f3
7460
7432
7434
744e
743c
74d4
a10d
a1c2
a134
a1be
a1c7
a143
a1ef
a1a3
a1e9
c903
c92f
c92e
c974
c98a
c9cd
c9c5
c9df
c9de
c9b5
c9d8
c9bf
c971
c96a
c9cb
c90e
c9b6
c944
c97c
c91d
c9fb
c991
c95d
c997
c9a3
c9e0
c90c
c95b
c90b
7245
727c
36dd
3647
367b
3675
36bb
3667
3627
ff0d
ff52
ff50
ffc6
ff7f
ff38
ff25
ff8f
ff9a
ffe1
ffea
ff0b
5f32
5f3a
5f24
5f72
5f2a
5f1a
5fb6
5f63
5f7c
5f84
5f12
5feb
5fa3
5fab
5fe2
ae2f
ae11
ae46
ae19
aebe
ae09
ae38
ae69
ae2a
ae6d
aed0
ae1a
aeb7
ae5c
aea8
ae9d
ae9e
aee0
ae5b
ae0b
a993
a92e
a965
a9d5
a9c5
a9b5
a941
a96d
a989
a927
a9bc
a910
a966
a9a0
a962
a9a8
a9e8
0cf4
0c22
0cc6
0cd5
0c37
fa21
fa2e
fa88
faff
fab7
fafa
fa99
fa12
fa59
fa5b
faf7
898e
896e
8923
89cf
897e
89c8
89cb
897d
897c
895e
89d7
8983
89f2
89fb
8951
ee26
eeba
eef5
ee35
eecc
ee5e
ee1d
eea9
ee84
ee9d
eeef
eee4
eea3
eeab
eee1
eee6
4a03
4a4f
4a85
4a16
4a2e
4a34
4acd
4a71
4a88
4a3b
4a54
4a27
4a18
4abc
4a10
4a07
4af6
4a9b
4a8c
4a91
4a5d
4a55
4a0c
4af7
5a76
5ac2
5adf
5a15
5a1e
5a9e
bf03
bf78
bfb8
bf23
bf50
bf2e
bf36
bfdf
bfde
bf38
bf6f
bf2d
bf3d
bfc3
bfdc
bfe3
bf1b
bfa5
bfe9
bf0c
fef4
fea4
fec5
fe36
fe79
feca
fe1a
fe27
febc
fe7c
feb2
fea1
fe12
fef0
fe5a
ef2f
ef6c
ef04
ef39
ef6a
ef15
efac
ef12
efed
efea
a50f
a593
a5c9
a567
a582
a5c3
a563
a514
a59a
a5ee
7faa
7f2f
7fb9
7f81
7f11
7f2e
7fa4
7fc2
7f19
7f20
7fcc
7f69
7fbb
7fb6
7fdc
7f7c
7fb2
7f1c
7fe2
7fe6
9e0d
9e93
9e11
9e24
9e3e
9e65
9ede
9ed1
9ed8
9e2a
9eff
9ed4
9e8d
9e1d
9e94
9e1b
9e83
9e9b
9ea7
9ea2
ca01
cadd
ca8e
ca6c
ca85
ca23
ca45
ca2e
ca26
caba
ca3f
cabb
ca15
ca54
ca82
ca8f
cab7
ca53
ca1b
ca5c
caf2
caec
ca59
caea
8873
88ba
88cd
88c5
8877
88b4
88d0
88d4
88d2
8843
6a8e
6a31
6a85
6a21
6a36
6abf
6acc
6ab0
6a9a
6a92
6a9f
6af7
fb03
fb19
fbc6
fbc8
fb4e
fbcc
fb2c
55dd
5522
558e
556e
5581
5546
55c2
55f5
5541
556a
5533
553c
55dc
55d7
55b3
55f6
55ac
55ec
5595
559f
2621
2645
2647
26b4
26b6
2627
2803
2886
28c6
28c4
28d6
28be
28d3
0d60
0d39
0dc1
0d3f
0d28
0d33
0d7d
f9ce
f920
f929
f9c7
f91e
f9b2
f956
f983
f9ad
f99b
f9a7
f96b
f99f
f9fd
f9ab
f9ea
da6c
da85
da23
da3a
da93
dac9
dad9
dad8
da89
da83
da5f
da9e
da55
da96
daf1
da0b
9a70
9a75
9a36
9a79
9abf
9a88
9a8f
9a1e
9ab7
9a9c
9a56
9a1c
9a5d
9a97
9ae4
9af0
9aee
8ff4
8fb9
8f93
8f11
8f76
8fd1
8f09
8f28
8f1e
8f27
8f37
8fd7
8fa9
8fad
8f98
8fa1
8f9e
8fe9
8f0b
9570
958a
95c9
95c1
95b5
9549
954b
9589
95b0
9566
95a0
95fb
95ae
9598
9562
9592
959f
95f1
95fd
95a2
7463
7467
24c2
2435
2438
243b
243d
c42f
c4db
c43a
c42b
c411
c4cd
c4da
c4c0
c4d7
6d31
6d52
6d7e
6d36
6dc8
6d4a
ea8e
eab9
ea08
ea74
ea8a
ead1
ea7f
eab3
ea1c
ea12
eaef
9faa
9fdd
9f6c
9f78
9f24
9fc2
9f19
9fc4
9fdf
9fde
9f7f
9fb6
9f2c
9f8d
9fa0
9f91
9f95
9fef
9fe1
4bdd
4b08
4b68
4b25
4bcb
4b27
af85
af08
afc9
af0a
afd8
af28
afc3
afb6
af14
af87
af84
af9a
afee
8b60
8b45
8b46
8b16
8b24
8bf5
8bca
8b09
8b69
8b49
8b6a
8b6f
8b3d
181d
c632
c64f
c645
c647
c68a
c6d8
c625
764f
7678
762b
76a6
7676
762e
7674
7634
76be
76d1
767f
763c
762d
76bd
76b3
1b60
1b45
1b7b
1b20
1b4b
3d76
3d37
d645
d616
d6a4
d6d8
d628
d667
d6b0
d6b6
657b
8240
8206
82c2
828a
82c1
82c8
146c
1416
14a4
14c1
1448
143c
14c0
14d7
4d70
4d85
4d52
4dcc
4d25
4d48
610d
6124
61d5
61d6
61cb
614a
61bc
8d47
8d41
8dc3
8d37
648e
6424
64c6
64ce
642a
6425
64d3
2706
27d6
27da
27c7
616f
616b
3c86
3c93
3c81
483a
4847
487a
48c2
482a
4825
4833
484c
7b01
7b73
7b08
7b26
7b75
7b0a
1d47
1d2a
1d3d
7722
776e
77a6
777a
77df
77cb
5423
548a
54ba
54be
54de
543f
5425
542d
5437
5b6e
5bd5
5bc1
5b38
5b49
5b25
5b3d
d42f
d478
d485
d42b
d41f
5459
ec03
ec22
472f
47b8
4793
47df
6801
6846
6836
6879
6839
684b
683c
687d
687c
5085
5093
50c7
50b4
6b21
6bcf
6b11
6b34
6b0a
6b7f
6bbf
6b28
6b2a
6b0e
c12f
c121
c181
c135
c1d1
c1bf
c12d
c189
4632
46b9
4624
463e
467b
46df
46d1
4664
46da
46b6
46b2
3b40
3b73
3bc4
3b4a
e160
e122
e105
e157
e185
e1be
e1b5
e1d3
bd85
bd21
bd3a
bda6
bd3e
bd65
bdca
bdc8
bd4e
bd41
bd48
bd3d
bb32
bb40
bb11
bb52
bbd5
bbba
bb0a
bbc5
bbca
bbdf
bbb5
bb28
bb69
bb2a
bb49
db06
db70
dbcf
db2b
dbd5
db7e
db38
db37
a6f4
a64f
a685
a624
a628
a6b7
cc0d
cc3a
cccf
cc8a
cc19
ccc4
cc75
cc35
ccc1
ccbf
cc0e
cc3d
cc7d
ed32
ed73
ed76
ed75
edc9
ed39
ed27
5360
53b9
53ca
53b5
e41f
e4c9
e4ca
e449
cd3a
cd52
cda4
cdc5
cd7e
cd72
cd28
cdcc
cd2c
e8f4
e873
e8a6
e824
e826
e8df
e8ff
e8b0
e8d0
e84c
51f4
5186
5152
5120
51df
51cb
512c
078e
0746
07c7
07c3
5c32
5c31
5c57
5c21
5c47
5c74
5cc9
5c7d
9c03
9c0d
9c6c
9c52
9cc2
9cc6
9c35
9c33
9c7d
91b9
9123
91ba
91be
91c1
91cc
9148
910e
91b0
91d0
ebaa
ebb9
eb0f
eb31
eba6
eb11
eb39
eb49
ebc7
eb27
9baa
9b8e
9b86
9b76
9b24
9bcd
9bc9
9bc1
9b38
9b69
9b6a
9bcb
9b3b
9b67
9bc7
9b37
668e
22aa
22a4
227e
22c1
22cb
22c3
324f
32a6
327a
327b
32ce
cbaa
cb21
cb76
cb46
cb1f
cbcd
cb75
cbc9
cbbe
cbd9
cb79
cb72
cb7f
cbd8
cbbf
cb3c
f101
f1aa
f108
f1c4
f139
f141
f1cb
f182
f1d7
5463
d8b8
d893
d82e
d8ca
d872
d87f
d825
d8b1
d8c3
d84d
d84c
d12f
d131
d12e
d1cd
d139
d1c1
d1de
d1cc
d13c
d1bd
5d0f
5d85
5d16
5d3e
5d74
5dc2
5d26
5d34
5dcd
5d38
4403
44db
4485
44c6
44ce
44df
443d
c8b9
c876
c846
c847
c87b
c8d5
c829
c877
c84a
c8b1
c8dc
c843
a860
a8a6
a876
a874
a87b
a875
a836
a8d6
a839
a8b5
a8bf
5686
563a
5645
5626
56d5
5668
563c
56bd
56b0
56b6
5627
7132
7131
71cf
71d6
7109
7128
7141
714b
71b1
71bd
71d0
ab04
abba
ab7e
ab7f
ab3f
ab4e
ab29
ab77
ab6f
ab67
20cf
2093
b481
b4cd
b44e
ad2f
ad6c
ad85
ad23
ad21
ad46
adc4
adc5
ad7e
ad49
ad2c
7d01
7d6c
7da4
7d65
7d34
7dce
7dcd
7dc5
7d33
7d2c
58aa
5893
5820
58c7
587c
584c
30c8
30b0
f621
f693
f611
f616
f6f5
f6bf
f6b0
b1f4
b1cf
b1ce
b1cd
b1d8
b148
b1cb
b1d2
b1d7
42aa
4203
42a6
42c2
42c4
ac31
ac6e
aca6
ac7f
a2f4
a286
a26c
a2b8
a2c5
a2df
a2d1
a2c7
4c57
4c46
4c19
4c36
4cca
4c09
e7aa
e770
e7a6
e793
e716
e7ce
e7cb
dc40
dc2f
dcdb
dc6c
dc81
dcc4
dc3b
e6f4
e678
e62b
e674
e620
e6be
e6de
e6d1
e62a
e677
e661
e667
e627
2c81
2c08
2c45
2c24
2cce
2c3c
1ca4
1c8a
1c19
1c0a
1c3f
982b
987b
98ce
987f
9841
98bb
4393
4345
4374
43c1
43bf
433f
4371
4377
3373
33f5
e3dd
e345
63b9
6386
637b
63d5
63f5
63d6
a239
b6b8
b6f5
b67f
b6b6
b6b3
7c57
7c45
7c7a
7c35
7c71
7c3d
9d22
9d06
9da6
9d11
9d39
9d29
9d33
9dc0
8432
8431
8485
84a6
8411
8447
842a
84c0
84c7
8437
84d3
a216
8c32
8c2e
8c1f
8c19
8cc9
8cbe
8cc8
bc03
bc40
bc22
bc04
bcce
bc3f
bc38
f886
f8a6
f8cd
f8c5
f833
f8c7
f8dc
f84d
fd22
fd86
fd0f
fd34
fdf5
fdc5
966c
9676
9616
9624
967b
9619
96be
963f
966d
963d
fc22
fc6e
fc81
fc2e
6722
6770
6731
6720
134f
1370
13db
136c
1378
1373
13ba
1379
1338
137d
624f
620f
62b8
6281
62d9
627f
d34f
d33a
d375
d377
d3bb
c722
c711
c72e
c71f
c7c0
b257
b2cf
b2c9
b2ca
b2c0
b27d
f403
f42f
f411
f42d
1208
1279
127f
12c8
12cb
a770
a747
a7c2
a726
a7df
a7cb
b760
b773
b7cd
b7c5
b7d6
b772
b77f
b7cb
d72f
d7b8
d76e
d745
d746
d7c3
d0be
d0cb
e26c
e26e
e276
e2d9
e2c1
e2c0
e2c3
23dd
238e
23c2
2375
2379
23c1
233f
23bb
87aa
8722
878e
87d5
8720
87c4
8775
87da
7032
70dd
7081
70cb
70bc
4081
40cd
407d
a3f4
a373
a385
a33a
a345
a37a
a3bf
a3c8
f260
f273
f208
f2a4
f2c1
f2cc
f7dd
f778
f747
f77a
f779
60c9
60b5
60cb
6077
60c0
607d
60b6
8386
8385
837b
8375
833f
d276
b34f
b3b9
b3db
b37e
b372
b33f
97aa
9706
970d
9786
9778
9757
c360
c340
c357
c385
c334
c3c8
c3cc
c37d
937b
93d6
93b5
93bb
9205
9265
92c6
92cb
2044
f3f5
f336
693c
e060
e032
e04f
e0ba
e0b4
e0c3
c0dd
c04f
c0b9
c0c2
c0ce
c0bd
10f4
104f
1086
10a6
10c6
10b5
10c3
4f42
f0dd
b060
b0dd
b078
b0c6
b075
b0c5
b0c1
a0dd
a04f
a07a
a0a4
a07e
a0be
6aa8
6aaa
206a
90c1
90bb
3052
46eb
2028
bbe3
d8f1
d8f2
617f
747d
0d13
e05d
eff7
4754
475f
e3e9
56e7
102d
1046
9be3
9be8
9be7
a091
a096
776d
8b94
a062
f7e5
0aab
5115
5113
5112
6324
6320
41f3
6d1e
409e
f4e5
f229
5045
5042
5046
700a
1016
7164
7162
83a2
717e
717f
4656
7036
703b
3dd1
3ddb
2016
c216
8219
90e7
90eb
36e9
22ed
22e6
fff3
fffd
fff2
460c
9220
489b
6864
6869
f2a3
f2a7
f2a9
076f
0766
076a
bddc
7223
347c
347e
e115
e11c
e895
e899
b09f
c7a3
c7a4
c7ad
22f8
22f7
22f9
22fa
4b8f
2494
e4ec
e4e4
e4ed
e00f
1db0
4aac
16e2
647c
6525
a698
e6e4
416f
c0e3
c0e1
e292
f2fe
dddc
ddd9
d159
d156
146d
1466
9173
2762
82a9
1de1
1def
a0fd
66e5
4452
e49a
e390
f6e6
e2b3
e2ba
221d
3db4
4be5
4be1
4be4
4be7
5328
532a
d194
4b9c
4b99
30fc
40e9
ecfa
0dee
0def
0dea
3065
3067
306b
9b91
9b90
645d
3aa5
3aa4
3aaf
b6a7
0ddf
0dda
d6e8
d6e6
d6ea
1325
1323
132c
1324
132f
401e
7aae
e86d
e86f
e3a6
bde7
bdea
e01d
e012
e016
d1e4
d1e8
d1e2
e21e
e21a
e21b
d052
d05b
7b93
7b90
7b9f
7815
7810
781d
923d
c49c
1118
52be
52b6
b04c
b041
c4e1
c4e0
c4e7
c4e9
e8e9
f6ac
e1a5
e1a7
dbea
d7ed
d7e6
317c
432f
432a
432b
96e6
c2f1
cdb8
cdbf
dceb
e79d
14e0
78ea
1866
4391
64e3
e2e7
e2ae
e2a7
117e
cde9
d6c9
602d
c024
c192
bcee
bce8
d094
d099
d092
f69e
5dee
7015
701d
bdb5
bdbb
3da5
e7a1
e7af
9815
9813
d1fc
d1ff
d39e
d397
e2f5
e2ff
e1e4
e1e8
e1e7
e1eb
70ad
cce5
3456
33e7
33ef
4cef
caad
caab
d323
d32c
30e0
30e7
f0e1
f0e8
22b7
4ddc
9cf7
c1e0
c1e2
57ef
57eb
76e3
07ff
1be1
5d96
5d9b
5db4
835f
835a
d81e
d816
2815
281c
52fc
52f2
add6
b497
b499
c3ef
c32d
e455
e452
daa6
d3e7
d3ea
e043
f1e6
16c8
1ce4
1ced
2aa2
28e7
a3a3
a3ac
a3a0
a3a9
4111
411a
411b
921e
fce5
fce4
0dff
9aa5
9aa6
d025
d2e5
e168
3f51
3f54
3099
309f
6790
6797
679f
0cec
0ce0
0ce8
0ce7
536f
a4ab
b4ae
f19f
a027
a02d
a022
d2f3
d2f0
d2fa
d045
e3f0
e3f7
e3f6
10a9
2b9e
2b9d
2b96
b069
d3a7
d3ad
f02d
f022
07ec
07e8
07e7
ccf9
c097
e15f
e15b
0b94
63e6
70f7
d795
d79b
5794
579f
579a
a6ec
d292
e23c
fdb4
62e5
97bd
97bb
1063
60e5
7dbb
c3ac
c3a0
c3a6
e761
e769
e096
e09a
5aae
5aad
c2b1
d063
d16b
d898
13fb
209c
2094
2090
2098
5cf2
5cfb
d0e8
2396
5b9d
7dd3
7dd1
72e1
7de9
729e
9290
9297
9299
c167
c166
c16a
d49e
d490
e031
e038
e255
e253
586c
5867
586a
521a
9043
9041
9044
9049
979a
f218
203f
47fb
8cef
bff3
bff8
bffd
c8e5
c8ed
c7ed
e0f0
e8f3
18e1
749e
7490
87e7
87ed
dbfd
1051
4195
4190
4199
5bee
6db5
6db8
87fe
1b97
1bf9
4df1
5dd3
5dd8
5dd2
905e
b7e5
b7ee
b7e2
c6c3
c6c4
c6cd
e7f9
e7f6
82f8
ada8
b394
faac
faab
f3e1
f3e9
10ee
10e9
10e2
30ae
adf8
bcf5
e0a8
e0a7
67e8
67ea
7194
719f
82e1
879b
92ee
cb93
cb9c
cb98
cb96
d2b2
d2b6
26c8
5155
68e5
68e1
68e9
68ea
68eb
eb93
eb96
eb9a
f321
f32b
27a0
27a9
27ab
3314
3316
4d96
56ca
5819
581a
6055
63fd
63ff
8def
93ad
a815
a810
a81a
a81b
a3e9
a3ea
c69d
d455
d1a8
d1a9
e469
e46b
fb9b
589d
6223
622c
6228
622a
66c7
71ee
939f
9891
989a
c810
c819
1212
2313
2316
231b
43ef
43eb
4494
4490
449d
58e8
51e3
745d
77a5
77a3
77a7
9095
9091
9099
9096
a7bf
a7bb
edbc
f2e4
0dbd
0dbf
a86c
a861
c467
c462
1227
122a
619c
6191
6390
6095
609c
6096
83f3
83f0
83f2
92ff
b2ee
b2e6
cdfd
cdfa
4db0
44e3
44e1
44e4
44e7
63a2
c79c
c790
c797
c391
c394
c397
c399
ab97
ab9d
ab96
a6c3
a6cd
d6a2
d6ab
a32d
a7a0
a7a8
a7af
ace7
d7a1
d7ab
2894
2892
429b
50fe
50f6
7cf0
7d95
7d94
8465
a049
a2e3
a2ec
ade8
adef
b214
b21b
223b
53a3
53a1
6811
681b
7110
7118
7158
715b
a00f
adbf
f06a
f7ae
ff5c
ff5b
f797
2dbe
2db2
2dbb
3f44
53e4
8455
c1ae
c1a2
d2a8
33f3
33f7
53f1
9119
911a
911b
acf8
b4ee
fde1
8aa9
8aa6
87a2
a2f9
902e
902b
919c
919e
a7e0
d006
e227
e22a
fcf7
27f3
32f1
b32b
c861
c86f
c043
c04e
c047
c046
3395
485d
96c3
97ec
97ea
c7b3
c7b7
c7bb
d7b1
1471
1472
c066
c0f6
d699
61f5
61fc
61fb
8890
f7b5
7797
7796
931c
9312
ad95
a2a3
b1fc
b1fe
cdaf
27e3
b0f3
b0fc
b0f7
b0fd
b0fa
b0fb
b1e5
b1eb
279c
279b
8dde
8dd2
8bf7
9037
eaa7
eaa2
eaaa
12b3
12bf
12bb
245f
23e7
23ea
f49e
20ed
6215
621d
6be5
6bea
6bf1
76c0
9323
9321
92b4
b6c0
c45c
c45b
f1f5
f391
f39e
f392
42f5
42fc
42fa
557e
cbf9
c895
f864
f86a
321f
321b
47a4
4d67
4d69
575d
9ffc
9ff2
a3ff
a3f6
b794
b79b
d7f2
14a7
2dd3
7698
74ac
831c
831a
0cf2
0cfb
1398
1392
12a5
629b
71f8
7f56
bdf2
2576
9f4e
9f49
a6a1
a6ae
a6a8
ede7
ede9
edef
ede6
f2b4
9de1
d465
d46b
e4ad
fd90
57af
6699
6696
68f2
8db5
8db0
b053
b054
ed92
604c
8765
9d90
9d9b
d035
d037
58fe
bf4e
bf46
edd0
f1a0
f1ad
44a3
44ae
615c
615b
a171
a17e
a176
c17e
ef59
ebe3
169a
269d
8ff0
9761
5494
5499
549a
60ff
60a9
8f4d
8f46
9f56
91e8
91e6
e75e
b023
d0fc
f005
ff4e
ff47
f899
42be
5168
516b
57bf
72a5
72a9
a0ef
d86e
d868
d366
7753
91fc
91f1
91fa
91fb
96af
16a7
4695
b03e
5178
7211
aff1
affe
affd
c7f8
c7fd
4318
62ac
62a0
62a2
9011
9016
a0a1
a0a8
b7a5
b7ac
c01f
f012
f016
a034
4571
7dff
a39c
a8fe
a8f6
b2f5
b2fe
bda5
72b7
72bf
98f1
b463
b464
b462
db5d
0f43
c8f0
f151
1f4d
6897
88f7
88f6
90fc
90fa
9353
935b
af5c
af5e
af5d
d0a3
d0a1
ed13
42a8
501e
67bc
67bb
ebf9
fd66
1313
136d
a1fd
23fe
6015
a2be
a2b6
b763
b769
b3ff
5d15
5d14
5d12
b2a3
b2ae
b2a9
28f9
28f6
36a9
36a2
ad63
ad67
b01a
eda3
edac
f3f3
f3fe
f3f9
5313
b17e
5f56
9df1
a458
a45d
cf4e
cf47
cf49
5bf9
5bff
c474
c47d
c355
c359
c35a
c35b
edf7
62bb
24a0
8dfa
b2b1
50a7
50a9
50ad
56a5
56a0
af43
3bf1
3bf2
9d69
d35b
b0af
b0ab
936f
936a
a319
32b3
32b1
32b7
6751
675e
67f2
abf2
b47d
0dad
2367
ed6a
fdab
d4ac
d4af
7da1
7dae
7da0
b575
b57d
b75a
5df9
5da3
8363
b45c
b451
1238
e266
9bf2
f17b
0d6d
0d66
0d6b
a753
bd13
bd10
bd18
bd1d
857e
a477
9162
7d15
b164
b16b
157e
1579
f76d
9d1e
54ac
f4a0
fd1c
5d61
5d69
5d66
9754
b361
d263
1262
a262
a26b
0c51
0c48
0f41
0725
0c88
07d4
0c8c
0cb2
0cb0
0c1d
0cd0
0d4d
0c4e
04fc
04f5
078a
0789
0c28
093d
1865
1507
164a
1343
14f0
1cc0
14fd
1cb0
1c1d
1088
128b
137c
1268
14f7
124a
14f8
1d07
1c54
1688
14b3
1349
1c66
1b87
1a43
148c
1c0c
1b0c
10da
1488
1bb2
120e
1b12
124b
1656
193f
148f
1414
1b51
228f
2b81
285f
2c8d
2ca9
2749
238d
2ca2
2083
2c15
2c5e
2708
2c1a
2cda
2489
2c12
23b4
2689
268b
2509
20d7
2cb3
23dc
24bb
26fc
23b1
238b
24bd
2789
28a1
20da
270e
2a61
2733
28af
24f9
2683
261b
28ae
2855
2858
2412
36c2
3a69
3c20
3ca0
36dc
32b5
33bc
3b43
3cac
3a6d
3bad
33c0
3c43
3c87
3bbc
3ca5
34f7
3ba7
3cbb
330e
3c4a
3689
3b07
3614
3b44
3b89
330c
30de
3a4d
3b0c
330f
3659
34f9
3b0b
3ba2
350e
3b85
48ec
43bd
4cd2
4713
478d
4caf
4c88
4c9c
427c
4729
46f0
4d55
4718
437c
4d4d
4cbb
4307
4b07
4a42
43dc
4d5b
4349
44bb
478b
4d8b
4a61
4c37
4a66
4ccb
4b0b
4613
461c
450e
46fe
46f3
4259
448f
488f
4253
4255
425c
5da2
5b81
5777
570a
5c48
5715
560c
572c
5507
5ca8
5b43
5caf
5725
5ccc
5744
574c
5c8c
5934
5baf
5c5c
570c
5ba3
5c1d
577d
5308
5c7c
50d1
54f7
50d0
5c12
53d3
58a9
5387
5c54
5c5d
5bab
5bbd
565d
570b
50de
5933
5c4b
5444
5682
5883
5a4c
5853
5655
58a2
56f3
58b3
5666
6854
6606
6641
68a3
670a
660c
67f0
630a
6d8c
63c7
60d4
6bad
6d44
6bbc
60d3
64f8
6bd4
6d07
6d59
62d0
64b3
66d4
6614
6a4a
6ba1
6a48
64bd
680b
6b83
68a8
6a49
6a61
68ac
6654
620e
650b
68ae
661c
680e
6858
640f
680f
618b
6b5b
7cd1
7c48
7d4c
7ca8
77d2
7c15
7c68
7cb2
770c
7644
7c7c
7c43
7cd0
774d
7d84
7783
7ba7
7c13
7c12
7b07
7d07
7cc7
7b89
7c28
773e
7408
764d
7d0b
7609
7656
7bd7
76fe
718b
725e
8b5e
8c5a
8748
8c51
8bfb
8ca8
8caf
84f0
8d8c
8baf
8712
8c56
8384
834d
8c6b
8249
874d
8c87
8cda
8737
8bb1
8407
8309
8c2a
8bb6
8cae
84f6
8244
8a6a
8c18
8a67
84bd
893c
8287
8b10
873c
8a49
830f
873a
8bb7
878c
8bd7
885b
8887
8851
8827
848f
8884
8d53
8415
8412
8254
825d
8b5f
9172
9604
9714
98a5
98a3
940a
93d7
9ca2
9a68
974b
972a
9c9c
9712
97d0
9ba3
9cdf
9089
9d4d
9389
924a
90d0
93b2
9d07
9c2d
9c5d
9cae
96f6
90d7
92d0
960b
94fc
9244
9b44
9bbd
9b4c
9a48
973d
9c66
9607
93b7
993c
9b18
970e
9c2c
92d3
98ac
960f
9658
9856
940c
9937
9d5d
9656
9bd7
9653
9bd0
9a44
9855
9858
9612
925e
9b53
925c
a010
a4fb
a605
acd4
ada2
a804
acd1
a641
ab54
a348
a649
a715
a64a
a603
a74b
a934
a72d
ac44
a70c
a084
ac56
ac9d
ab42
ad89
a242
ac83
a80d
aca7
ad84
a33c
a642
abd3
a309
ac5d
a24c
a6d2
a34c
a28c
a608
a658
a8af
ad5d
a656
a859
a25b
a853
a25a
a8b7
a254
ab53
b02f
b08b
b606
bc29
b4fa
bba5
b709
bbfb
b38c
b74a
bc07
b248
b71c
bd42
bc68
bd8c
bcab
bc1c
bd89
b0d1
bc4d
b489
b4f7
ba6b
b735
b48b
bbd4
bd07
bc2d
bc8f
b3b0
bc25
b784
bb84
ba48
b349
b78a
bc28
bd8b
b734
b659
b2d2
b608
b20e
b93e
b40c
bd5d
b6ff
b482
b41b
bb5d
b73f
b18b
cb88
c404
ccd1
c382
c8a5
c8a3
c3bd
cbfb
c38c
cc42
c507
cca8
cc82
c083
c78d
c603
cc9c
cbad
ccb4
ccb0
ccdf
cc9d
c684
cd55
cc6a
c34d
cbbc
cbb0
cca7
c3b4
cc95
c509
cc2d
c08f
c33d
c6f6
cc53
c787
ca65
cc18
c614
ca67
c70b
c3b1
cd51
c78b
cd88
ca4e
c73c
ca61
c93d
c658
c8af
cb82
cb66
c88c
cbd7
c73b
ca44
c887
c6fe
c3c3
c851
c65b
c414
cb5f
d805
da69
d354
d690
d85f
d8a3
d777
d406
d256
d60c
d60a
dc49
d7d2
d74b
d77c
d27c
da6f
d7d7
d388
d34d
dca7
d4f7
d0d0
dc63
db07
d289
dcde
d60b
d688
dcad
dbdc
d244
dc18
d614
dbb4
dc69
d0de
d3b1
db1c
d4bd
d08a
da43
d341
db1e
d80b
d0da
d70e
d654
dcb6
d8ad
d618
d6f1
d3b3
d8a7
d409
d6ff
d40b
d8b3
d65f
d14c
d44c
e0f8
e85e
eb4d
e343
e3d2
e744
e65c
e729
ecdc
ecab
e64e
e384
ed89
eca5
e735
ea63
ecbd
ebb6
ec54
e4b3
ec1b
e287
ea4e
e8a8
e2dc
e73e
e64d
e60e
e444
eb62
e2d7
e93f
e61d
eb56
e85d
e888
e14c
e662
f806
f605
f304
fda2
f405
f382
f649
fb4d
f713
fca2
fa68
f083
f610
f727
fc68
f3d2
f0d4
f72d
fcb0
f384
f0db
fcbc
fd44
fbd3
fc2a
fc2d
f2d0
f788
fba0
f34a
f65a
fb4c
fb84
fa48
f30c
f93c
f287
fb10
f0da
f73c
fc97
f8af
fb12
f8a7
fc26
f8ae
f80e
f48f
f413
f8b7
f8d3
f66b
f442
f107
02dc
0284
02f1
02e0
02e9
03d6
03bd
03bc
03d2
03f6
03ef
03ee
03f3
068e
06c9
06bd
06af
056c
057b
0520
05c4
0575
05c5
0568
05cb
0589
05bd
0558
0587
0595
0596
055a
05a2
0860
08aa
084f
0885
087a
08c6
08d5
0875
087e
0868
083d
08bd
087c
08b2
0842
085c
08fc
08eb
ddc4
ddcd
ddc9
dd72
ddbf
dd09
ddc8
dd28
ddcc
ddc3
dd5e
dd9c
dd07
dde7
dd4d
dda5
ddf1
ddee
ddf3
2329
1785
1747
177b
17c1
17de
1772
1728
1777
1788
17b1
1737
17d7
17f6
171b
17a0
1784
17a1
17ec
176b
1759
17e2
0423
042b
0452
0446
0420
0472
04cb
0463
049d
0495
04ef
0451
04e8
04ab
49a4
49d1
49bf
495e
49b7
49eb
df2e
df68
df25
df77
df3b
dfd0
df18
df94
df12
dfed
dff9
100e
aa31
aa73
aa6e
aa85
aacf
aa93
aa45
aa16
aad9
aad8
aa6a
aa33
aa4a
aa7d
aa82
aa2c
8621
8652
86d9
8672
8664
863f
862a
8677
8667
861d
8642
8613
865d
8692
86e2
2f4e
2f42
aaa5
aaaf
f52f
db9c
db92
31aa
3181
31be
3168
31d1
3169
315e
318c
31fc
319a
31f9
7301
7386
7339
73ca
7372
7354
73b6
7387
7383
73a8
73eb
73ea
943e
9426
94c1
9425
94bb
946d
9415
948f
941e
94dc
945e
94d7
9453
945c
94a1
9492
9497
94e2
0b31
0b23
0b21
0b3a
0b52
0b7a
0b2e
0b75
0b64
0b41
0b3c
0b6f
0b67
0bb1
0bb0
0bc3
0bd7
0bb2
0b4c
0bfb
0bfc
0bfd
0a73
0a2e
0a20
0aca
0a29
0a3b
0a3d
0abc
0a58
0a56
0af2
0a9a
0aed
0af8
1608
6e03
6e8e
6e0f
6e57
6e45
6ed5
6ec0
6ec3
6e91
6e12
6ef0
f4ff
c285
c2cf
c2ce
c2da
c288
c24d
c284
c2e8
c259
c2ab
2101
21a4
21ba
21de
2148
214b
2133
212d
2118
2110
2156
2187
2195
2192
21a2
7e2f
7e47
7e35
7ec8
7e25
7e0e
7e4a
7e54
7ec7
7e1e
7ec3
7ed3
7e9c
7e1d
7e4c
7ead
7e9b
7e6b
7efd
7ef7
2baa
2bc5
2b64
2bbf
2bc8
2bda
2bb1
2bd0
2b53
2b42
2b4d
2bf1
2bab
2bfe
2bee
852f
8586
850f
8593
85df
8564
85bf
853d
85c3
8514
85d2
8510
8583
85ae
851c
855d
85e1
cf78
cf08
cf0a
cf7e
cf09
cf71
cf38
cf3b
cfb0
cf1d
cf58
cf1c
cfa1
cf5d
cf97
cf9f
cffd
cffe
cfaf
4fcf
4f93
4f52
4fcd
4fc5
4fbe
4f71
4fcc
4f33
4f5f
4fa9
4fad
4fac
4f9a
4fe9
4ffe
4fea
e9aa
e905
e973
e993
e976
e947
e96a
e90e
e982
e9d7
e91d
e9fa
e91b
e955
e9a5
e9a2
e90b
23a3
e579
302a
1881
187b
188a
18c5
18be
187f
1825
1882
18a0
1883
189e
18fe
18a2
6cf4
6cdd
6cc4
6c3c
6cbd
6c27
6c7c
6c5e
6cb2
6c5a
2ea6
2e45
2e35
2ebe
2ed9
2e09
2e8f
2ed7
2e1d
2ef0
2ea5
2eaf
2e5b
1f03
1f08
1f24
1f65
1fd1
1f67
1f8f
1f84
1f98
1ff1
1fe9
1fab
11dd
1147
11d9
11df
1109
110e
113d
11d7
1143
11e3
1194
52aa
52a6
5208
5276
5259
52a2
818e
8186
81a4
81de
81ed
81f8
81fd
9976
9965
998a
99c5
997e
9968
992a
9948
992d
9982
99d2
999c
9912
990c
2f60
2f81
2f2e
2f28
2fcc
2fb1
2fc7
2f1a
2ff6
2f8c
2ffb
2f98
2fa1
2f12
2fef
2f5d
2f92
2f9f
2fe8
2ff1
2fe9
2ffe
0eb9
0e45
0e52
0e8a
0e19
0e75
0ede
0e72
0ec8
0eb4
0e66
0ea9
0ef2
0eac
0ee9
0eea
6922
6947
69a4
69ce
697f
69d8
6971
692a
69d7
6953
6942
691b
69f2
69ad
69ac
69eb
6992
69e9
69ea
690b
0faa
0fdd
0f23
0fcf
0f71
0fbb
0f6f
0f82
0f7c
0ff2
0ffb
0fa8
0f95
0f51
0f5a
0f59
0fe9
0f5b
0f0b
1932
190d
1970
1986
19b8
1957
1985
1946
19c4
197e
1972
19d8
190e
192d
1915
1918
192c
1956
194c
19ac
199d
19e0
1e0d
1e73
1ecf
1ec6
1ed9
1eda
1e29
1e4b
1e88
1eff
1eb1
1e82
1eb2
1e94
1e87
1e5f
1e9b
1e90
1e5d
1ee4
1ee9
1ef9
6581
65d8
653f
65da
6515
65b6
658b
6553
659b
6591
659f
65f8
65ab
3e22
3e2f
3e34
3e09
3e28
3ee7
3e62
3ea5
3e5a
3ee2
2d01
2d8e
2d78
2d1f
2dc5
2d09
2d28
2d2a
2d3c
2d3b
2d89
2dc3
2d8b
2d14
2d66
2d42
2da0
2d83
2dfb
2dac
2d9a
2d6b
2d9f
2d0c
2df9
4503
4546
4565
451f
45ce
45b1
45c3
45e3
4599
45a1
45eb
7add
7acf
7a34
7a20
7a75
7adf
7a71
7a77
7a58
7af2
7afb
7a9f
7ae0
348e
346c
3473
3485
342b
34d6
3425
3418
34b7
34e7
3498
349d
34eb
34e1
6ff4
6f0d
6fb9
6f23
6f81
6f52
6f26
6fd5
6fba
6fb5
6f3c
6fd0
6f2c
6f9c
6f9e
6fe4
3960
3926
39df
394c
399f
8acd
8a7e
8aca
8a3f
8a33
8a3d
8ac0
8ab0
8a18
8a1d
8ae3
8a13
8a9d
8a0c
d906
d931
d96e
d9a4
d97b
d9be
d9d9
d961
d95e
d94d
d9a9
d98c
d984
d990
d99e
d9af
d9a2
d9f3
b92f
b973
b92b
b981
b9c2
b98a
b96a
b96d
b9bc
b99c
b9fa
b987
b91c
b9fc
b9e4
b9f3
ba01
ba0f
ba57
ba7b
ba26
ba36
bacc
ba38
bacb
ba3c
ba1a
ba37
ba14
bad3
ba07
bafa
ba12
ba59
d5dd
d56c
d51f
d5f5
d5d1
d5bb
d5ff
d582
d537
d510
d54c
d5a0
d5fb
d591
d595
d5e8
d559
d5fd
150d
15cf
15c2
15c6
1535
15d6
1541
1548
153b
15dc
15d2
155e
15e7
1542
1556
154c
15fb
15f0
15f8
15fd
15ab
3a32
3a57
3a23
3a74
3a0a
3ab4
3a87
3a98
3af8
3ae9
3a0b
098e
09b8
0976
09df
0972
09cc
09cb
094a
09d0
09dc
09bc
0966
09f2
09e4
09e0
09fe
09e1
35aa
35b8
3523
3581
3508
3519
35be
354e
356f
35c0
3594
3587
3598
35f0
359f
35a2
25b9
25b8
25a4
25cd
2568
254a
2589
2554
2563
258d
25b7
2553
254d
25f2
2562
25a8
25fe
25e6
5e01
5e6c
5e93
5e16
5e24
5e26
5e75
5e7e
5e7f
5e38
5e69
5e6f
5e54
5e8f
5ed0
5ed2
5e43
5e9a
5ef0
5e5a
5e5b
4e2f
4e76
4ef5
4e79
4ed1
4eda
4e4b
4e0e
4e88
4e15
4e67
4e54
4ee3
4e94
4ef6
4e5f
4e84
4eec
4e5b
410d
413a
41d5
4133
41d7
41ed
41e4
41a5
41ee
166c
1685
1623
16b5
16b4
16dc
16f2
1662
1af4
1a73
1a57
1acf
1ac6
1aca
1adf
1ac3
1ad2
1a9c
1afc
1a96
1ae2
7521
75ce
75d1
75d0
75b7
75f6
75ad
75fb
75f0
8e78
8e6e
8e1f
8e35
8e7e
8e72
8e3f
8e49
8e25
8e3b
8e6d
8ec0
8e82
8e1e
8ea8
8e97
8e9f
8ea3
7901
79db
791f
7975
79bf
79c8
792a
7941
794a
795f
7991
7955
79f0
7951
79ee
79e2
ce4f
ce3a
cec2
ce26
ce39
cedf
cede
ce09
ce25
ce33
ce61
ce44
ce7c
ce43
ce1b
ce8c
ceae
ce90
ce12
cee4
ce5a
cee9
7832
7822
78d5
787f
78bf
789c
78b3
78f6
78fc
78f3
decd
ded1
de72
dec8
de41
deff
ded4
de83
de9e
deed
de6b
3f86
3fce
3fc5
3f09
3f2a
3f67
3f82
3fc3
3f37
3fa8
3f9a
3fe5
3fe9
3fa2
be78
be3a
be04
be20
be35
be39
beb5
be28
be2a
be4a
be61
be67
bed0
bed4
beb6
bebc
be66
befa
be58
be5f
be91
be9e
beeb
be95
be6b
bee9
bea2
be0b
a423
a4c6
a4c4
a4cd
a439
a4b5
a4d0
a4d2
5973
593a
5924
59a4
5919
59da
59cb
5910
595e
59a1
5995
59a3
590c
2a0d
2a3a
2a46
2a24
2abe
2ad1
2a77
2a13
2a5d
2af9
c58e
c5db
c58a
c5d5
c5be
c53b
c5bd
c5c7
c5dc
c5bc
c5d7
c587
c513
c592
c596
c5a3
c5e9
c5e1
c5f3
b540
b5b9
b56c
b578
b521
b545
b535
b5bf
b53c
b567
b5bd
b51e
b5c3
b58b
b5b3
b5e3
b54c
b59e
b5e4
b5e8
b5ab
b5af
b5ee
2924
2974
2964
2988
296f
29bc
29d3
29d2
299c
2966
2942
294c
2984
2991
29f7
e532
e5ba
e564
e533
e56f
e59c
e599
e587
e5f2
e5ef
e56b
746e
748a
74c6
74ce
742a
7449
a121
a126
a1d6
a1bb
a12d
a1d0
a127
a1e7
a1ae
a1ec
a10c
c993
c911
c952
c947
c97e
c979
c92a
c967
c9b1
c91e
c9b0
c9b7
c9a9
c99e
c995
c951
c9ee
72f4
72dd
7246
7247
3660
3673
366e
3646
3616
363c
3666
ff32
ff03
ff05
ff78
ffa4
ff19
ffc4
ff7e
ff77
ffbb
ffd4
ffb6
ff18
ff8b
ff13
ff9b
ffac
5fb9
5f16
5fb5
5fd8
5f09
5f28
5f77
5f2d
5f7d
5f82
5fd4
5f37
5f99
5f1c
5fec
5f91
5f95
5fe6
ae4f
aeb9
ae86
ae0f
ae85
aece
aecd
aec5
ae71
ae0e
ae6f
ae54
aed4
ae37
ae10
ae53
aef6
ae4c
ae84
ae5d
aee1
aef3
a940
a90d
a92b
a9a6
a904
a908
a976
a946
a947
a919
a9ca
a969
a949
a982
a956
a94c
a9ae
a992
a951
a9e0
a9af
a9ea
a9e2
0c08
0c52
0cbe
0cbf
0c09
fa57
fac5
fad6
fad9
fab5
fad1
fa3f
facb
fac7
fa1e
fa13
fa84
fa1c
faeb
fa9a
fa97
fae9
8903
8952
8965
89ba
89ca
89b5
897f
8928
89d0
8910
89fa
8958
894c
8999
8984
8991
8959
ee4f
ee0f
ee85
ee16
ee1f
eed9
eede
eebf
eec8
ee25
ee33
ee6d
eeb1
ee54
ee2c
eef2
[...]
